<pad>	0
<s>	0
</s>	0
<unk>	0
▁the	-3.27824
▁to	-3.7269
▁,	-3.75686
▁.	-3.77376
s	-3.77988
▁in	-3.79253
▁of	-3.80632
▁a	-3.84276
-	-4.24752
▁'	-4.30621
▁on	-4.38614
▁and	-4.40139
▁for	-4.66009
.	-4.73941
▁said	-5.07663
▁with	-5.26304
▁##	-5.28845
▁-	-5.32314
▁at	-5.35005
▁that	-5.36571
▁	-5.50933
▁UNK	-5.54599
▁from	-5.56734
▁as	-5.57322
▁an	-5.62907
▁by	-5.75166
▁new	-5.79127
▁u	-5.80406
▁has	-5.81631
▁his	-5.83478
▁after	-5.85024
▁tuesday	-5.85115
▁wednesday	-5.85468
▁thursday	-5.8709
▁is	-5.89426
▁president	-5.90759
▁monday	-5.93882
▁was	-5.9417
▁its	-5.94382
▁friday	-5.99218
▁will	-6.0454
▁it	-6.08838
▁china	-6.09598
lrb	-6.10012
rrb	-6.10209
▁over	-6.12491
▁us	-6.14246
▁two	-6.16779
'	-6.17862
▁government	-6.19297
ed	-6.25468
▁world	-6.26206
▁be	-6.28589
▁####	-6.29911
ing	-6.30476
▁first	-6.3053
▁`	-6.31075
`	-6.32107
▁minister	-6.34486
▁up	-6.36922
▁their	-6.37211
▁have	-6.37827
▁against	-6.38
▁#	-6.38157
▁he	-6.41364
▁###	-6.44874
▁percent	-6.46802
▁more	-6.48165
▁sunday	-6.50694
▁police	-6.51205
▁year	-6.51276
▁who	-6.5206
▁saturday	-6.55058
▁were	-6.57658
▁people	-6.60506
▁here	-6.61064
▁one	-6.64486
▁state	-6.64948
▁this	-6.67221
▁officials	-6.70398
▁million	-6.70591
▁are	-6.71323
▁into	-6.72324
▁says	-6.72659
▁country	-6.73788
▁three	-6.74074
▁united	-6.75257
▁south	-6.77459
▁out	-6.78351
▁killed	-6.80914
▁official	-6.81457
▁not	-6.82096
▁but	-6.82238
▁reported	-6.82335
▁former	-6.85535
▁foreign	-6.85635
▁iraq	-6.87227
▁about	-6.89208
▁last	-6.89788
▁chinese	-6.90229
▁international	-6.91689
▁than	-6.93096
▁#.#	-6.94676
▁been	-6.96152
n	-6.96906
▁military	-6.99233
▁european	-6.9937
▁years	-6.99865
▁court	-6.99953
▁they	-7.00347
▁group	-7.00399
▁#-#	-7.0161
▁would	-7.01647
▁city	-7.03019
d	-7.03202
▁national	-7.03225
▁down	-7.04015
▁week	-7.04107
▁states	-7.04887
▁bank	-7.054
▁had	-7.05426
▁war	-7.05506
▁security	-7.07956
▁prime	-7.08326
▁talks	-7.09047
▁leader	-7.1021
▁prices	-7.10557
▁oil	-7.11076
▁billion	-7.12924
▁top	-7.14235
t	-7.15724
▁second	-7.17233
▁cup	-7.17301
▁s	-7.17631
▁day	-7.17781
▁when	-7.1862
▁dollars	-7.19265
▁which	-7.19299
▁trade	-7.2024
▁next	-7.20859
▁four	-7.20988
▁off	-7.21871
▁news	-7.22695
▁stock	-7.22811
▁#.##	-7.23919
▁british	-7.25443
▁$	-7.25658
▁no	-7.26807
▁bush	-7.27402
▁hong	-7.27746
▁kong	-7.2786
▁israeli	-7.28674
▁party	-7.2884
▁economic	-7.29128
▁her	-7.29839
▁french	-7.31117
▁announced	-7.31559
▁stocks	-7.31965
▁today	-7.3242
▁between	-7.32506
▁market	-7.33991
▁chief	-7.3409
▁may	-7.34369
▁russian	-7.3469
▁close	-7.34907
▁un	-7.36697
▁company	-7.3672
▁american	-7.37257
▁israel	-7.37397
▁all	-7.38013
▁five	-7.3936
▁could	-7.39676
▁peace	-7.39943
▁time	-7.39965
year	-7.41003
▁visit	-7.41149
▁or	-7.41769
▁russia	-7.41884
▁during	-7.42015
▁high	-7.42428
▁taiwan	-7.42572
▁open	-7.43727
▁some	-7.4454
▁higher	-7.44561
▁dollar	-7.44636
▁palestinian	-7.45627
▁end	-7.45856
▁agency	-7.46379
▁union	-7.46434
▁according	-7.46649
▁team	-7.46828
▁home	-7.46923
▁back	-7.47106
▁house	-7.47982
▁eu	-7.48327
▁north	-7.48417
▁central	-7.48467
▁india	-7.49006
▁man	-7.50788
▁other	-7.51436
▁set	-7.51616
▁major	-7.52225
▁death	-7.52427
▁korea	-7.52501
▁pakistan	-7.52577
▁lower	-7.53746
▁n	-7.53797
▁month	-7.53883
▁german	-7.54205
▁southern	-7.54795
▁local	-7.5534
▁nuclear	-7.55431
▁france	-7.55446
▁leaders	-7.55446
▁iran	-7.57068
▁federal	-7.57142
▁political	-7.58322
▁##-	-7.59279
▁six	-7.59593
▁african	-7.60145
▁opposition	-7.6015
▁help	-7.60406
▁before	-7.60412
▁win	-7.60759
▁early	-7.61719
▁attack	-7.61752
▁defense	-7.62335
▁general	-7.62567
▁troops	-7.62919
th	-7.62982
▁most	-7.63027
▁under	-7.63074
▁york	-7.63382
▁shares	-7.63758
▁points	-7.64064
▁east	-7.66037
▁--	-7.67941
▁report	-7.67976
▁plan	-7.68133
▁exchange	-7.68255
▁women	-7.68256
▁authorities	-7.68441
▁province	-7.68925
▁least	-7.6906
▁election	-7.70995
▁nations	-7.7119
▁#,###	-7.71587
▁called	-7.71806
▁al	-7.71984
▁countries	-7.72719
▁closed	-7.73205
▁army	-7.73238
▁record	-7.73315
▁deal	-7.73355
▁take	-7.73664
▁australian	-7.7387
▁presidential	-7.74008
▁share	-7.74195
▁league	-7.74242
▁plans	-7.74617
▁meeting	-7.74661
ly	-7.74936
▁west	-7.74955
▁secretary	-7.74992
▁northern	-7.75555
▁months	-7.76362
▁capital	-7.76594
▁third	-7.76667
▁africa	-7.7715
▁final	-7.77235
▁air	-7.77239
▁clinton	-7.77372
▁held	-7.77977
▁indian	-7.78078
▁killing	-7.78087
▁health	-7.78483
▁iraqi	-7.78729
▁anti	-7.7906
▁if	-7.79449
▁ministry	-7.79603
▁rights	-7.79725
▁forces	-7.80402
▁gold	-7.80634
▁died	-7.80731
▁britain	-7.81141
▁asian	-7.82224
y	-7.82288
▁arrested	-7.82597
▁since	-7.82845
▁lead	-7.83066
▁him	-7.83142
▁economy	-7.83549
▁elections	-7.84365
▁amid	-7.84587
▁region	-7.84774
▁while	-7.84872
▁public	-7.85833
▁germany	-7.85863
▁afghanistan	-7.86029
▁power	-7.86173
▁dead	-7.8623
▁night	-7.86391
e	-7.8682
▁australia	-7.86842
▁crisis	-7.86853
▁support	-7.86994
▁office	-7.87116
▁case	-7.87494
▁left	-7.87507
▁say	-7.8755
▁trial	-7.87832
▁attacks	-7.88004
▁financial	-7.89128
▁obama	-7.89718
▁nation	-7.90334
▁days	-7.90831
▁through	-7.91149
▁another	-7.91838
▁head	-7.91841
▁index	-7.91845
▁following	-7.91883
▁men	-7.92062
▁reports	-7.92325
▁near	-7.92939
▁being	-7.93185
▁profit	-7.93907
▁despite	-7.93997
▁force	-7.94101
▁make	-7.94248
▁found	-7.94488
▁key	-7.94513
▁fire	-7.94869
▁street	-7.9488
▁euro	-7.95126
▁ahead	-7.95181
▁global	-7.95267
▁expected	-7.95341
▁campaign	-7.95744
▁bid	-7.96465
▁won	-7.97032
▁victory	-7.97086
▁parliament	-7.9709
▁injured	-7.97121
▁made	-7.97385
▁aid	-7.97413
▁service	-7.9748
▁media	-7.97627
▁largest	-7.9778
▁part	-7.98443
▁workers	-7.98751
▁charges	-7.98751
▁long	-7.98974
▁them	-7.99097
▁olympic	-7.9967
▁center	-7.99772
▁##.#	-7.99777
▁senior	-7.99801
▁drug	-7.99895
▁season	-8.00003
▁can	-8.00106
er	-8.0032
▁accused	-8.0053
old	-8.00716
▁business	-8.0093
▁meet	-8.01013
▁rebels	-8.01184
▁bomb	-8.01275
▁calls	-8.01287
▁beijing	-8.01332
a	-8.01493
▁council	-8.01963
▁agreement	-8.03356
▁games	-8.03386
day	-8.0343
o	-8.0355
▁still	-8.03729
▁work	-8.03975
▁border	-8.04475
▁strike	-8.04482
▁wall	-8.04899
▁bill	-8.05709
▁europe	-8.06128
▁saying	-8.06476
▁program	-8.06803
▁law	-8.06868
▁round	-8.06985
▁white	-8.07007
▁test	-8.07083
▁rose	-8.073
▁george	-8.07316
▁soldiers	-8.07663
▁members	-8.07686
▁sales	-8.07748
#	-8.07813
▁sri	-8.07892
▁##,###	-8.08068
▁human	-8.08149
▁seven	-8.08228
▁thousands	-8.08276
▁because	-8.08422
▁john	-8.08524
▁car	-8.08668
▁ago	-8.08846
▁late	-8.08906
▁urged	-8.09088
▁trading	-8.09945
▁gaza	-8.10164
▁hit	-8.10375
▁there	-8.10396
▁development	-8.10602
▁where	-8.10999
▁republic	-8.1121
▁investors	-8.11491
▁including	-8.1179
▁london	-8.12362
▁coach	-8.12423
▁cooperation	-8.12909
▁mexico	-8.1347
▁vote	-8.13656
▁corp	-8.13983
▁turkey	-8.13992
▁italian	-8.1459
▁co	-8.14644
▁nato	-8.14767
▁quarter	-8.14772
▁children	-8.14922
▁industry	-8.15165
▁protest	-8.1597
▁wins	-8.15984
▁return	-8.16025
▁press	-8.16092
▁violence	-8.16172
▁what	-8.1622
▁suspected	-8.16311
▁indonesia	-8.17066
▁race	-8.17408
▁spokesman	-8.17462
▁released	-8.17528
▁should	-8.17721
▁judge	-8.17846
▁w	-8.17951
▁washington	-8.17965
▁summit	-8.18233
▁rate	-8.18295
▁she	-8.18406
▁tour	-8.18499
▁department	-8.18663
▁democratic	-8.18886
▁cut	-8.18911
▁efforts	-8.19203
m	-8.19277
▁korean	-8.19333
▁nearly	-8.1954
▁###,###	-8.19648
▁growth	-8.20351
▁just	-8.20606
▁start	-8.20696
▁markets	-8.20755
▁way	-8.20801
▁dealers	-8.20903
▁administration	-8.21203
▁beat	-8.21775
▁england	-8.21901
▁congress	-8.21947
▁fight	-8.21958
▁premier	-8.22174
▁gas	-8.22534
▁commission	-8.22628
▁eight	-8.23235
▁game	-8.23582
i	-8.23822
▁only	-8.24194
▁companies	-8.24288
▁opened	-8.24315
▁islamic	-8.24366
▁rise	-8.24428
▁conference	-8.24832
▁philippine	-8.25168
▁school	-8.25455
▁morning	-8.25476
▁hold	-8.2559
▁america	-8.2577
▁prison	-8.2579
▁committee	-8.26274
▁due	-8.26778
▁get	-8.26965
▁energy	-8.27064
▁title	-8.27416
▁move	-8.27551
▁life	-8.27799
▁agreed	-8.27835
▁italy	-8.28157
▁match	-8.28159
▁spain	-8.28291
▁system	-8.28408
▁fell	-8.2884
▁pay	-8.29088
▁show	-8.29126
▁island	-8.2915
▁western	-8.29151
▁thai	-8.29171
▁free	-8.29459
▁march	-8.2969
▁face	-8.29729
▁afghan	-8.29916
▁leading	-8.30453
▁eastern	-8.30557
▁food	-8.3056
$	-8.30687
▁soccer	-8.3089
▁ban	-8.30908
▁decision	-8.30922
▁asia	-8.31133
▁budget	-8.31236
▁canada	-8.31413
▁across	-8.31614
▁strong	-8.31713
▁brazil	-8.3173
▁took	-8.31747
▁vice	-8.32091
▁ruling	-8.32373
▁release	-8.32581
▁champion	-8.32654
▁town	-8.32952
▁tokyo	-8.3302
▁giant	-8.33062
▁go	-8.33317
▁many	-8.33358
▁interest	-8.33401
▁senate	-8.33402
▁shot	-8.33844
▁investment	-8.34072
▁around	-8.34319
▁number	-8.34538
▁so	-8.34998
▁big	-8.35107
▁control	-8.35279
▁indonesian	-8.3601
▁turkish	-8.36129
▁series	-8.36207
▁coast	-8.36214
▁zealand	-8.36636
▁woman	-8.36753
▁half	-8.36864
▁vietnam	-8.37383
▁thailand	-8.37426
▁ba	-8.38075
▁past	-8.38336
▁recent	-8.38569
▁even	-8.38719
▁de	-8.39029
▁do	-8.39049
▁fall	-8.39242
▁again	-8.39576
▁told	-8.39858
▁price	-8.39883
▁signed	-8.40213
▁any	-8.40263
▁warned	-8.40326
▁now	-8.40563
▁ties	-8.40673
▁several	-8.40674
▁money	-8.40925
▁weekend	-8.40932
▁airport	-8.41092
▁lanka	-8.41236
▁charged	-8.41341
▁latest	-8.41447
▁use	-8.41687
▁spanish	-8.41765
▁organization	-8.41815
▁possible	-8.41863
▁policy	-8.41948
▁family	-8.41978
▁biggest	-8.42087
▁inc	-8.42114
▁increase	-8.42118
▁militants	-8.42257
▁baghdad	-8.42549
▁california	-8.43216
▁others	-8.43288
▁arab	-8.4335
▁chairman	-8.43802
▁urges	-8.4389
▁star	-8.44253
▁among	-8.44489
▁play	-8.44509
▁plane	-8.44603
▁yen	-8.44711
▁met	-8.4527
▁middle	-8.45395
▁hopes	-8.45458
▁put	-8.45552
▁hospital	-8.4621
▁rebel	-8.46457
▁t	-8.46492
▁call	-8.47223
▁zimbabwe	-8.47272
▁fund	-8.47306
▁post	-8.47479
▁sign	-8.47601
▁began	-8.47802
▁run	-8.47835
▁club	-8.48014
▁flu	-8.48337
▁discuss	-8.48413
▁tax	-8.49193
▁muslim	-8.49336
▁special	-8.49452
▁championship	-8.49496
▁main	-8.498
▁demand	-8.49896
▁###.##	-8.50197
▁fourth	-8.50349
▁labor	-8.50881
▁executive	-8.50917
▁red	-8.51152
▁malaysia	-8.51157
▁suicide	-8.51169
▁lebanon	-8.51443
▁hundreds	-8.51462
▁myanmar	-8.51676
▁saudi	-8.51851
▁university	-8.51953
▁fighting	-8.5211
▁future	-8.52139
▁republican	-8.52284
▁nine	-8.524
▁give	-8.52456
▁opening	-8.52654
▁egypt	-8.52665
▁right	-8.52666
▁alleged	-8.52673
▁television	-8.5344
▁action	-8.53481
▁without	-8.54396
▁murder	-8.54417
▁##.##	-8.54548
▁weeks	-8.54913
▁newspaper	-8.55408
▁whether	-8.5548
▁become	-8.55767
▁further	-8.55779
▁missing	-8.55946
▁rally	-8.56198
▁contract	-8.56317
▁shanghai	-8.56568
▁board	-8.5657
▁canadian	-8.56701
▁keep	-8.56931
▁both	-8.57112
rack	-8.57184
▁led	-8.57569
▁wounded	-8.58
▁finance	-8.58085
▁arrived	-8.58189
▁rates	-8.5831
▁boost	-8.58334
▁relations	-8.58474
▁results	-8.58897
▁how	-8.59089
▁role	-8.5932
▁texas	-8.59344
▁arrest	-8.59458
▁iranian	-8.5975
▁water	-8.59871
▁nigeria	-8.59969
▁football	-8.60159
▁crash	-8.60266
▁internet	-8.60361
▁like	-8.60468
▁philippines	-8.60533
▁ended	-8.60578
▁tournament	-8.60915
▁victims	-8.6126
▁palestinians	-8.61277
▁taking	-8.61314
▁issue	-8.61423
▁pakistani	-8.61446
▁terrorist	-8.61582
▁mission	-8.61888
▁small	-8.62108
▁firm	-8.62244
▁joint	-8.62247
▁investigation	-8.62345
▁mark	-8.62453
▁sources	-8.6248
▁illegal	-8.62685
▁san	-8.627
▁june	-8.62709
▁battle	-8.62906
▁much	-8.6296
▁continue	-8.63054
▁terrorism	-8.63276
▁loss	-8.63311
▁body	-8.63578
▁far	-8.63592
▁best	-8.63998
▁greek	-8.64236
▁production	-8.64262
▁supreme	-8.64425
▁regional	-8.64983
▁los	-8.65443
▁data	-8.65572
▁pm	-8.65893
▁area	-8.66
▁change	-8.66078
▁net	-8.66142
▁july	-8.66156
▁dutch	-8.66157
▁times	-8.6641
▁association	-8.66701
▁king	-8.6698
▁gains	-8.6711
▁well	-8.67255
▁launched	-8.67343
▁low	-8.67386
▁step	-8.67389
▁bombing	-8.6762
▁space	-8.67636
▁paris	-8.6774
▁sentenced	-8.67898
▁kosovo	-8.67901
▁earlier	-8.67917
▁trying	-8.67928
▁stop	-8.67952
▁re	-8.6797
▁little	-8.68165
▁rival	-8.68528
▁dies	-8.68589
▁sea	-8.69023
▁offer	-8.69118
▁earnings	-8.69163
▁hamas	-8.69201
▁bangladesh	-8.69379
▁scored	-8.69697
▁pressure	-8.69737
▁emergency	-8.69852
▁good	-8.69955
▁players	-8.70012
▁ex	-8.7011
▁groups	-8.70211
▁place	-8.70328
▁wants	-8.70352
▁terror	-8.70362
▁concerns	-8.70473
▁students	-8.70634
▁civil	-8.70933
▁effort	-8.70984
▁outside	-8.71869
▁angeles	-8.72002
▁private	-8.72016
▁hours	-8.7207
▁reach	-8.72459
▁cabinet	-8.72627
▁issues	-8.72744
▁black	-8.72847
▁claims	-8.7285
▁young	-8.73052
▁ordered	-8.73156
▁lawmakers	-8.73213
▁used	-8.73234
▁mixed	-8.73267
▁taipei	-8.73382
▁stage	-8.73444
▁buy	-8.73539
▁building	-8.7358
▁crimes	-8.7364
▁away	-8.73644
▁taliban	-8.73823
▁envoy	-8.73962
amp	-8.74049
▁same	-8.74056
▁jobs	-8.74258
▁annual	-8.7451
▁launch	-8.74699
▁grand	-8.74783
▁medical	-8.74828
▁##-##	-8.74857
▁member	-8.74859
▁line	-8.75047
▁tv	-8.75137
▁likely	-8.75146
▁own	-8.75146
▁film	-8.75224
▁join	-8.75274
▁moscow	-8.75326
▁ready	-8.75442
▁armed	-8.75735
▁probe	-8.75811
▁road	-8.75907
▁threat	-8.76238
▁justice	-8.76242
▁did	-8.76285
▁jordan	-8.76358
▁earthquake	-8.76529
▁making	-8.76547
▁continued	-8.76853
▁failed	-8.76902
▁director	-8.7691
▁dispute	-8.77438
▁rules	-8.7753
▁toward	-8.77535
led	-8.77985
▁leave	-8.7801
▁lost	-8.78049
▁p	-8.78145
▁communist	-8.78284
▁order	-8.78347
▁deadly	-8.78356
▁fears	-8.78407
▁kills	-8.78442
▁coalition	-8.78486
▁plant	-8.78541
▁land	-8.78546
▁went	-8.78553
▁swiss	-8.78618
▁takes	-8.78874
▁greece	-8.78967
▁station	-8.79104
▁process	-8.79157
▁ireland	-8.79532
▁daily	-8.79777
▁ministers	-8.79796
▁must	-8.80124
▁information	-8.80145
▁whose	-8.80205
▁seek	-8.80218
▁cross	-8.80258
▁gulf	-8.80471
▁history	-8.80612
##	-8.80684
▁job	-8.80942
▁study	-8.81078
▁sent	-8.81155
▁champions	-8.81263
▁services	-8.81344
▁reform	-8.81405
▁aimed	-8.81657
▁mayor	-8.81856
▁reached	-8.81963
▁statement	-8.82
▁candidate	-8.82027
▁session	-8.82146
▁build	-8.82152
▁airlines	-8.82198
▁officer	-8.82224
▁toll	-8.82473
▁planned	-8.8258
▁technology	-8.82604
▁kill	-8.82613
▁governor	-8.82629
▁egyptian	-8.82681
▁inflation	-8.82698
▁xinhua	-8.82912
c	-8.82922
▁mexican	-8.83104
▁michael	-8.83128
▁confirmed	-8.83184
▁drop	-8.83266
▁church	-8.83419
▁debt	-8.83714
▁legal	-8.8373
▁project	-8.83743
▁named	-8.83873
▁championships	-8.8397
▁soon	-8.8407
▁heavy	-8.84144
▁full	-8.84234
▁bosnia	-8.84394
▁radio	-8.84638
▁bus	-8.84706
▁begin	-8.84715
▁protests	-8.85002
▁convicted	-8.85344
▁corruption	-8.85407
▁dlrs	-8.85498
▁anniversary	-8.85608
▁real	-8.85623
▁better	-8.85861
▁fuel	-8.85911
▁pro	-8.85943
▁bosnian	-8.85983
▁showed	-8.86064
▁train	-8.86066
▁kenya	-8.86183
▁prosecutors	-8.86256
▁embassy	-8.86281
▁opens	-8.86342
▁debate	-8.86351
▁growing	-8.86424
▁might	-8.86526
▁sell	-8.86605
▁until	-8.86876
▁host	-8.87248
▁total	-8.87254
h	-8.87457
▁behind	-8.87583
▁banks	-8.87728
k	-8.87891
▁attempt	-8.88099
▁sudan	-8.88184
▁meets	-8.88219
▁you	-8.88221
▁decided	-8.88552
an	-8.88857
▁detained	-8.89001
▁sports	-8.89159
▁suspect	-8.89212
▁site	-8.89242
▁current	-8.89312
▁officers	-8.89449
▁deputy	-8.89488
▁seeking	-8.89901
▁experts	-8.89987
▁ii	-8.90274
▁clash	-8.90507
▁reserve	-8.90603
▁parties	-8.90619
▁construction	-8.90663
▁explosion	-8.90783
▁#-	-8.90897
quarter	-8.91019
▁gets	-8.91133
▁sector	-8.91152
▁industrial	-8.91175
▁florida	-8.91243
▁straight	-8.91305
▁maker	-8.91559
▁brazilian	-8.91646
▁olympics	-8.91671
▁malaysian	-8.9182
▁warns	-8.92033
▁operation	-8.92065
▁disease	-8.92072
▁level	-8.92075
▁asked	-8.92149
▁nepal	-8.92224
▁tennis	-8.92441
▁czech	-8.92506
▁guilty	-8.92754
▁seeks	-8.92937
▁short	-8.92992
▁cricket	-8.93017
▁soldier	-8.9304
▁proposed	-8.93329
▁i	-8.93433
▁fresh	-8.93442
▁january	-8.93474
▁safety	-8.93584
▁jail	-8.93648
▁rising	-8.93656
▁arms	-8.9373
▁concern	-8.93823
▁measures	-8.93832
▁strip	-8.9385
▁september	-8.93989
▁sanctions	-8.93998
▁computer	-8.94251
▁weapons	-8.94345
▁research	-8.94382
▁large	-8.94415
in	-8.94635
▁credit	-8.94635
▁send	-8.94655
▁few	-8.94713
▁blast	-8.95022
▁flight	-8.95081
▁camp	-8.95081
▁democrats	-8.9514
▁losses	-8.95255
▁argentina	-8.95344
▁find	-8.95548
based	-8.95717
month	-8.95948
▁community	-8.96045
▁travel	-8.96161
▁scandal	-8.96379
▁old	-8.96556
▁such	-8.96652
▁wife	-8.96894
▁field	-8.96933
▁cuts	-8.96989
▁training	-8.9703
▁base	-8.97117
▁hk	-8.97156
▁child	-8.97297
▁pope	-8.97356
▁arafat	-8.97374
▁st	-8.9738
▁ukraine	-8.97543
▁summer	-8.97735
▁later	-8.97753
▁problems	-8.97753
▁profits	-8.97774
▁shooting	-8.97798
▁winning	-8.98123
▁ambassador	-8.98124
▁warning	-8.98178
time	-8.98196
▁working	-8.98206
▁delegation	-8.9838
▁son	-8.98386
▁network	-8.98419
▁storm	-8.98437
▁operations	-8.98675
▁within	-8.98685
▁front	-8.98784
▁appear	-8.98829
▁signs	-8.98959
on	-8.98967
▁e	-8.98969
▁b	-8.99108
▁fired	-8.99139
es	-8.99176
▁see	-8.99193
▁cuba	-8.99353
▁accident	-8.99462
▁japan	-8.99629
▁cases	-8.99684
▁domestic	-8.99768
▁those	-8.99788
▁americans	-8.99984
up	-9.00003
▁previous	-9.00011
▁river	-9.0003
▁refugees	-9.00118
▁venezuela	-9.00137
▁try	-9.00331
▁social	-9.00569
▁park	-9.00623
▁education	-9.00763
▁player	-9.00788
▁almost	-9.00906
▁ground	-9.00921
▁spending	-9.01118
▁list	-9.01427
▁allow	-9.01562
▁conflict	-9.01678
▁issued	-9.01706
▁hard	-9.02142
▁search	-9.02186
▁david	-9.02256
▁negotiations	-9.02284
man	-9.0231
▁come	-9.02334
▁manager	-9.02425
▁county	-9.02475
▁sharply	-9.02516
▁port	-9.02567
▁once	-9.02572
▁airline	-9.02806
▁affairs	-9.02914
▁paul	-9.03001
▁massive	-9.03047
▁heart	-9.03173
▁jewish	-9.03312
▁residents	-9.03341
▁along	-9.03453
▁expressed	-9.03464
▁charge	-9.03727
▁consumer	-9.03881
▁trip	-9.04061
▁hope	-9.04076
▁syria	-9.04176
▁georgia	-9.0433
▁nigerian	-9.04521
▁gov	-9.04594
▁d	-9.04639
▁november	-9.0466
▁faces	-9.04698
▁lawyer	-9.04716
▁afternoon	-9.04821
▁pacific	-9.04857
▁currency	-9.04912
▁saddam	-9.04937
▁products	-9.05067
▁break	-9.05159
▁less	-9.05428
▁ever	-9.05453
▁period	-9.05659
▁event	-9.05688
▁funds	-9.05865
▁areas	-9.05925
▁mass	-9.06014
▁parliamentary	-9.06024
▁rescue	-9.06049
▁visiting	-9.06262
▁slightly	-9.06345
▁side	-9.06419
▁movement	-9.07
▁robert	-9.07212
▁japanese	-9.07245
▁provide	-9.07503
▁october	-9.0752
▁ship	-9.07555
▁hits	-9.07562
▁care	-9.07576
▁does	-9.07709
▁kashmir	-9.08077
▁gave	-9.08108
▁colombia	-9.08123
▁also	-9.08144
▁sale	-9.08198
▁serb	-9.08355
▁fraud	-9.08476
▁push	-9.08526
▁exports	-9.08615
▁great	-9.08735
▁rejected	-9.08735
▁scheduled	-9.08843
▁g	-9.0886
▁worth	-9.08882
▁lebanese	-9.09031
▁forced	-9.09098
▁poor	-9.0929
▁came	-9.09331
▁sweden	-9.09378
▁progress	-9.09382
▁bird	-9.09438
▁suspended	-9.09564
▁claimed	-9.09589
▁militant	-9.09599
▁denied	-9.09651
▁o	-9.10323
▁suspects	-9.10566
▁remains	-9.10624
▁stay	-9.10687
▁poland	-9.10881
▁helped	-9.11162
▁guard	-9.11165
▁bring	-9.11195
▁protesters	-9.11208
▁staff	-9.11282
▁authority	-9.11334
▁ethnic	-9.11369
▁moving	-9.11515
▁music	-9.116
▁diplomatic	-9.11718
▁draw	-9.12397
▁festival	-9.12399
▁each	-9.12431
▁cyprus	-9.12573
▁remain	-9.12739
▁appeal	-9.12742
▁sept	-9.12758
▁deficit	-9.12906
▁crime	-9.1291
▁goal	-9.12992
▁turned	-9.13013
▁orders	-9.13032
▁carrying	-9.13061
run	-9.13186
▁injury	-9.13194
▁dropped	-9.13284
▁received	-9.1363
▁caused	-9.13638
▁raise	-9.13689
▁recovery	-9.13741
▁relief	-9.13867
▁crude	-9.13946
▁taken	-9.14029
▁cancer	-9.14072
▁august	-9.14074
▁seen	-9.1418
▁leaving	-9.1429
▁career	-9.14454
▁drugs	-9.14645
▁uganda	-9.14655
▁running	-9.14835
▁missile	-9.1495
▁hussein	-9.14983
▁fans	-9.15005
▁approve	-9.15076
▁aircraft	-9.15161
▁moved	-9.15257
▁ruled	-9.15324
▁himself	-9.15464
▁madrid	-9.15464
▁putin	-9.15581
▁interior	-9.15598
▁forward	-9.15639
▁cost	-9.15646
▁improve	-9.15659
▁calling	-9.15668
▁controversial	-9.15791
▁traffic	-9.15896
▁returned	-9.15978
▁insurance	-9.16006
▁clashes	-9.16043
▁rule	-9.16145
▁resume	-9.16154
▁beats	-9.16287
▁civilians	-9.16327
▁allegedly	-9.16392
▁confidence	-9.16451
▁congo	-9.16503
▁intelligence	-9.1652
▁aids	-9.16569
▁criminal	-9.16719
▁proposal	-9.16798
▁poll	-9.16845
▁competition	-9.16987
▁unit	-9.17006
▁term	-9.17041
▁basketball	-9.17098
▁troubled	-9.17173
▁english	-9.17212
▁cash	-9.17243
▁prevent	-9.17359
▁commander	-9.1743
▁activists	-9.17462
▁panel	-9.17466
▁increased	-9.17518
▁challenge	-9.17534
▁rises	-9.17865
▁phone	-9.17972
▁hurricane	-9.18021
▁polls	-9.18023
▁voters	-9.18077
▁need	-9.18127
▁published	-9.18374
▁settlement	-9.18389
▁resolution	-9.1864
▁figures	-9.18702
▁given	-9.18786
▁tamil	-9.18856
l	-9.18889
▁crashed	-9.18959
▁coming	-9.18999
▁decades	-9.19152
▁attend	-9.19279
▁euros	-9.19373
▁powerful	-9.19414
r	-9.19462
▁sen	-9.19482
▁swedish	-9.19503
al	-9.19576
▁#,###.##	-9.19583
▁yuan	-9.19671
▁kuwait	-9.19701
▁seized	-9.19714
▁protect	-9.19944
▁zone	-9.19969
▁auto	-9.20085
▁dozens	-9.20272
▁too	-9.20276
▁defeat	-9.20289
▁ending	-9.20545
▁makes	-9.20618
▁row	-9.20777
▁already	-9.20777
▁highest	-9.20782
▁sex	-9.20933
to	-9.21085
p	-9.21195
u	-9.2125
▁name	-9.21272
▁leaves	-9.21327
▁f	-9.21336
▁scientists	-9.21438
▁boston	-9.21468
▁alliance	-9.21618
▁commercial	-9.21647
▁planning	-9.21659
▁overseas	-9.21671
▁overnight	-9.21784
▁prize	-9.21809
▁december	-9.21838
▁evidence	-9.21914
▁light	-9.22279
▁agree	-9.22404
▁prosecutor	-9.22498
▁cities	-9.22654
▁protection	-9.22659
▁futures	-9.22674
▁book	-9.22736
qaida	-9.22793
▁attorney	-9.23011
▁flights	-9.23079
▁district	-9.23285
▁blair	-9.23393
▁rice	-9.23518
▁using	-9.23821
▁known	-9.23849
▁jailed	-9.23906
▁statistics	-9.24002
▁threatened	-9.2402
▁irish	-9.24025
▁climate	-9.24191
▁homes	-9.24271
▁finish	-9.24325
▁chicago	-9.24358
▁falls	-9.24455
▁rain	-9.24742
▁deaths	-9.24864
▁navy	-9.24912
▁serbia	-9.25021
▁huge	-9.25038
▁allegations	-9.25138
▁environmental	-9.25158
▁super	-9.25183
▁form	-9.2528
▁export	-9.2529
▁beating	-9.25405
▁holding	-9.25515
▁per	-9.25599
▁banned	-9.25639
▁mideast	-9.25659
▁religious	-9.25696
▁started	-9.25762
▁bay	-9.2583
▁costs	-9.25902
▁hand	-9.2597
▁look	-9.2611
▁division	-9.26147
▁tourism	-9.26188
▁tiger	-9.26198
▁denies	-9.26437
▁mainland	-9.26601
▁going	-9.26855
▁yet	-9.26857
▁polish	-9.2692
▁fifth	-9.27042
▁wo	-9.27104
▁worst	-9.27201
▁immigration	-9.27287
▁positive	-9.27384
g	-9.27401
▁catholic	-9.27441
▁shows	-9.27528
▁april	-9.27622
▁northwest	-9.27632
▁shiite	-9.27681
▁tried	-9.27962
▁promote	-9.27994
▁southeast	-9.28021
▁point	-9.28027
▁situation	-9.28107
▁abuse	-9.28199
▁college	-9.2824
▁track	-9.28267
▁stake	-9.2827
▁weather	-9.2828
▁facing	-9.28569
▁analysts	-9.28681
▁m	-9.28761
▁supply	-9.28906
▁turn	-9.28993
▁sees	-9.29184
▁popular	-9.29363
▁claim	-9.29422
▁draft	-9.29742
general	-9.29818
▁became	-9.30048
▁supporters	-9.30266
▁recently	-9.30451
▁holiday	-9.30479
▁double	-9.30704
▁serious	-9.30709
▁sets	-9.30744
▁february	-9.30756
▁risk	-9.30983
▁damage	-9.31005
▁jerusalem	-9.31079
▁treaty	-9.31095
▁tough	-9.3122
▁independent	-9.31352
▁father	-9.31372
▁federation	-9.31397
▁colombian	-9.31499
▁drive	-9.31528
▁arabia	-9.31534
st	-9.31591
▁century	-9.31657
▁hotel	-9.31676
re	-9.31735
▁lankan	-9.3186
▁stadium	-9.3203
▁boy	-9.32185
▁quake	-9.32234
▁movie	-9.3238
▁banking	-9.32496
▁enough	-9.32753
▁non	-9.32767
▁want	-9.32801
▁bodies	-9.32831
▁village	-9.32896
▁bilateral	-9.33038
▁performance	-9.33217
▁assembly	-9.33286
▁winter	-9.33389
▁advance	-9.33401
▁independence	-9.33405
▁democracy	-9.33483
▁got	-9.33638
▁tests	-9.33733
▁rugby	-9.33741
▁mother	-9.33863
▁haiti	-9.33956
▁c	-9.34098
▁student	-9.34107
▁candidates	-9.34151
▁declared	-9.34235
▁gunmen	-9.34241
▁gm	-9.34389
▁athens	-9.34423
▁review	-9.34481
▁criticism	-9.34635
▁mine	-9.34652
▁squad	-9.34688
▁changes	-9.3473
▁territory	-9.34864
▁lawsuit	-9.34897
▁zambia	-9.34931
▁fair	-9.35057
▁begins	-9.3519
▁baseball	-9.35455
▁lawyers	-9.35471
▁tony	-9.355
▁condemned	-9.35589
▁treatment	-9.35665
▁arrives	-9.35713
▁raid	-9.35781
▁broke	-9.35847
▁blue	-9.35849
▁l	-9.35874
▁medal	-9.35983
▁online	-9.36285
▁management	-9.36319
▁schools	-9.3639
▁looking	-9.36644
▁housing	-9.36664
▁evening	-9.36706
▁jury	-9.36806
▁h	-9.37021
▁employees	-9.37249
▁offers	-9.3758
▁response	-9.37632
▁closer	-9.37688
▁clear	-9.37713
▁prisoners	-9.37778
▁jet	-9.37866
▁stand	-9.37916
▁loan	-9.37936
▁award	-9.38067
▁doctors	-9.38089
▁green	-9.38147
▁winner	-9.38211
▁talk	-9.383
▁age	-9.38404
▁cambodia	-9.3844
▁natural	-9.38594
▁defending	-9.388
▁raised	-9.38912
▁friendly	-9.39038
▁brown	-9.39049
▁target	-9.39067
▁reduce	-9.39131
▁pct	-9.39258
▁unemployment	-9.39282
▁art	-9.39337
▁having	-9.39576
▁tourists	-9.39688
▁microsoft	-9.39696
▁truck	-9.39736
▁kurdish	-9.39763
▁passenger	-9.39782
▁focus	-9.39829
▁parts	-9.39886
▁starting	-9.39886
▁striker	-9.39982
▁immigrants	-9.40002
▁elected	-9.40006
▁k	-9.40046
▁disaster	-9.40079
▁helicopter	-9.40178
▁annan	-9.40318
▁bombings	-9.40359
▁forecast	-9.40433
▁crackdown	-9.40525
▁upcoming	-9.40537
▁conservative	-9.40541
▁selling	-9.40635
b	-9.40773
▁museum	-9.40913
▁wanted	-9.40927
▁brought	-9.40966
▁filed	-9.41032
▁reaching	-9.41062
▁vowed	-9.41233
▁j	-9.41286
▁croatia	-9.41365
###	-9.41435
▁hostage	-9.41545
▁survey	-9.41801
▁reforms	-9.4182
▁pledged	-9.41822
▁giving	-9.41953
▁royal	-9.42112
▁majority	-9.42159
▁republicans	-9.42191
▁families	-9.42231
ers	-9.42282
▁rejects	-9.42303
▁accord	-9.42305
▁passengers	-9.42332
▁offered	-9.42353
▁darfur	-9.42416
▁surgery	-9.42539
▁minutes	-9.42864
▁journalist	-9.4287
▁single	-9.42893
▁video	-9.42962
▁ceremony	-9.43095
▁mccain	-9.43368
▁constitution	-9.43408
▁act	-9.43494
▁combat	-9.43618
▁latin	-9.43666
▁sought	-9.43726
▁conditions	-9.43795
▁la	-9.43911
▁girl	-9.4403
▁avoid	-9.44037
▁never	-9.44095
▁ends	-9.441
dollar	-9.44214
▁moves	-9.44255
▁closes	-9.44318
▁lives	-9.44341
▁farmers	-9.44381
▁chance	-9.4446
▁vows	-9.4462
▁romania	-9.44732
▁crew	-9.44733
▁firms	-9.44778
▁steps	-9.44794
▁delay	-9.44809
▁tensions	-9.4481
▁tehran	-9.45051
▁counterpart	-9.45137
▁portugal	-9.45219
▁historic	-9.45236
▁r	-9.45396
▁position	-9.45606
▁treasury	-9.45674
▁miss	-9.4575
▁bad	-9.45854
▁attacked	-9.46079
▁source	-9.46295
▁chavez	-9.46314
▁switzerland	-9.46673
▁separatist	-9.46674
▁legislation	-9.47
▁headquarters	-9.47121
▁offensive	-9.47153
▁gay	-9.47154
▁injuring	-9.47277
▁decade	-9.47329
▁closing	-9.47348
▁norway	-9.47547
▁vladimir	-9.47629
▁die	-9.47678
▁names	-9.47696
▁prince	-9.47744
▁apparent	-9.47832
▁boat	-9.47834
▁visits	-9.47925
▁referendum	-9.48216
-##	-9.48268
▁atlanta	-9.48343
▁southwest	-9.48354
▁involved	-9.48429
▁journalists	-9.48468
▁access	-9.4847
▁strikes	-9.48508
▁package	-9.48523
▁halt	-9.48607
▁potential	-9.48901
▁refugee	-9.48962
▁gives	-9.49018
▁expand	-9.49038
▁secret	-9.49057
▁linked	-9.49074
▁announces	-9.49099
▁congressional	-9.49202
▁chechnya	-9.49257
▁citizens	-9.49298
▁millions	-9.49325
▁netherlands	-9.49364
▁leads	-9.49426
▁investigators	-9.49468
▁rare	-9.49558
▁every	-9.49583
▁northeast	-9.49649
▁hillary	-9.49662
▁sold	-9.4971
▁cars	-9.4975
▁disputed	-9.49791
▁securities	-9.49791
▁jan	-9.49802
▁corporate	-9.49814
▁decline	-9.49863
▁struck	-9.49958
▁create	-9.50117
▁buying	-9.50165
▁###.#	-9.50284
▁li	-9.5037
▁###-	-9.50371
▁gain	-9.50375
▁request	-9.50405
▁projects	-9.50427
▁returns	-9.50475
▁hearing	-9.50512
▁holds	-9.50565
▁austria	-9.50668
▁hall	-9.50953
▁demands	-9.50994
▁virus	-9.51024
▁milan	-9.51052
▁problem	-9.51173
▁pre	-9.51229
▁representatives	-9.51237
▁bureau	-9.51345
▁syrian	-9.51362
▁yugoslavia	-9.51453
▁above	-9.5168
▁continues	-9.51767
▁bonds	-9.51806
▁pounds	-9.51836
▁remained	-9.51846
j	-9.51915
▁sending	-9.5193
▁cuban	-9.51943
▁getting	-9.5197
▁jersey	-9.52001
▁goals	-9.52178
▁rocket	-9.52194
▁leadership	-9.5223
▁enterprises	-9.52245
▁block	-9.5226
▁common	-9.52266
▁expectations	-9.52314
▁outbreak	-9.52404
▁speaker	-9.52424
ic	-9.52474
▁mobile	-9.52602
▁teams	-9.52825
▁hockey	-9.52899
▁chancellor	-9.53039
▁sharp	-9.53055
▁figure	-9.53068
▁steel	-9.53092
▁ease	-9.53123
▁questions	-9.53134
▁voted	-9.53167
▁kenyan	-9.53171
▁violent	-9.53194
▁yass	-9.53199
▁peru	-9.53272
▁el	-9.53507
▁prepared	-9.53635
▁sentence	-9.53706
▁living	-9.53763
▁civilian	-9.53962
▁pentagon	-9.54053
▁web	-9.54304
▁fed	-9.54319
▁goes	-9.5435
▁agriculture	-9.54438
▁headed	-9.54447
▁recession	-9.5448
▁humanitarian	-9.54502
▁expects	-9.54561
▁streets	-9.54614
▁losing	-9.54625
▁fast	-9.54683
▁jones	-9.54804
▁gore	-9.54889
▁sides	-9.54927
▁tourist	-9.54945
▁speech	-9.54971
▁software	-9.54994
▁result	-9.55062
▁forum	-9.55169
▁chile	-9.55208
▁develop	-9.55233
▁james	-9.55277
▁motor	-9.55303
▁transport	-9.55314
▁presidency	-9.55343
▁coup	-9.55353
▁course	-9.55355
▁investigating	-9.55464
▁property	-9.55537
▁strengthen	-9.55547
▁driver	-9.55595
▁argentine	-9.55663
▁equipment	-9.55701
▁personal	-9.55896
▁links	-9.56127
▁davis	-9.5614
▁te	-9.56234
▁save	-9.56269
▁diplomat	-9.56322
▁bringing	-9.56352
▁weak	-9.56381
▁needed	-9.56477
▁witnesses	-9.56483
▁needs	-9.56542
▁alert	-9.56703
▁williams	-9.56723
▁fm	-9.56784
▁output	-9.56787
▁businesses	-9.56849
▁monetary	-9.56878
▁hurt	-9.56888
▁person	-9.56929
▁tons	-9.56945
▁launches	-9.57113
▁falling	-9.57215
▁boeing	-9.57225
▁manchester	-9.57382
▁deadline	-9.57439
▁hollywood	-9.57447
▁inside	-9.57494
▁christmas	-9.57545
▁important	-9.57553
▁plead	-9.57608
▁raising	-9.57611
▁yeltsin	-9.57741
▁nba	-9.57766
▁blow	-9.5789
▁environment	-9.57958
▁classic	-9.58035
▁together	-9.58091
▁bin	-9.58142
▁nationwide	-9.58161
▁austrian	-9.5823
▁newly	-9.58559
▁allowed	-9.58584
▁jose	-9.58597
▁extend	-9.58609
▁prix	-9.58673
▁welcomed	-9.58691
▁cause	-9.58998
▁leg	-9.5901
▁takeover	-9.5911
▁very	-9.59155
▁shut	-9.59156
▁setting	-9.59248
▁lee	-9.59289
▁allies	-9.59303
▁these	-9.59377
▁stars	-9.5946
▁deep	-9.59565
▁peacekeeping	-9.5957
▁inter	-9.59636
▁flood	-9.59652
▁qualifying	-9.598
▁belgian	-9.59894
▁laws	-9.59927
▁fbi	-9.59965
▁nobel	-9.60018
▁ivory	-9.60108
▁soviet	-9.60223
▁diplomats	-9.6028
▁heads	-9.6032
▁agencies	-9.60439
▁pact	-9.60492
▁carrier	-9.60502
▁islands	-9.60524
▁spread	-9.60754
▁rock	-9.60783
▁wave	-9.60844
▁awards	-9.61077
owned	-9.6126
▁developing	-9.61275
▁played	-9.61345
▁finally	-9.61412
▁veteran	-9.61493
▁condemns	-9.61639
▁francisco	-9.61659
▁injuries	-9.61771
us	-9.61802
▁plot	-9.61933
▁tsunami	-9.61939
▁martin	-9.61985
▁refused	-9.61991
▁legislative	-9.62178
▁mountain	-9.62272
▁governing	-9.62381
▁consider	-9.62416
term	-9.62418
▁wounding	-9.62472
▁compared	-9.62638
▁success	-9.62816
▁guerrillas	-9.62825
▁supplies	-9.62831
▁serbs	-9.62987
▁direct	-9.63111
▁promised	-9.63328
▁ag	-9.63338
▁bomber	-9.63343
▁activities	-9.63348
▁assault	-9.63371
▁spring	-9.63496
▁sudanese	-9.63543
▁strategy	-9.6355
▁believed	-9.63676
▁live	-9.63696
▁though	-9.637
▁struggling	-9.63719
▁scores	-9.63848
▁traders	-9.63921
▁worries	-9.64044
▁fiscal	-9.64133
▁ugandan	-9.64243
▁population	-9.64337
▁documents	-9.64339
▁renewed	-9.64492
▁playing	-9.64524
▁rest	-9.64587
▁worldwide	-9.64685
▁considering	-9.64709
▁criticized	-9.64728
off	-9.64736
▁paid	-9.64891
▁failure	-9.64954
▁golf	-9.64973
▁venezuelan	-9.64986
▁prominent	-9.65004
▁retail	-9.65048
▁sharon	-9.65067
▁rivals	-9.65072
▁lift	-9.65147
▁macao	-9.65165
▁serbian	-9.6539
▁hands	-9.65519
▁status	-9.65554
▁resolve	-9.65588
▁suffered	-9.65606
▁assets	-9.65617
▁exhibition	-9.65632
▁christian	-9.65633
▁dialogue	-9.65658
▁surge	-9.65753
▁somalia	-9.65826
▁interview	-9.65868
▁rangers	-9.65939
▁wake	-9.65946
▁increasing	-9.66014
▁watchdog	-9.66018
▁replace	-9.66049
▁guantanamo	-9.66068
▁politics	-9.66153
▁tribunal	-9.66199
▁powell	-9.66416
▁auction	-9.66421
▁imports	-9.66427
▁pilot	-9.66453
▁gun	-9.66464
▁commissioner	-9.66475
▁threats	-9.66517
▁crucial	-9.66643
▁passed	-9.667
▁revenue	-9.66709
▁berlin	-9.66724
▁abbas	-9.66729
▁vietnamese	-9.66913
▁resignation	-9.66925
▁.##	-9.67026
▁policies	-9.67134
nd	-9.67166
▁votes	-9.67321
▁somali	-9.67325
▁programs	-9.67326
▁vehicles	-9.67435
▁regime	-9.67475
▁message	-9.67513
▁penalty	-9.67523
▁van	-9.67529
▁decide	-9.67589
▁resort	-9.67668
q	-9.67703
▁sa	-9.67786
▁mid	-9.67839
▁queen	-9.67871
▁honor	-9.67958
▁helping	-9.68032
▁youth	-9.6804
▁activist	-9.68091
▁targets	-9.68118
▁farm	-9.68146
▁bond	-9.68208
▁tanzania	-9.68233
▁chemical	-9.68252
▁chen	-9.68283
▁wto	-9.6839
▁let	-9.68476
▁joined	-9.6849
▁beach	-9.68634
▁afp	-9.68642
▁withdrawal	-9.68668
fire	-9.68825
▁parents	-9.68855
▁ocean	-9.68888
▁self	-9.6903
en	-9.69052
▁blamed	-9.69086
▁ethiopia	-9.69172
▁exploded	-9.6918
▁chirac	-9.69189
▁showing	-9.6924
▁caribbean	-9.69319
▁posted	-9.69381
election	-9.69427
▁producer	-9.69491
▁cold	-9.69526
▁satellite	-9.69535
▁loans	-9.69574
▁ukrainian	-9.69584
▁bulgaria	-9.69599
▁belgium	-9.696
ve	-9.69658
long	-9.69712
▁starts	-9.6973
▁mostly	-9.69742
▁doctor	-9.69843
▁freedom	-9.69912
▁jackson	-9.6993
▁jets	-9.69942
▁fighters	-9.69956
▁chechen	-9.70102
▁gathered	-9.70135
▁seriously	-9.70301
▁speed	-9.70351
▁finds	-9.70472
▁freed	-9.7073
▁extended	-9.70755
▁ensure	-9.70829
▁daughter	-9.71087
▁address	-9.71175
▁resigned	-9.71211
▁plc	-9.71211
▁offering	-9.71285
▁executives	-9.7135
▁peacekeepers	-9.7147
▁captain	-9.71531
▁roman	-9.71575
▁owner	-9.71594
▁connection	-9.71605
▁vehicle	-9.71628
▁commerce	-9.71729
▁unity	-9.7181
▁charles	-9.71818
▁telephone	-9.71851
▁semi	-9.71885
▁hoping	-9.71973
▁imf	-9.72052
▁jakarta	-9.72053
▁expansion	-9.7208
▁bankruptcy	-9.72195
▁coal	-9.72224
▁jump	-9.72426
▁posts	-9.72543
▁floods	-9.72589
▁sars	-9.72621
▁danish	-9.72676
▁ways	-9.72683
▁jean	-9.72807
▁patients	-9.7289
▁below	-9.7292
▁muslims	-9.73017
▁dow	-9.73043
▁hezbollah	-9.73206
▁science	-9.73219
▁poverty	-9.73257
▁senator	-9.73294
▁institute	-9.73298
▁cargo	-9.73422
▁cease	-9.73521
▁investigate	-9.7371
▁airways	-9.73742
▁kept	-9.73751
▁terrorists	-9.73771
▁angola	-9.73775
▁immediate	-9.73943
▁asks	-9.73943
▁threatens	-9.74203
▁spent	-9.7425
▁invest	-9.74266
▁slow	-9.74302
▁voting	-9.74358
▁baby	-9.74488
▁bombs	-9.74517
▁cell	-9.74548
▁aviation	-9.74574
▁steady	-9.74603
▁communications	-9.74754
▁detention	-9.74761
▁saw	-9.74829
▁blood	-9.7483
▁tobacco	-9.74911
▁beginning	-9.74919
▁pace	-9.74978
▁denmark	-9.74997
▁separate	-9.75083
▁venture	-9.75118
▁defeated	-9.75171
▁shuttle	-9.75241
▁involving	-9.75244
▁ben	-9.75298
▁impact	-9.75355
▁fear	-9.75378
▁debut	-9.75667
▁richard	-9.75772
▁norwegian	-9.75781
▁greater	-9.75785
▁spot	-9.75939
▁discovered	-9.75949
▁qualifier	-9.76025
▁lawmaker	-9.76112
▁terms	-9.76224
▁accept	-9.7624
▁lake	-9.76246
hit	-9.76268
▁constitutional	-9.7638
▁changed	-9.76457
▁question	-9.76516
▁tie	-9.76529
▁seize	-9.76692
▁average	-9.76711
▁concerned	-9.76727
round	-9.76756
▁libya	-9.76769
▁kim	-9.76801
▁ltd	-9.76801
▁surprise	-9.76844
eeded	-9.76881
▁johnson	-9.76903
▁records	-9.76953
▁agents	-9.77042
▁dismissed	-9.77089
▁ten	-9.77123
▁hiv	-9.77211
▁assassination	-9.77394
▁levels	-9.774
▁flat	-9.77424
▁assistance	-9.77495
▁safe	-9.77614
▁edge	-9.77615
▁arsenal	-9.77708
▁sydney	-9.7786
▁pledges	-9.77886
▁welcomes	-9.779
▁telecom	-9.78007
▁couple	-9.78115
▁agent	-9.78137
▁practice	-9.78193
▁musharraf	-9.78202
f	-9.78239
▁unveiled	-9.78255
▁barrel	-9.78371
▁sarkozy	-9.78374
▁taiwanese	-9.78519
▁inquiry	-9.78584
▁trafficking	-9.78707
▁cultural	-9.78711
▁convention	-9.78754
▁fifa	-9.78758
▁rwanda	-9.78822
▁announce	-9.78841
▁v	-9.78851
▁spy	-9.78872
▁pulled	-9.78876
▁actor	-9.79009
▁date	-9.79013
▁memorial	-9.79014
▁consecutive	-9.79076
▁delayed	-9.79081
▁we	-9.79108
▁bar	-9.79205
▁highway	-9.79235
▁giants	-9.79256
▁enter	-9.7927
▁forest	-9.79322
▁based	-9.79362
▁lack	-9.7947
▁income	-9.79496
▁primary	-9.79529
▁smuggling	-9.7957
▁ousted	-9.79612
▁room	-9.79639
▁letter	-9.79766
▁goods	-9.79773
▁critical	-9.7981
▁factory	-9.79827
▁boycott	-9.80047
▁finland	-9.80057
▁dr	-9.80131
▁landmark	-9.80141
▁pipeline	-9.80157
▁planes	-9.80165
lecommunications	-9.80186
▁failing	-9.80224
▁opec	-9.80277
▁abroad	-9.80369
▁receive	-9.80384
▁female	-9.80385
▁yugoslav	-9.80389
▁dprk	-9.80448
▁ounce	-9.80452
▁becoming	-9.80525
▁completed	-9.80571
▁husband	-9.80571
▁resources	-9.80634
▁ice	-9.80705
▁customs	-9.80732
▁timor	-9.80779
▁stability	-9.80798
z	-9.80828
▁preparing	-9.81069
▁peter	-9.81087
▁mubarak	-9.81155
▁albanian	-9.81324
▁sixth	-9.81368
▁cambodian	-9.81555
▁tens	-9.81616
▁ask	-9.81744
▁matches	-9.81887
▁severe	-9.81985
level	-9.82057
▁currencies	-9.82113
▁postponed	-9.82122
▁magazine	-9.8213
▁romanian	-9.82167
▁operating	-9.82178
▁welcome	-9.82259
na	-9.82314
▁bob	-9.82335
▁hungary	-9.82389
▁demanded	-9.82398
▁your	-9.824
▁motors	-9.82441
▁channel	-9.82483
▁lines	-9.82529
▁aboard	-9.82572
▁custody	-9.82615
▁prepare	-9.82651
▁interim	-9.82742
▁dozen	-9.82815
▁advanced	-9.82842
hour	-9.82851
▁suit	-9.82948
▁tibet	-9.82961
▁singer	-9.83014
▁spend	-9.83135
▁barcelona	-9.83264
▁traditional	-9.8333
▁##,###.##	-9.8334
▁organizers	-9.83363
▁marine	-9.8342
▁ali	-9.83437
▁blasts	-9.8358
▁resign	-9.83586
▁ford	-9.83702
▁looks	-9.83714
▁eve	-9.83725
▁neighboring	-9.83775
▁outlook	-9.83795
▁atlantic	-9.83867
▁reporting	-9.83882
▁mining	-9.83907
▁boris	-9.83947
▁longer	-9.84025
▁masters	-9.84055
▁clients	-9.84168
▁insurgent	-9.84201
▁swine	-9.84375
▁causing	-9.844
▁sexual	-9.84426
▁brother	-9.84436
▁heat	-9.84506
▁hu	-9.84546
▁politicians	-9.84553
▁settle	-9.84618
za	-9.84817
▁value	-9.84823
▁merger	-9.85044
▁rural	-9.85059
▁committed	-9.85065
▁mike	-9.85106
▁square	-9.85138
▁milosevic	-9.85215
▁command	-9.85224
▁stories	-9.85305
▁withdraw	-9.85372
▁tropical	-9.85415
rd	-9.85431
▁ca	-9.85469
▁quit	-9.85478
▁cox	-9.85521
▁asean	-9.85539
▁detroit	-9.8554
▁continuing	-9.8565
▁ring	-9.85765
▁nasa	-9.8581
▁themselves	-9.85848
▁regulators	-9.85865
▁genocide	-9.85927
▁struggle	-9.85944
▁vatican	-9.86079
▁researchers	-9.86165
▁aim	-9.8624
▁electricity	-9.86247
▁rail	-9.86281
▁funeral	-9.86289
▁doping	-9.86343
▁solution	-9.86357
▁yemen	-9.86365
▁northeastern	-9.86413
▁love	-9.86515
kofi	-9.86529
▁arrive	-9.86588
▁itself	-9.86599
▁radical	-9.8661
▁added	-9.86674
▁seat	-9.86683
▁trust	-9.86686
▁aide	-9.86701
▁faced	-9.86761
▁limited	-9.86781
▁cleric	-9.86912
▁cia	-9.8692
▁threatening	-9.8693
▁stronger	-9.86945
▁semifinals	-9.87047
▁peaceful	-9.87075
▁jordanian	-9.87083
▁complete	-9.87084
▁jacques	-9.87124
▁killer	-9.8713
▁portuguese	-9.87282
▁snow	-9.87302
▁finals	-9.87328
▁transfer	-9.87333
▁eye	-9.8734
▁defends	-9.87519
▁plunged	-9.87599
▁marathon	-9.87686
▁nazi	-9.88066
▁remote	-9.88096
▁promises	-9.88162
▁agenda	-9.88163
▁membership	-9.88171
ri	-9.88265
▁clean	-9.88272
▁moderate	-9.88315
▁railway	-9.88393
▁culture	-9.88402
▁rome	-9.88454
▁overall	-9.88576
▁uk	-9.8861
▁driving	-9.88664
▁critics	-9.88681
▁climb	-9.88695
▁urge	-9.8871
▁mahmoud	-9.8901
▁watch	-9.89054
▁sport	-9.89077
▁gop	-9.89138
▁nt	-9.89139
▁bowl	-9.89194
▁express	-9.89221
▁benefits	-9.89242
▁fighter	-9.89292
▁estate	-9.89371
▁reaches	-9.89382
▁cable	-9.89457
▁midfielder	-9.89513
▁arizona	-9.89568
▁canceled	-9.89658
▁bridge	-9.89824
▁hugo	-9.89857
▁sites	-9.89857
▁caught	-9.89888
▁citing	-9.8991
▁guinea	-9.89989
▁william	-9.90055
▁truce	-9.90141
▁provincial	-9.90211
▁shenzhen	-9.90255
▁lose	-9.90296
▁chelsea	-9.90382
▁beef	-9.90386
▁landing	-9.90423
▁houston	-9.90589
▁miami	-9.90674
▁kerry	-9.9073
▁autonomous	-9.90737
or	-9.90744
▁grant	-9.90763
▁link	-9.90825
▁runs	-9.9086
▁laden	-9.90873
▁hostages	-9.90917
▁involvement	-9.90925
▁table	-9.9101
▁restore	-9.91047
▁wild	-9.91077
▁croatian	-9.91084
▁carlos	-9.91096
▁carry	-9.91111
▁destroyed	-9.91209
▁electoral	-9.91237
and	-9.91263
▁belarus	-9.91266
▁confident	-9.9138
▁expert	-9.91395
▁guards	-9.91405
▁policemen	-9.91423
▁pull	-9.91515
▁divided	-9.91698
▁mosque	-9.91977
▁ecuador	-9.92017
▁manufacturing	-9.92054
elect	-9.92111
▁bloc	-9.9213
▁fishing	-9.92162
▁weight	-9.92193
▁raises	-9.92232
▁successful	-9.92235
▁formally	-9.9225
▁waters	-9.92289
▁asylum	-9.92358
▁present	-9.92408
▁seoul	-9.92417
▁quickly	-9.92417
▁survivors	-9.92502
▁systems	-9.92514
▁pass	-9.92533
▁streak	-9.92546
▁demanding	-9.92612
▁admitted	-9.92617
▁funding	-9.92643
▁drops	-9.92665
▁teen	-9.9271
▁pick	-9.92758
backed	-9.92783
▁manhattan	-9.92828
▁fellow	-9.92927
▁##-#	-9.92931
▁cocaine	-9.92959
▁dec	-9.9304
▁nomination	-9.9308
-###	-9.93097
▁delays	-9.93147
▁massacre	-9.93178
▁rallie	-9.93244
▁celebrate	-9.93291
▁signing	-9.93337
▁pledge	-9.93337
▁sun	-9.93511
▁scotland	-9.93539
▁northwestern	-9.9366
▁accuses	-9.93701
▁stepped	-9.93773
▁entry	-9.93791
▁comes	-9.93866
▁restrictions	-9.93912
▁miles	-9.93915
▁zambian	-9.93982
▁benchmark	-9.94027
though	-9.94054
▁contracts	-9.94056
▁ancient	-9.94087
taking	-9.94153
▁hot	-9.94243
le	-9.94244
▁holy	-9.94293
▁ongoing	-9.94395
▁curb	-9.94401
▁grew	-9.9453
out	-9.94561
▁smith	-9.94591
▁built	-9.94622
▁testing	-9.94663
▁arrests	-9.94665
▁airbus	-9.94701
▁defend	-9.94826
▁powers	-9.94865
▁officially	-9.94997
▁commonwealth	-9.95011
▁formula	-9.9515
▁knee	-9.95204
▁range	-9.95266
▁fame	-9.95359
qaeda	-9.95391
▁overhaul	-9.95425
▁standing	-9.95581
▁boss	-9.95818
▁agricultural	-9.95872
▁angry	-9.95955
▁hang	-9.96048
▁details	-9.96099
▁hill	-9.96121
▁indicted	-9.96194
▁oct	-9.96216
▁abortion	-9.96217
▁taxes	-9.96292
▁technical	-9.963
▁pilots	-9.96328
nation	-9.96478
▁collapse	-9.96717
▁abdullah	-9.96928
▁berlusconi	-9.96947
▁abu	-9.9695
▁tight	-9.96991
▁palace	-9.97007
▁cast	-9.97036
▁politician	-9.97053
▁seed	-9.97054
▁lifted	-9.97099
▁uefa	-9.9713
▁twice	-9.97143
▁exercise	-9.97188
▁agrees	-9.97204
▁thomas	-9.97204
▁crown	-9.97258
▁macedonia	-9.97261
▁netanyahu	-9.97292
▁quarterfinals	-9.97305
▁carried	-9.97454
▁tries	-9.97461
▁electric	-9.9748
▁spokeswoman	-9.97488
▁strategic	-9.97499
▁secure	-9.97645
▁kabul	-9.97748
▁meters	-9.9775
▁yankees	-9.97784
▁militia	-9.97797
▁different	-9.97879
▁events	-9.97927
▁ill	-9.97958
▁allowing	-9.98192
▁valley	-9.98197
week	-9.98232
▁instead	-9.98257
▁georgian	-9.98262
▁mugabe	-9.98358
▁upset	-9.98414
▁effect	-9.98571
▁dubai	-9.98606
▁crashes	-9.98646
▁rebound	-9.98699
▁crowd	-9.98744
▁urging	-9.98794
▁marks	-9.98802
▁consumers	-9.9887
▁retired	-9.98878
▁representative	-9.98917
▁commitment	-9.98922
▁partner	-9.9893
▁amnesty	-9.98944
▁marriage	-9.98957
▁calm	-9.98991
▁defended	-9.99006
▁ma	-9.99053
▁qatar	-9.99123
▁wide	-9.99177
▁handed	-9.99201
▁mln	-9.99211
▁finished	-9.99212
▁jr	-9.99402
▁petroleum	-9.99523
▁famous	-9.99583
▁carolina	-9.99611
▁responsible	-9.99624
▁bailout	-9.99666
▁worker	-9.99798
▁maintain	-9.99843
▁split	-9.99875
▁defender	-9.99891
▁fine	-9.99905
▁product	-9.9999
▁gang	-9.99991
▁know	-10.0009
▁produce	-10.0011
▁racing	-10.0012
▁lay	-10.0029
▁organizations	-10.0039
half	-10.0054
▁bail	-10.0059
▁resistance	-10.0066
▁partnership	-10.007
▁retirement	-10.0082
▁thanks	-10.0083
▁opponents	-10.0086
▁described	-10.0089
▁contest	-10.0093
▁athletes	-10.0095
▁extra	-10.0099
▁class	-10.0099
▁judicial	-10.0102
▁colin	-10.0111
▁zimbabwean	-10.0113
▁entered	-10.0121
▁standards	-10.0122
▁bangkok	-10.0128
▁fires	-10.0131
▁begun	-10.0138
▁returning	-10.0139
▁relatives	-10.014
▁victim	-10.0145
▁initial	-10.0148
▁patrol	-10.0148
▁increasingly	-10.0148
▁designed	-10.0155
▁sierra	-10.016
▁riot	-10.0164
line	-10.0172
▁manila	-10.0174
▁presence	-10.0177
▁ceasefire	-10.0178
▁suffering	-10.0182
▁cutting	-10.0186
▁tells	-10.0186
▁comments	-10.019
▁plants	-10.0193
▁southeastern	-10.0197
▁investor	-10.02
▁feared	-10.0205
▁able	-10.0208
▁electronics	-10.0209
▁bulgarian	-10.0213
▁import	-10.0222
▁downtown	-10.0229
▁rwandan	-10.0234
▁cruise	-10.0246
▁golden	-10.0262
▁iraqis	-10.0263
▁pan	-10.0265
than	-10.0267
government	-10.0269
▁slain	-10.0273
▁cleared	-10.0274
▁nov	-10.0276
▁rodham	-10.029
▁store	-10.0295
▁foundation	-10.0304
▁confirms	-10.0306
▁society	-10.0312
▁often	-10.0314
▁warming	-10.0319
▁virginia	-10.0319
▁card	-10.032
american	-10.0328
▁condition	-10.0337
▁thought	-10.0343
▁liverpool	-10.0346
▁box	-10.0351
▁establish	-10.0359
▁unions	-10.036
▁foot	-10.0365
▁marked	-10.0368
▁sparked	-10.037
▁operator	-10.0371
w	-10.0372
▁massachusetts	-10.0372
▁tom	-10.0375
▁unrest	-10.0383
x	-10.0393
▁minority	-10.0395
▁stopped	-10.04
▁earth	-10.04
▁cover	-10.0401
▁measure	-10.0406
▁fashion	-10.0416
▁birth	-10.0416
▁resigns	-10.0445
▁nicolas	-10.0448
▁liberation	-10.0461
▁ethiopian	-10.0463
▁task	-10.0474
▁author	-10.0474
▁story	-10.0476
▁grow	-10.0478
▁illegally	-10.0478
▁my	-10.0479
▁responsibility	-10.0485
▁algeria	-10.0496
-#	-10.0502
▁mortgage	-10.0507
▁certain	-10.0515
▁dangerous	-10.0517
▁costa	-10.0518
▁appoint	-10.0519
▁teachers	-10.0524
▁incident	-10.0531
▁preliminary	-10.0538
▁tribal	-10.0541
▁compensation	-10.0543
under	-10.0544
▁jiang	-10.0547
▁acquire	-10.0548
▁strongly	-10.0548
▁cairo	-10.0553
▁staged	-10.0554
▁additional	-10.0554
ous	-10.0558
▁chain	-10.0559
▁demonstrators	-10.056
▁burundi	-10.0565
▁trouble	-10.0566
▁founder	-10.0569
▁gained	-10.0573
▁slump	-10.0579
▁cooperate	-10.0581
ll	-10.0588
▁route	-10.0594
▁speculation	-10.0594
▁philadelphia	-10.0598
▁counter	-10.0604
▁purchase	-10.0605
▁oscar	-10.0609
▁guangdong	-10.0612
▁atomic	-10.062
▁foreigners	-10.062
▁conduct	-10.0621
▁serve	-10.0624
▁gen	-10.0629
▁woods	-10.0631
▁ski	-10.0631
▁reserves	-10.0638
▁compromise	-10.0643
▁internal	-10.0648
▁indies	-10.0653
▁rockets	-10.0654
▁drought	-10.0656
▁eyes	-10.0659
▁accusing	-10.0669
▁colorado	-10.067
▁heading	-10.0674
▁steve	-10.0685
▁quality	-10.0685
▁weekly	-10.0688
▁legislature	-10.0689
▁embattled	-10.069
▁neighbors	-10.0693
▁cycling	-10.0696
▁rio	-10.07
▁pushed	-10.0701
torn	-10.0704
▁ceo	-10.0718
▁strength	-10.0723
▁toyota	-10.0728
war	-10.0732
▁emirates	-10.0733
▁remove	-10.0734
▁bc	-10.0739
▁leone	-10.0744
▁awarded	-10.0753
meter	-10.0755
▁vow	-10.0765
▁unchanged	-10.0765
▁corporation	-10.0767
▁putting	-10.0767
▁possibility	-10.0772
▁friends	-10.0779
▁offices	-10.0781
▁fined	-10.0782
▁owners	-10.0783
▁backed	-10.0784
▁ailing	-10.0787
▁improved	-10.079
▁backs	-10.0795
▁imposed	-10.0796
▁nfl	-10.0799
▁casualties	-10.0802
▁senators	-10.0803
▁standoff	-10.0806
▁lowest	-10.0816
▁think	-10.082
▁rains	-10.0833
▁dallas	-10.0846
▁mozambique	-10.0856
▁ran	-10.0863
▁stores	-10.0865
▁traded	-10.0867
▁industries	-10.0867
▁immediately	-10.087
▁estimated	-10.0873
▁quoted	-10.089
star	-10.0895
▁surplus	-10.0899
▁sends	-10.0916
▁significant	-10.0921
▁flag	-10.0927
▁volatile	-10.0929
▁attention	-10.0946
▁da	-10.0947
▁broken	-10.0957
▁writer	-10.0959
controlled	-10.0966
▁multi	-10.098
▁believe	-10.098
▁approval	-10.0988
▁kennedy	-10.0995
▁revealed	-10.0997
▁democrat	-10.1003
▁personnel	-10.1005
▁hunger	-10.1005
▁playoff	-10.1008
▁#.###	-10.1008
▁marking	-10.1013
▁reportedly	-10.1015
ra	-10.1015
▁modern	-10.1019
▁optimism	-10.1023
▁missiles	-10.1038
▁explosives	-10.1047
▁mandela	-10.1055
▁pollution	-10.1056
▁hunt	-10.1062
▁naval	-10.1064
million	-10.1066
▁albania	-10.1074
▁claiming	-10.1076
▁standard	-10.1088
▁flooding	-10.1093
▁sentiment	-10.1096
▁books	-10.11
▁benefit	-10.1101
▁boxing	-10.1114
▁le	-10.1117
▁sweeping	-10.1119
▁quick	-10.1121
▁announcement	-10.1122
▁loses	-10.1125
▁birthday	-10.1128
▁pop	-10.1129
▁gasoline	-10.113
▁challenges	-10.1135
▁troop	-10.1142
▁ki	-10.1144
▁alive	-10.1145
▁towards	-10.1148
▁turns	-10.1148
▁amount	-10.1148
▁tackle	-10.1149
▁q	-10.115
▁considered	-10.115
▁granted	-10.1154
▁comeback	-10.1159
ie	-10.116
▁created	-10.1162
▁limit	-10.1163
▁witness	-10.1165
▁turmoil	-10.1166
▁tiny	-10.117
▁hailed	-10.1177
▁recovered	-10.1178
▁view	-10.1183
▁leftist	-10.1185
▁southwestern	-10.1189
▁adviser	-10.1194
▁customers	-10.1195
▁louis	-10.1199
▁kansas	-10.12
▁businessman	-10.1203
▁prospects	-10.1227
▁tim	-10.1237
▁developed	-10.1241
▁swimming	-10.1243
▁keeping	-10.1245
▁academy	-10.1253
▁visitors	-10.1254
▁schedule	-10.1261
▁enforcement	-10.1269
▁winds	-10.1272
▁rich	-10.1274
▁castro	-10.1276
expected	-10.1276
▁bangladeshi	-10.1281
ung	-10.1282
▁gates	-10.1286
▁athletics	-10.1315
▁website	-10.1317
ma	-10.1325
▁cypriot	-10.1328
▁blocked	-10.1337
▁kind	-10.1347
▁spill	-10.1364
▁extradition	-10.1373
tech	-10.1376
▁fatal	-10.1383
▁google	-10.1384
▁jobless	-10.1385
▁increases	-10.1388
▁welfare	-10.1396
▁favor	-10.1399
▁seattle	-10.1399
▁stable	-10.1402
▁animal	-10.1404
▁swept	-10.1407
▁suspension	-10.1411
▁adding	-10.1415
▁joseph	-10.1418
▁killings	-10.1428
▁holocaust	-10.1431
▁surged	-10.1432
▁check	-10.1433
▁digital	-10.1433
▁karzai	-10.1434
▁stations	-10.1436
▁administrative	-10.1437
▁image	-10.1446
▁dodgers	-10.1451
▁proposals	-10.1458
▁backing	-10.1462
▁hour	-10.147
▁delta	-10.1471
▁stem	-10.1471
▁era	-10.1472
▁drivers	-10.1479
▁follow	-10.148
▁remarks	-10.1482
▁complex	-10.1482
▁fly	-10.1488
▁howard	-10.1492
▁finnish	-10.1493
▁priest	-10.1507
right	-10.1518
▁sox	-10.1529
be	-10.1535
▁favorite	-10.1537
▁chilean	-10.1538
▁finding	-10.1541
▁sunni	-10.1542
▁breaks	-10.1546
▁pair	-10.1549
▁remaining	-10.1561
▁partners	-10.1568
▁execution	-10.157
▁sweep	-10.1572
▁activity	-10.1578
▁morocco	-10.1583
▁probably	-10.1592
▁seventh	-10.1593
▁.#	-10.1594
▁throughout	-10.1596
▁resumed	-10.1596
▁mount	-10.1597
▁dissident	-10.1606
▁positions	-10.1609
▁midday	-10.161
▁joe	-10.1613
▁algerian	-10.1616
▁why	-10.1631
▁ally	-10.1636
▁voice	-10.1637
▁improving	-10.1638
▁uranium	-10.1638
▁girls	-10.1644
▁automaker	-10.165
▁cpc	-10.1652
▁israelis	-10.1667
▁charity	-10.1668
▁ohio	-10.1673
▁daniel	-10.1677
▁visa	-10.1684
▁alexander	-10.1685
▁belgrade	-10.1686
▁lakers	-10.1694
▁broad	-10.1699
▁wales	-10.17
te	-10.1701
▁nepali	-10.1703
▁opener	-10.1709
▁related	-10.1712
▁tension	-10.1712
▁hungarian	-10.1721
▁choice	-10.1722
▁coastal	-10.1727
▁passes	-10.1731
▁joining	-10.1746
▁scale	-10.1751
▁initiative	-10.1752
▁uae	-10.1752
able	-10.1758
▁unless	-10.1763
▁simpson	-10.1764
▁account	-10.1773
▁nothing	-10.1784
▁transportation	-10.1804
▁accusations	-10.1805
▁recall	-10.1808
▁shopping	-10.1808
▁compete	-10.1812
▁professional	-10.1815
▁adopted	-10.1824
▁inspectors	-10.183
▁boosted	-10.1831
est	-10.1833
▁waste	-10.1836
▁differences	-10.1843
▁plunge	-10.1845
▁gordon	-10.1852
▁reconstruction	-10.1857
▁homeland	-10.1859
▁keeps	-10.1867
▁scheme	-10.1872
▁mutual	-10.1874
▁acting	-10.1879
▁quiet	-10.1886
▁model	-10.1896
▁fate	-10.1899
▁raids	-10.19
▁contributed	-10.1901
▁stolen	-10.1909
▁aceh	-10.1914
▁friend	-10.1918
▁bp	-10.1926
▁flying	-10.1932
▁slams	-10.1932
▁rather	-10.1949
▁approach	-10.1949
▁declined	-10.1954
▁sentences	-10.1954
▁actress	-10.1964
▁insisted	-10.1966
▁puts	-10.197
▁turning	-10.1971
wing	-10.1978
▁participate	-10.1978
▁lady	-10.198
▁evacuated	-10.1981
▁fails	-10.1987
▁frank	-10.1989
▁buildings	-10.1989
▁influence	-10.1992
▁roadside	-10.1994
▁anger	-10.2
▁advertising	-10.2006
▁desert	-10.2007
▁breaking	-10.201
▁negotiators	-10.2011
▁deutsche	-10.2013
▁dole	-10.2019
▁discovery	-10.2022
▁bloody	-10.2023
▁reporter	-10.2026
▁recover	-10.2031
▁hopeful	-10.2036
▁liberia	-10.204
▁file	-10.2057
▁pushing	-10.2057
▁include	-10.2058
▁crack	-10.2068
▁forcing	-10.207
▁damaged	-10.2077
▁bali	-10.2085
▁fierce	-10.2086
▁broadcast	-10.2094
▁weaker	-10.2098
ta	-10.2099
▁hails	-10.2117
▁ariel	-10.2121
▁aims	-10.2126
▁placed	-10.2129
▁unlikely	-10.2142
▁facilities	-10.2156
rich	-10.2159
▁junta	-10.2166
▁pole	-10.2169
▁difficult	-10.217
▁suspicion	-10.2179
▁sarajevo	-10.2182
▁disney	-10.219
▁revive	-10.219
▁brain	-10.2192
▁kazakhstan	-10.2206
▁benjamin	-10.2208
▁doubt	-10.2215
▁wind	-10.2217
▁junior	-10.2228
▁seng	-10.2231
▁ferry	-10.2233
▁mad	-10.2234
▁buried	-10.2236
▁celebrated	-10.2238
▁luxury	-10.2242
▁threaten	-10.2245
▁arm	-10.2246
▁jumped	-10.225
▁paper	-10.2257
▁highly	-10.2259
▁lot	-10.226
▁relationship	-10.2266
▁optimistic	-10.2269
ad	-10.2276
▁concluded	-10.228
▁devastating	-10.2292
▁munich	-10.2292
▁introduce	-10.2293
▁breakaway	-10.2293
▁juan	-10.2297
▁cheney	-10.2303
▁kingdom	-10.2306
▁fox	-10.2308
▁invitation	-10.2323
▁display	-10.2323
▁theater	-10.2324
▁volleyball	-10.2333
▁determine	-10.2335
▁invasion	-10.2341
▁heroin	-10.2355
▁antonio	-10.2365
▁doing	-10.2365
largest	-10.2367
▁silver	-10.2367
▁questioned	-10.2374
▁permanent	-10.2375
▁jews	-10.2377
▁minor	-10.2386
▁wing	-10.2391
▁concert	-10.2393
▁denver	-10.2396
▁promise	-10.2397
▁chris	-10.2397
▁bitter	-10.2398
▁peninsula	-10.2398
▁available	-10.2402
▁editor	-10.2404
▁worked	-10.2405
▁fish	-10.2406
ton	-10.2426
▁aside	-10.2427
▁heavily	-10.2438
▁municipal	-10.2444
▁merkel	-10.2451
il	-10.2467
the	-10.2472
▁bourse	-10.2479
▁collision	-10.248
▁brief	-10.2487
▁unprecedented	-10.2488
▁electronic	-10.249
▁aug	-10.2491
▁fidel	-10.2492
▁serving	-10.2492
▁hike	-10.2503
▁me	-10.2505
▁visited	-10.2513
▁fatah	-10.2525
▁prepares	-10.2525
▁cautious	-10.2526
▁demonstrate	-10.2537
▁shareholders	-10.2543
▁policeman	-10.255
▁convoy	-10.2553
la	-10.2563
▁providing	-10.2565
▁willing	-10.2568
▁facility	-10.257
▁wimbledon	-10.2571
▁torture	-10.2579
▁controversy	-10.2579
▁nelson	-10.2579
▁striking	-10.2585
▁islamist	-10.2588
▁minute	-10.2593
▁institutions	-10.2593
▁respect	-10.2606
▁prosecution	-10.2607
▁angolan	-10.261
▁diego	-10.2616
▁add	-10.2617
▁gunman	-10.2628
▁fail	-10.263
▁yemeni	-10.2631
▁deals	-10.2631
▁detainees	-10.2632
▁istanbul	-10.2632
▁removed	-10.2634
▁schroeder	-10.264
▁firefighters	-10.2644
▁kremlin	-10.2651
▁expect	-10.2658
▁works	-10.2667
▁something	-10.2675
▁hoped	-10.2675
▁reconciliation	-10.2677
▁medicine	-10.268
▁criticizes	-10.268
▁drew	-10.2685
▁tigers	-10.2687
▁kuwaiti	-10.2691
▁teenager	-10.2701
▁disarmament	-10.2702
▁stalled	-10.2704
▁islam	-10.2708
▁language	-10.2708
▁widespread	-10.2708
▁accounting	-10.2713
ling	-10.2714
▁socialist	-10.2716
▁beyond	-10.2716
▁praised	-10.2718
▁basque	-10.2725
▁restructuring	-10.2728
by	-10.2737
▁bhutto	-10.274
▁hospitalized	-10.2754
▁reporters	-10.2755
▁easy	-10.2756
of	-10.2761
▁donald	-10.2763
▁attract	-10.2763
▁presented	-10.2765
▁worried	-10.2771
▁newspapers	-10.2773
▁slide	-10.2778
born	-10.2782
▁jack	-10.2794
▁libyan	-10.2797
▁rescued	-10.2801
▁tell	-10.2807
▁cow	-10.2809
president	-10.2815
▁prompt	-10.2815
▁monitor	-10.2816
▁typhoon	-10.2817
▁vaccine	-10.282
el	-10.2821
▁unusual	-10.2822
▁heard	-10.2822
▁numbers	-10.2831
▁urban	-10.2832
▁eighth	-10.2841
▁feb	-10.2843
▁extremists	-10.285
▁opera	-10.2856
▁osama	-10.2864
▁verdict	-10.2864
▁ships	-10.2864
▁katrina	-10.2865
▁guerrilla	-10.2881
▁enhance	-10.2893
▁slovakia	-10.2893
▁chase	-10.2899
▁predicted	-10.2905
▁accepted	-10.2918
com	-10.2919
ar	-10.2937
▁regular	-10.2939
▁firing	-10.294
▁nhl	-10.2941
▁slammed	-10.2942
▁entertainment	-10.2957
▁largely	-10.2963
▁discussed	-10.2974
▁violations	-10.2981
▁gone	-10.2982
▁stimulus	-10.2986
▁restaurant	-10.299
▁revolution	-10.2992
▁chrysler	-10.2995
▁proposes	-10.3014
ervez	-10.3025
▁triggered	-10.3033
▁y	-10.3036
▁our	-10.304
▁shui	-10.3043
▁suggested	-10.3044
▁hosn	-10.3056
hrew	-10.3058
▁wage	-10.3066
▁chip	-10.3067
▁shift	-10.307
▁fields	-10.3073
▁wang	-10.308
▁sprint	-10.308
▁onto	-10.309
▁path	-10.3091
▁suspend	-10.3098
▁subway	-10.3106
▁monitoring	-10.3106
▁judges	-10.3106
bian	-10.3109
▁marines	-10.3109
▁tech	-10.3114
▁helicopters	-10.3114
▁poised	-10.3126
▁chances	-10.3129
▁pirates	-10.3139
▁formal	-10.3142
▁suggest	-10.3146
▁ahmadinejad	-10.3173
▁exchanges	-10.3176
▁financing	-10.3176
▁vast	-10.3176
▁coverage	-10.3185
▁nominee	-10.3188
▁scene	-10.3198
▁units	-10.3206
▁idea	-10.3208
▁ghana	-10.3212
▁pleads	-10.3222
▁executed	-10.3223
▁pyongyang	-10.3225
▁tear	-10.3231
▁pension	-10.3237
▁rep	-10.3238
▁producers	-10.3256
▁teacher	-10.3257
▁creating	-10.3264
▁flee	-10.3266
▁dream	-10.3267
▁eurozone	-10.3269
▁reject	-10.3271
▁shell	-10.3273
▁organized	-10.3277
▁hear	-10.3288
▁liberal	-10.329
▁pga	-10.3293
▁crossing	-10.3293
minute	-10.3298
▁handling	-10.3304
▁sworn	-10.3307
▁version	-10.3307
▁miners	-10.3307
▁plea	-10.331
▁offset	-10.3312
member	-10.3313
▁twenty	-10.3314
▁hindu	-10.3316
▁provided	-10.3319
▁fugitive	-10.3321
▁fully	-10.3323
▁active	-10.3324
▁bln	-10.3326
▁hero	-10.3336
▁declaration	-10.3337
▁en	-10.334
▁reduced	-10.334
era	-10.334
▁destruction	-10.3343
ro	-10.3344
▁bolivia	-10.3345
▁ninth	-10.3353
▁investments	-10.3354
▁phase	-10.3355
▁exit	-10.3366
▁neighborhood	-10.3373
▁stood	-10.3373
billion	-10.3376
▁enron	-10.3376
▁condoleez	-10.3378
▁causes	-10.3383
▁stance	-10.3384
▁seats	-10.3387
▁ac	-10.3388
▁dick	-10.3389
▁bought	-10.3389
ha	-10.3399
▁scottish	-10.3407
▁offshore	-10.3407
▁sank	-10.3408
▁done	-10.3409
▁blame	-10.3409
▁slobod	-10.341
▁assistant	-10.3414
▁door	-10.3418
▁looked	-10.3429
▁testimony	-10.3431
ever	-10.3432
▁lama	-10.3432
ehud	-10.3435
▁fled	-10.344
▁band	-10.3444
▁riots	-10.3446
▁regions	-10.3452
as	-10.3463
▁ioc	-10.3464
▁invited	-10.3465
▁roger	-10.3466
▁rallies	-10.3467
▁princess	-10.3469
finals	-10.3471
▁orleans	-10.3473
▁spying	-10.3485
▁kyi	-10.3486
▁advances	-10.3486
▁engine	-10.3489
▁scientific	-10.3498
▁rand	-10.3499
▁trophy	-10.3501
▁payments	-10.3503
▁doubles	-10.3505
▁singles	-10.3508
▁formed	-10.3509
▁extends	-10.3512
▁moslem	-10.3515
▁risks	-10.3517
▁nkorea	-10.3524
related	-10.3541
▁joins	-10.3552
▁'##	-10.3555
▁mounting	-10.356
▁moment	-10.356
▁files	-10.3564
▁professor	-10.357
pacific	-10.3571
▁becomes	-10.3572
▁veterans	-10.3574
▁soaring	-10.3585
▁puerto	-10.3588
▁agreements	-10.3597
▁impose	-10.36
▁fought	-10.361
▁demonstration	-10.3623
▁means	-10.3631
▁benedict	-10.3632
▁dramatic	-10.3639
▁grenade	-10.364
▁extension	-10.3643
▁brothers	-10.3652
▁slalom	-10.3657
▁kilometers	-10.3657
▁slaying	-10.3658
game	-10.366
▁chips	-10.3668
▁word	-10.3671
▁employment	-10.3676
▁waiting	-10.3677
▁tel	-10.3679
▁laid	-10.369
▁traveling	-10.3693
▁wheat	-10.3697
▁panama	-10.3698
▁deployment	-10.3701
▁mail	-10.3706
▁showdown	-10.3708
▁angels	-10.3713
▁emerged	-10.372
▁continent	-10.3721
▁wait	-10.3724
▁danger	-10.3724
less	-10.3725
premier	-10.3727
v	-10.3727
▁tea	-10.3727
ry	-10.373
▁federer	-10.3732
▁ahmed	-10.3733
▁slowdown	-10.3736
▁fiji	-10.3738
suu	-10.3741
▁vs	-10.3745
▁rocked	-10.3752
▁fc	-10.3756
▁kmt	-10.3761
▁jim	-10.3761
▁observers	-10.3763
point	-10.3764
▁recorded	-10.3765
▁olmert	-10.3778
▁captur	-10.3784
for	-10.379
▁wrong	-10.3794
▁parade	-10.3796
▁phoenix	-10.3803
▁warm	-10.3804
▁contain	-10.3807
ion	-10.3809
▁nikkei	-10.3814
▁minnesota	-10.3816
▁zemin	-10.3818
▁string	-10.382
▁longtime	-10.382
▁delegates	-10.3821
▁bayern	-10.3822
▁easing	-10.383
▁generation	-10.3845
▁established	-10.3849
▁limits	-10.3852
▁choose	-10.3855
▁fastest	-10.3866
▁deliver	-10.3866
▁xvi	-10.3875
▁tanzanian	-10.3875
▁innings	-10.3879
▁shortage	-10.3881
▁words	-10.3888
▁fleet	-10.3891
▁giuliani	-10.3892
▁gdp	-10.3896
▁patrick	-10.3903
▁coffee	-10.3909
▁singapore	-10.3915
▁reiterat	-10.3917
▁similar	-10.392
▁plotting	-10.3921
▁trillion	-10.3922
party	-10.3925
▁azerbaijan	-10.3928
▁walk	-10.3937
▁freeze	-10.3938
▁damages	-10.3938
▁expanding	-10.3939
▁chiefs	-10.3942
▁hitting	-10.3947
▁landslide	-10.3949
▁thing	-10.3953
▁tanker	-10.3956
▁bills	-10.3962
▁kicked	-10.3962
▁toronto	-10.3965
▁lending	-10.3976
▁sao	-10.3979
▁ticket	-10.3982
▁determined	-10.3986
▁gather	-10.3989
▁brussels	-10.3999
▁warn	-10.4006
▁delhi	-10.4007
▁regulations	-10.4008
▁homeless	-10.4016
▁gathering	-10.4019
▁makers	-10.402
going	-10.4027
▁peruvian	-10.4027
▁spark	-10.4029
▁widely	-10.4038
▁supports	-10.4039
▁kevin	-10.4041
▁gross	-10.4042
▁dog	-10.4042
▁motion	-10.4063
▁tested	-10.4069
▁vision	-10.407
▁recovering	-10.4071
▁drama	-10.4071
▁ball	-10.4076
▁illness	-10.4078
▁draws	-10.408
▁various	-10.4081
▁camps	-10.4082
▁silvi	-10.4088
▁meetings	-10.4091
▁material	-10.4093
▁frankfurt	-10.41
▁restive	-10.4102
▁potentially	-10.4105
▁sound	-10.4111
▁accounts	-10.4111
▁registered	-10.4116
▁promoting	-10.4117
▁bahrain	-10.4118
▁jintao	-10.4125
▁factions	-10.4134
▁sue	-10.4137
▁slam	-10.4139
▁networks	-10.4144
ia	-10.4144
▁intended	-10.4153
▁henry	-10.4157
▁epidemic	-10.4161
▁dan	-10.4162
▁upper	-10.4162
▁associat	-10.4166
▁stranded	-10.4171
▁bat	-10.4171
▁taylor	-10.4178
▁scott	-10.4185
▁picked	-10.4191
▁opposed	-10.4193
▁utility	-10.4195
▁elect	-10.42
▁rescuers	-10.4202
▁prisoner	-10.4205
▁negotiator	-10.4206
▁entering	-10.4207
▁temporary	-10.4209
▁carter	-10.421
▁advisory	-10.4213
▁selected	-10.4217
▁ballot	-10.4219
▁capture	-10.4219
▁views	-10.4221
▁inmates	-10.4222
▁bolster	-10.4222
▁explosions	-10.4225
▁villages	-10.4231
▁especially	-10.424
▁blew	-10.4241
▁hamid	-10.4242
▁closely	-10.4244
▁wen	-10.4249
▁dpp	-10.4258
▁grave	-10.426
▁wounds	-10.426
▁elderly	-10.4266
▁questioning	-10.427
▁contact	-10.427
▁triple	-10.4274
▁plo	-10.4278
▁leak	-10.428
▁balance	-10.4282
▁successfully	-10.4284
▁shock	-10.4296
▁complaints	-10.4298
▁columbia	-10.4305
▁citizen	-10.4309
▁closure	-10.4312
▁tibetan	-10.4312
▁produced	-10.4313
▁effective	-10.432
▁unveils	-10.4322
▁alan	-10.4334
▁creation	-10.4335
co	-10.4343
ial	-10.4346
▁beirut	-10.4349
terrorism	-10.4352
▁ho	-10.4353
▁dictator	-10.4356
▁breakthrough	-10.4357
▁infrastructure	-10.4361
▁prompted	-10.4364
▁interests	-10.4367
▁branch	-10.4373
▁warnings	-10.4379
▁experience	-10.4381
▁relay	-10.4389
ne	-10.4394
▁oklahoma	-10.4394
▁adopt	-10.4397
▁modest	-10.44
▁fernando	-10.4402
▁kings	-10.4415
▁bishop	-10.4416
▁rumsfeld	-10.4416
▁warplanes	-10.4417
▁tribute	-10.442
▁anatolia	-10.4424
▁scare	-10.4426
▁sure	-10.4435
▁preparations	-10.4441
▁refuses	-10.4444
▁believes	-10.4446
▁morgan	-10.445
▁promising	-10.445
▁emerging	-10.4456
▁establishment	-10.4461
▁mediterranean	-10.4465
▁roads	-10.4466
▁emissions	-10.4467
▁compound	-10.4467
▁cyclone	-10.4473
▁paying	-10.4478
▁tense	-10.4488
▁woes	-10.4491
▁smoking	-10.4494
▁normal	-10.4498
▁sino	-10.4503
▁subsidiary	-10.4507
▁attempted	-10.4508
▁dalai	-10.4511
▁bigger	-10.4512
▁attempts	-10.452
▁fan	-10.4524
▁aviv	-10.4529
▁identified	-10.4534
▁introduced	-10.4536
▁asking	-10.4538
▁donors	-10.4541
▁kick	-10.4542
▁feet	-10.4543
▁aides	-10.4545
▁computers	-10.4557
▁houses	-10.4558
▁abandoned	-10.4561
▁collection	-10.4565
▁las	-10.4565
▁tanks	-10.4566
▁winners	-10.4571
▁kids	-10.4572
▁shortly	-10.4575
▁trail	-10.4577
▁negative	-10.4579
▁rush	-10.4582
▁previously	-10.4591
▁moham	-10.4595
▁admits	-10.4602
▁delivered	-10.4603
▁chaos	-10.4609
▁flew	-10.4611
▁advantage	-10.4614
▁score	-10.462
▁celebrations	-10.4623
▁plays	-10.4641
▁kyrgyzstan	-10.4641
▁tied	-10.4643
▁fa	-10.4646
▁haitian	-10.4649
▁always	-10.4649
▁zaire	-10.4654
▁dominican	-10.4656
▁duty	-10.4659
▁lord	-10.4663
▁supporting	-10.4663
▁legislators	-10.4665
▁seems	-10.4666
▁tampa	-10.4667
▁honduras	-10.4684
▁temporarily	-10.4684
▁mind	-10.4688
▁guns	-10.4692
▁immigrant	-10.4695
▁protesting	-10.4697
▁launching	-10.4699
▁alaska	-10.4707
▁bargain	-10.4711
▁medals	-10.4711
▁airports	-10.4711
▁insurgency	-10.4715
▁scientist	-10.4716
▁elite	-10.4716
▁hosts	-10.472
▁actions	-10.472
▁villagers	-10.4729
▁quarterly	-10.4736
▁bans	-10.4754
▁elizabeth	-10.4759
▁rating	-10.4762
▁boys	-10.4762
▁####-####	-10.4765
▁gear	-10.477
▁lewis	-10.4774
▁racial	-10.4781
▁hunting	-10.4783
▁broadcasting	-10.4785
▁del	-10.4786
▁things	-10.4787
is	-10.479
▁govt	-10.4791
▁harry	-10.4802
▁possibly	-10.481
▁count	-10.4811
▁shootout	-10.4812
▁twin	-10.4821
▁volume	-10.4824
▁shipping	-10.4827
▁chad	-10.4829
▁individual	-10.4829
▁entire	-10.483
▁picture	-10.483
▁declines	-10.484
▁trucks	-10.4843
▁solve	-10.4847
▁malawi	-10.485
▁doubts	-10.4852
▁kilograms	-10.4853
▁michigan	-10.4863
▁guatemala	-10.4868
▁mets	-10.487
▁manufacturer	-10.4872
▁receiving	-10.4874
▁code	-10.4889
▁items	-10.4899
▁slipped	-10.4903
▁wireless	-10.4907
▁injures	-10.491
▁affected	-10.4916
▁equity	-10.4917
▁options	-10.4922
▁abuses	-10.4933
▁voiced	-10.4938
▁dealing	-10.4939
▁bars	-10.494
▁premiership	-10.4941
▁opinion	-10.4942
▁bombers	-10.4945
▁pound	-10.4945
▁users	-10.4948
▁considers	-10.4952
winning	-10.4954
par	-10.4956
▁migrants	-10.496
ist	-10.4966
▁legislator	-10.4969
▁shoot	-10.4971
▁interfax	-10.4973
▁native	-10.4976
▁mainly	-10.4978
ine	-10.4983
▁npc	-10.4984
▁solid	-10.499
ni	-10.4995
▁grain	-10.4999
▁christopher	-10.5
▁employee	-10.5004
▁cowboys	-10.5007
▁boosting	-10.5008
▁complaint	-10.5012
ier	-10.502
▁apartment	-10.5025
▁sony	-10.5034
▁marketing	-10.505
▁included	-10.5052
▁artist	-10.5057
▁sub	-10.5059
▁negotiate	-10.5065
▁economies	-10.5067
▁places	-10.5078
▁matter	-10.5081
▁heavyweight	-10.5083
▁oldest	-10.509
▁races	-10.5091
▁tycoon	-10.5095
▁brand	-10.5095
▁opportunity	-10.5105
▁vegas	-10.5107
▁accidents	-10.5113
▁arts	-10.5114
▁quarterback	-10.5114
▁antitrust	-10.5118
▁tougher	-10.5121
ley	-10.5128
▁prove	-10.5128
men	-10.5133
▁demonstrations	-10.5136
▁targeting	-10.5138
▁expanded	-10.5142
▁ratings	-10.5144
▁participation	-10.5148
▁mandate	-10.5152
▁alex	-10.5153
▁globe	-10.5165
▁unbeaten	-10.5169
▁confirm	-10.5173
▁changing	-10.5175
▁targeted	-10.5177
▁appearance	-10.518
▁volcano	-10.518
edged	-10.5181
▁theft	-10.5182
▁familiar	-10.5188
▁iron	-10.5189
▁holdings	-10.519
▁murdering	-10.5196
▁billionaire	-10.5203
▁territories	-10.5205
▁calif	-10.5207
▁eased	-10.5212
▁denounced	-10.5214
▁moroccan	-10.5216
▁searching	-10.5216
▁stone	-10.5216
▁cool	-10.522
▁prospect	-10.5227
▁boom	-10.5232
▁johannesburg	-10.5233
▁transit	-10.5235
▁fake	-10.5237
▁note	-10.5241
▁veto	-10.5241
▁extending	-10.5241
▁ira	-10.5246
▁disabled	-10.5248
▁sued	-10.5261
▁pursue	-10.5268
ness	-10.5286
▁fees	-10.5292
▁false	-10.5297
▁acknowledged	-10.5301
▁materials	-10.5323
▁jointly	-10.5324
▁pain	-10.5325
▁schwarzenegger	-10.5325
▁bear	-10.5332
▁basis	-10.5336
▁briefly	-10.5348
▁lu	-10.535
▁collided	-10.5351
▁uncertainty	-10.5353
ies	-10.5361
▁composite	-10.5362
▁orthodox	-10.5375
▁ambush	-10.5378
▁stephen	-10.5379
▁crowded	-10.5382
▁wedding	-10.5383
it	-10.5386
▁drc	-10.5389
▁chosen	-10.539
▁mongolia	-10.5394
▁brian	-10.5395
at	-10.5398
▁hospitals	-10.5411
▁soared	-10.5415
▁donate	-10.542
▁uruguay	-10.5421
▁fever	-10.5424
terror	-10.5427
▁stressed	-10.5429
▁balkan	-10.5438
▁subsidies	-10.544
▁priority	-10.5449
▁thaksin	-10.5454
▁alberto	-10.546
▁intel	-10.5465
▁charter	-10.547
▁brings	-10.5472
▁geneva	-10.5473
▁cleveland	-10.5479
palestinian	-10.5483
made	-10.5486
▁####-##	-10.5489
▁exile	-10.5491
▁born	-10.5493
▁drove	-10.5495
▁successor	-10.5498
▁wu	-10.5499
▁longest	-10.55
▁seemed	-10.5507
▁brokers	-10.5508
▁fishermen	-10.5508
▁combined	-10.551
▁battered	-10.5518
▁grows	-10.5527
de	-10.5531
▁nearby	-10.5537
▁ha	-10.554
▁yesterday	-10.5552
▁lifting	-10.5557
▁overcome	-10.5562
▁praises	-10.5571
▁learn	-10.5577
▁skating	-10.5582
▁suspends	-10.5588
▁upbeat	-10.5601
▁beaten	-10.5609
▁unknown	-10.5611
▁document	-10.5612
▁perfect	-10.5612
▁served	-10.5615
▁vessel	-10.5621
▁necessary	-10.5627
▁warrant	-10.5636
▁publisher	-10.5636
▁smaller	-10.564
▁airliner	-10.5651
▁upon	-10.5651
▁deployed	-10.566
▁song	-10.5666
▁bases	-10.567
▁momentum	-10.5674
▁roc	-10.5675
▁peres	-10.5677
▁ambitious	-10.5679
▁infected	-10.568
▁downturn	-10.5684
▁busy	-10.5697
▁rouge	-10.5699
▁design	-10.5702
▁bombay	-10.5706
▁strain	-10.5706
▁journal	-10.5708
▁wine	-10.571
▁burned	-10.5713
▁mines	-10.5715
▁surrounding	-10.5716
▁bernard	-10.572
▁ballots	-10.5727
▁milk	-10.573
▁drawing	-10.5731
▁semifinal	-10.5731
▁lifts	-10.5732
▁baltic	-10.5733
▁movies	-10.575
▁cards	-10.5752
▁discussions	-10.5755
▁walked	-10.5758
▁tank	-10.5759
▁conviction	-10.5761
▁lineup	-10.5768
▁feature	-10.5772
▁tunnel	-10.5779
▁manuel	-10.578
▁effects	-10.5781
▁rebuild	-10.5784
▁testify	-10.5784
▁basic	-10.5784
▁retailer	-10.5785
▁reactor	-10.5793
▁implement	-10.5794
▁pitcher	-10.5796
▁memory	-10.5798
▁phil	-10.5802
▁mountains	-10.5803
▁horse	-10.5805
▁erupted	-10.5811
▁uzbekistan	-10.5812
▁jazz	-10.5814
▁species	-10.5814
▁bell	-10.5814
▁negotiating	-10.5816
▁dance	-10.5825
▁inspection	-10.5825
▁struggled	-10.5825
▁nationalist	-10.5825
▁rica	-10.5836
▁lithuania	-10.5838
▁violating	-10.5839
▁reduction	-10.5841
▁niger	-10.5841
▁warner	-10.5845
▁earned	-10.5848
▁studies	-10.585
▁dark	-10.5854
▁miller	-10.5856
▁moon	-10.5862
▁floor	-10.587
▁watched	-10.5873
▁ability	-10.588
ca	-10.5883
▁luis	-10.5885
▁adb	-10.5887
▁oversee	-10.5889
end	-10.5892
▁separatists	-10.5894
▁palm	-10.59
▁importance	-10.5905
▁defensive	-10.591
▁gloria	-10.5914
▁animals	-10.5916
▁underground	-10.5919
▁windows	-10.5929
▁everything	-10.593
final	-10.5931
▁answer	-10.5931
▁slowing	-10.5934
▁astronauts	-10.5936
▁census	-10.5939
▁chi	-10.5943
▁casino	-10.5946
▁towns	-10.5949
▁monthly	-10.5952
▁celebration	-10.5953
▁vienna	-10.596
▁atp	-10.596
▁sensitive	-10.5962
▁armstrong	-10.5967
▁metal	-10.5969
▁exercises	-10.5974
▁intervention	-10.5978
▁scoreboard	-10.5981
▁reading	-10.5982
▁protested	-10.5983
▁intense	-10.5988
▁stanley	-10.5988
▁eliminate	-10.5995
▁pharmaceutical	-10.5998
▁revolutionary	-10.6006
democracy	-10.6007
hook	-10.6007
▁wal	-10.6007
▁revised	-10.6012
▁smoke	-10.6012
da	-10.6021
▁robbery	-10.6027
▁mumbai	-10.6034
▁bribery	-10.6034
▁anthrax	-10.6036
▁paramilitary	-10.6036
▁conservatives	-10.6044
▁clubs	-10.6047
ah	-10.6049
▁slovenia	-10.6052
▁reality	-10.6063
▁ride	-10.6065
▁rookie	-10.6066
▁battles	-10.6066
▁setback	-10.6078
▁meat	-10.609
▁sichuan	-10.6094
▁maria	-10.6097
▁xinjiang	-10.6106
▁escape	-10.6106
▁sky	-10.6111
▁rubber	-10.6113
land	-10.6117
way	-10.6118
▁#,###-	-10.612
▁buddhist	-10.6129
▁controls	-10.6132
▁deadlock	-10.6134
▁blames	-10.6135
▁khmer	-10.6135
▁quits	-10.6136
▁yellow	-10.6138
aids	-10.614
▁arroyo	-10.6142
ation	-10.6144
▁santa	-10.6145
▁hebron	-10.6146
▁mohammed	-10.6146
▁nbc	-10.6146
▁extremist	-10.6151
▁estimates	-10.6153
▁attended	-10.6153
▁surrender	-10.6163
▁borders	-10.6174
▁skorea	-10.6181
▁repair	-10.6182
▁travelers	-10.619
▁toxic	-10.6192
▁brutal	-10.6195
▁filipino	-10.6199
▁occupied	-10.6202
▁poultry	-10.6204
▁barred	-10.6207
▁legend	-10.6209
▁acquisition	-10.6216
▁photo	-10.6216
▁trend	-10.6216
▁pool	-10.622
▁films	-10.6227
▁conspiracy	-10.6228
▁medvedev	-10.6228
▁###.##-##	-10.623
▁practices	-10.6246
▁attending	-10.625
▁fit	-10.6258
▁sues	-10.6263
▁teenage	-10.6269
▁reopen	-10.627
do	-10.6277
▁mo	-10.628
▁viktor	-10.6282
▁comprehensive	-10.6294
▁owned	-10.6298
▁sugar	-10.6302
▁communities	-10.6304
▁retire	-10.6306
▁strait	-10.6313
▁implementation	-10.6316
▁rumors	-10.6321
▁patient	-10.6323
▁survived	-10.6324
▁reasons	-10.6325
▁don	-10.633
▁bundesliga	-10.6332
▁narrow	-10.6333
▁innocent	-10.6337
▁nasdaq	-10.6337
▁understanding	-10.6338
▁challenger	-10.6342
profile	-10.6344
▁goalkeeper	-10.6344
▁dominated	-10.6345
mart	-10.6346
▁grants	-10.635
▁karachi	-10.6354
▁reason	-10.6356
▁bit	-10.6357
▁allen	-10.636
no	-10.6367
▁landed	-10.6371
▁ap	-10.6372
▁gambling	-10.6374
ch	-10.6378
▁evacuation	-10.6384
▁jamaica	-10.6385
▁temple	-10.6386
ting	-10.639
▁mystery	-10.6392
▁vital	-10.6394
making	-10.6407
▁omar	-10.6412
ko	-10.6412
▁newcastle	-10.6414
▁suggests	-10.6421
▁sar	-10.6421
▁tickets	-10.6426
held	-10.6426
▁par	-10.6429
▁businessmen	-10.6432
▁intend	-10.6433
▁neighbor	-10.6436
▁harvard	-10.6438
▁promotion	-10.6443
▁paulo	-10.6445
▁stronghold	-10.6445
▁ranks	-10.6449
known	-10.6454
▁prevention	-10.6457
▁spotlight	-10.6457
▁pittsburgh	-10.6458
▁sister	-10.6461
ba	-10.647
▁refusing	-10.6472
▁notorious	-10.6474
▁consortium	-10.6479
haps	-10.6479
▁meant	-10.648
▁sacked	-10.6482
▁manufacturers	-10.6484
▁corn	-10.6485
▁downhill	-10.6492
▁settlements	-10.65
▁guarantee	-10.6502
▁hundred	-10.6504
▁faith	-10.6509
▁receives	-10.651
▁whom	-10.651
▁copa	-10.6512
▁sheikh	-10.6517
▁refinery	-10.6521
▁absence	-10.6523
▁marijuana	-10.653
▁disputes	-10.6534
▁style	-10.6534
▁conducted	-10.654
▁explosive	-10.6542
▁stands	-10.6552
▁screen	-10.6552
▁seconds	-10.6554
▁cancel	-10.6559
▁arrival	-10.6572
▁inning	-10.658
▁oppose	-10.6583
ranking	-10.6585
▁engineering	-10.6591
▁mac	-10.6595
▁juventus	-10.6601
▁opponent	-10.6602
▁influential	-10.6603
▁kaohsiung	-10.6616
▁watching	-10.6621
▁achieve	-10.6621
▁testified	-10.6623
▁magic	-10.6624
▁murdered	-10.6625
▁settlers	-10.6628
▁derby	-10.663
▁blaze	-10.6635
▁liberian	-10.6639
▁mozambican	-10.6645
▁madagascar	-10.665
▁shots	-10.6659
▁breast	-10.666
▁battling	-10.6662
free	-10.6666
ity	-10.6672
▁iowa	-10.668
▁icon	-10.6682
▁na	-10.6688
▁expelled	-10.6703
▁god	-10.6708
▁machine	-10.6718
▁endangered	-10.6719
▁montenegro	-10.6726
▁drawn	-10.6728
▁orange	-10.6732
▁zoo	-10.6734
▁wildlife	-10.6737
▁via	-10.6738
▁resumption	-10.6739
▁andrew	-10.6744
▁locked	-10.6746
▁organisation	-10.6749
▁bidding	-10.6757
▁universities	-10.6759
▁surprising	-10.6762
▁occupation	-10.6768
▁pullout	-10.6775
▁gerhard	-10.6782
▁wearing	-10.6783
▁trains	-10.6785
▁device	-10.6789
▁declare	-10.6791
▁license	-10.6791
▁po	-10.6793
▁integration	-10.6799
percent	-10.6801
▁cbs	-10.6802
ja	-10.6806
▁enjoy	-10.6806
▁youths	-10.6808
▁ramos	-10.6812
▁artillery	-10.6814
▁reducing	-10.6814
▁solar	-10.6815
▁recalled	-10.6817
▁raided	-10.6818
▁encourage	-10.6826
▁laundering	-10.6828
▁whole	-10.6831
▁roll	-10.6835
▁saint	-10.6836
▁packed	-10.6839
▁punishment	-10.6844
▁improvement	-10.6845
▁dropping	-10.6846
▁illinois	-10.6849
▁missed	-10.686
▁assist	-10.686
▁managers	-10.6872
▁diana	-10.688
▁affect	-10.6882
▁faster	-10.6882
gen	-10.6883
▁barrier	-10.6884
▁#,###.#	-10.6889
▁representing	-10.689
▁fewer	-10.6893
▁jihad	-10.6894
▁feel	-10.6899
▁medicare	-10.69
▁followed	-10.69
ur	-10.6901
▁estonia	-10.6908
bound	-10.691
▁fleeing	-10.6911
▁larger	-10.6915
▁twins	-10.6916
▁connecticut	-10.692
son	-10.6921
▁lunch	-10.6922
▁friendship	-10.6925
▁rico	-10.6928
▁trans	-10.6928
▁arnold	-10.693
▁trigger	-10.6938
▁revenues	-10.6942
▁anyone	-10.6942
▁shadow	-10.6944
▁mary	-10.6952
▁bound	-10.696
sharing	-10.6961
▁passing	-10.6962
▁expresses	-10.6973
▁indicated	-10.6975
rs	-10.6977
moon	-10.698
▁stretch	-10.6985
▁petersburg	-10.6986
▁shoulder	-10.6994
▁seminar	-10.6997
▁particularly	-10.7013
▁hole	-10.7015
▁dawn	-10.7016
▁cement	-10.7018
▁musical	-10.7018
▁liu	-10.7025
▁fix	-10.7025
▁cameroon	-10.7029
▁telling	-10.7032
▁subject	-10.7033
▁platform	-10.7041
li	-10.7045
▁tighten	-10.7046
bo	-10.7047
foot	-10.7048
▁diamond	-10.7049
▁unidentified	-10.7055
▁assess	-10.7064
▁sustained	-10.7067
▁stepping	-10.7072
▁gaining	-10.7074
▁sexually	-10.7075
▁struggles	-10.7081
▁talking	-10.7083
▁discrimination	-10.7086
▁hostile	-10.7089
▁soft	-10.7089
▁buys	-10.7092
▁greenspan	-10.7093
▁spreading	-10.7094
▁focused	-10.7095
▁halted	-10.7097
▁pushes	-10.7103
▁managed	-10.7103
▁tower	-10.7104
▁sovereignty	-10.7106
▁coca	-10.7107
▁garden	-10.7107
▁blockade	-10.7108
▁strengthening	-10.711
▁settled	-10.7114
▁acquitted	-10.7117
▁flow	-10.7119
▁declares	-10.7129
▁enclave	-10.713
▁fallen	-10.7131
▁macedonian	-10.7136
▁linking	-10.7139
▁section	-10.7141
▁hired	-10.7146
▁detain	-10.7147
▁knew	-10.7148
▁chamber	-10.7151
▁shop	-10.7151
ul	-10.7155
▁solidarity	-10.7155
▁allows	-10.7159
▁silence	-10.716
▁healthy	-10.7173
▁exploration	-10.7176
▁pitch	-10.7183
▁alternative	-10.7189
▁jeff	-10.7205
▁surging	-10.721
▁nyc	-10.7217
▁reaction	-10.7221
▁homer	-10.7222
▁amazon	-10.7231
▁delivery	-10.7236
▁eta	-10.7237
▁displaced	-10.7241
▁warren	-10.7241
▁suburb	-10.7243
▁pulls	-10.7244
▁alone	-10.7246
▁exiled	-10.7248
▁salvador	-10.725
▁di	-10.725
▁eritrea	-10.7252
▁condemn	-10.7254
▁spiritual	-10.7254
▁supported	-10.7254
▁playoffs	-10.7273
▁replaced	-10.7275
▁amendment	-10.7277
▁honors	-10.7279
▁pa	-10.728
▁seal	-10.7286
▁badminton	-10.7288
▁learned	-10.729
▁schumacher	-10.7291
▁ethics	-10.7292
▁spurs	-10.7293
tass	-10.7295
▁bulls	-10.7295
go	-10.7296
▁campus	-10.7303
▁au	-10.7305
▁knicks	-10.7311
▁master	-10.7313
▁recommended	-10.7314
▁tumbled	-10.7316
▁mafia	-10.7318
▁burning	-10.7318
angela	-10.7324
▁diplomacy	-10.7325
▁drinking	-10.7327
▁aggressive	-10.7334
▁rapid	-10.734
▁parent	-10.734
▁avert	-10.7346
▁copper	-10.735
▁identity	-10.7354
▁tragedy	-10.7354
▁sam	-10.7356
▁nz	-10.7359
▁lawsuits	-10.736
▁persons	-10.736
▁amman	-10.7361
▁treat	-10.7368
▁permission	-10.737
▁paraguay	-10.7377
▁tri	-10.7379
▁pending	-10.7382
▁audience	-10.7382
▁beer	-10.7385
▁mbeki	-10.7386
▁withdrew	-10.7389
▁affair	-10.7392
▁jurors	-10.7393
▁acts	-10.7394
▁frozen	-10.7399
ga	-10.7402
▁storms	-10.7403
▁hotels	-10.7405
▁pressed	-10.741
▁passage	-10.741
▁brooklyn	-10.7413
▁gonzalez	-10.7413
▁ronaldo	-10.7414
▁distance	-10.7415
▁colleagues	-10.7417
▁publicly	-10.742
scale	-10.7422
▁shake	-10.7423
▁siege	-10.7426
mail	-10.7431
▁##.###	-10.7433
▁require	-10.7446
▁publishing	-10.7455
▁announcing	-10.7455
▁persuade	-10.7457
▁triumph	-10.7459
▁suffer	-10.746
▁dna	-10.7461
▁listed	-10.7463
▁retain	-10.7464
▁escalating	-10.7466
▁residence	-10.7466
▁pilgrims	-10.7466
▁journey	-10.7482
▁opportunities	-10.7482
▁distribution	-10.7482
▁directors	-10.7484
▁agassi	-10.7503
stroke	-10.7509
age	-10.751
▁deny	-10.7512
▁wages	-10.7517
▁rocks	-10.7518
▁mar	-10.752
▁scoring	-10.7524
▁gunfire	-10.7524
▁silva	-10.7531
▁size	-10.7538
▁suburban	-10.754
▁shield	-10.7548
▁doubled	-10.7548
▁banning	-10.7552
▁rafael	-10.7563
▁abandon	-10.7571
▁pat	-10.7575
▁eric	-10.7584
▁villa	-10.7589
▁faction	-10.759
▁andy	-10.7591
▁barak	-10.7592
▁itar	-10.7596
▁###-##	-10.7602
▁catch	-10.7602
▁opposes	-10.7605
▁easily	-10.7609
▁kohl	-10.7611
▁honored	-10.7618
▁nordic	-10.762
▁violated	-10.7621
▁thrown	-10.7627
speed	-10.7628
▁resumes	-10.7629
▁iceland	-10.7631
▁harsh	-10.7631
▁utah	-10.7639
▁blocking	-10.7639
▁fill	-10.7642
▁unable	-10.7645
▁felt	-10.7645
▁written	-10.7647
▁slip	-10.7648
▁centers	-10.7657
▁ftse	-10.7658
▁surveillance	-10.7663
▁treated	-10.7664
▁alcohol	-10.7666
▁progressive	-10.7666
▁driven	-10.7668
▁burst	-10.7671
▁outcome	-10.7671
▁respond	-10.7673
▁speak	-10.7674
▁mars	-10.7674
▁transition	-10.7676
▁kentucky	-10.7679
▁phones	-10.7681
▁fines	-10.7683
israeli	-10.7684
▁sense	-10.7685
▁sells	-10.7685
▁vancouver	-10.7688
ke	-10.7689
▁khan	-10.7691
▁chemicals	-10.7693
▁runoff	-10.7697
▁stormed	-10.7701
▁senegal	-10.7701
▁succeed	-10.7703
▁shore	-10.7707
▁singh	-10.7709
▁ny	-10.771
▁existing	-10.7711
▁anna	-10.772
▁attacking	-10.7723
▁beckham	-10.7723
▁enters	-10.7724
azir	-10.7724
▁universal	-10.7724
one	-10.7726
▁inauguration	-10.7732
▁laos	-10.7735
▁rabin	-10.774
▁technologies	-10.7742
▁fact	-10.7743
▁male	-10.7744
▁dissidents	-10.7747
▁selection	-10.7755
▁indoor	-10.7758
▁pregnant	-10.7759
ravaged	-10.776
▁employers	-10.7761
▁deported	-10.7765
▁abdul	-10.7769
▁expel	-10.7771
▁guangzhou	-10.7778
▁boats	-10.7778
▁torch	-10.7781
▁serie	-10.7783
▁poisoning	-10.7792
▁kurds	-10.7796
▁fla	-10.7796
century	-10.7799
▁hometown	-10.7803
▁savings	-10.7805
▁heritage	-10.7806
▁booming	-10.7811
▁pennsylvania	-10.7811
▁fragile	-10.782
▁farewell	-10.7823
▁regulation	-10.7823
▁nets	-10.7826
▁helps	-10.7827
▁true	-10.7827
▁abducted	-10.7832
▁ads	-10.7848
▁unexpected	-10.785
▁sit	-10.7855
▁cartel	-10.7867
▁nature	-10.7867
▁imported	-10.7872
▁stresses	-10.7885
ka	-10.7886
▁mohammad	-10.7887
▁crop	-10.7888
▁christians	-10.7894
▁virgin	-10.7896
▁edwards	-10.7896
▁bottom	-10.79
▁tree	-10.7903
▁partial	-10.7904
▁tajikistan	-10.7912
▁trees	-10.7913
lo	-10.7915
▁armenia	-10.7917
▁greenhouse	-10.7918
▁upgrade	-10.7922
▁includes	-10.7925
food	-10.7925
▁read	-10.7934
▁mortar	-10.7934
▁sat	-10.7939
▁archbishop	-10.7942
▁usa	-10.7947
▁ministerial	-10.7949
▁greatest	-10.795
▁zero	-10.7953
▁louisiana	-10.7954
▁jo	-10.7955
▁hariri	-10.7959
field	-10.7963
▁hardline	-10.7963
▁designer	-10.7964
▁avalanche	-10.7969
border	-10.7969
▁incumbent	-10.7988
▁defeats	-10.7989
▁cholera	-10.799
▁duties	-10.7993
▁cents	-10.7999
▁recognize	-10.8
▁laurent	-10.8001
▁cap	-10.8005
au	-10.8012
▁sick	-10.8017
▁latvia	-10.8017
▁cancels	-10.8026
▁explore	-10.8031
▁colombo	-10.8032
▁boutros	-10.8033
▁comedy	-10.8033
▁donations	-10.8045
▁confrontation	-10.8046
▁conglomerate	-10.8049
▁volkswagen	-10.8049
▁harm	-10.8051
▁uprising	-10.8059
▁patriots	-10.8064
▁slovak	-10.8075
▁stealing	-10.8082
▁dismiss	-10.8082
▁signal	-10.8084
▁cope	-10.8084
▁covered	-10.8084
▁andre	-10.8084
▁consulate	-10.8089
▁submarine	-10.8089
▁harbor	-10.8094
▁maritime	-10.8095
▁thin	-10.8098
▁mourning	-10.8106
▁ucla	-10.8106
▁ecb	-10.8108
▁incidents	-10.8109
▁copenhagen	-10.8109
▁ash	-10.811
▁rodriguez	-10.8112
▁required	-10.8113
▁uphold	-10.8114
▁postal	-10.8114
▁chess	-10.8114
▁broadway	-10.8115
▁stewart	-10.8118
▁ibm	-10.8118
▁provinces	-10.8127
▁blocks	-10.8127
▁dismisses	-10.813
▁runway	-10.8132
▁academic	-10.814
▁lyon	-10.8141
ael	-10.8142
▁deeply	-10.8152
▁francs	-10.8153
▁worse	-10.8154
▁politically	-10.8163
▁advocates	-10.8171
▁victories	-10.8172
▁lumpur	-10.8178
▁measur	-10.8191
▁trials	-10.8194
▁ripped	-10.8207
▁ray	-10.8207
▁damascus	-10.8216
▁widow	-10.8216
▁indians	-10.8217
▁shared	-10.8219
▁quest	-10.8219
▁organisers	-10.8223
▁kuomintang	-10.8224
▁bloomberg	-10.8227
ian	-10.8228
▁nominated	-10.8239
▁mall	-10.8252
▁richter	-10.8256
▁lightning	-10.8259
di	-10.827
▁abc	-10.8276
air	-10.8277
▁wickets	-10.8282
▁nicaragua	-10.8284
▁couples	-10.8284
▁seem	-10.8288
ron	-10.8292
▁congressman	-10.8293
▁badly	-10.8304
▁destroy	-10.8305
▁protecting	-10.8305
ary	-10.8306
▁cardinals	-10.8309
▁###-###	-10.8314
▁dogs	-10.8316
uala	-10.8323
▁advice	-10.8325
▁soar	-10.8326
▁pna	-10.8327
▁peak	-10.8333
▁renew	-10.8334
▁terminal	-10.834
▁gary	-10.834
▁payment	-10.834
▁textile	-10.8341
▁mental	-10.8347
um	-10.8349
▁explain	-10.8356
▁wta	-10.836
▁devils	-10.8363
▁percentage	-10.8366
rank	-10.8366
▁dam	-10.8366
▁lived	-10.8367
▁condolences	-10.8367
▁defiant	-10.8381
▁sectors	-10.8385
▁piracy	-10.8385
▁hat	-10.839
▁mean	-10.8392
▁jimmy	-10.8398
▁roma	-10.8403
▁celebrates	-10.8403
▁dennis	-10.8404
▁belonging	-10.8406
▁provides	-10.8406
▁prestigious	-10.8407
▁rebuilding	-10.8408
▁prague	-10.8416
▁decree	-10.8416
▁nadal	-10.8419
▁maoist	-10.8425
▁shown	-10.8428
▁uncertain	-10.8428
▁graft	-10.8431
▁undergo	-10.8433
▁salt	-10.8437
▁serena	-10.844
▁bishops	-10.844
▁jiabao	-10.8445
▁highlight	-10.8446
▁bruins	-10.8451
▁conflicts	-10.8462
▁weakness	-10.8463
▁shinawatra	-10.8463
▁montreal	-10.8463
im	-10.8464
▁wrote	-10.8466
▁arena	-10.8466
▁factories	-10.8469
▁jerry	-10.8475
▁inaugural	-10.8478
▁insurer	-10.8479
▁hub	-10.848
▁easier	-10.8484
▁acquired	-10.8488
▁rebounded	-10.8488
elected	-10.849
▁earn	-10.8492
▁pioneer	-10.8494
▁competitive	-10.8496
▁dean	-10.8496
sex	-10.8497
▁nairobi	-10.8499
▁sight	-10.8499
▁drilling	-10.8499
▁cardinal	-10.8503
▁minimum	-10.8508
▁flash	-10.8511
▁tunisia	-10.8513
▁awaited	-10.8518
▁sectarian	-10.8519
▁either	-10.8522
▁novel	-10.8525
▁contribute	-10.8528
▁guide	-10.8531
▁departure	-10.8531
▁flames	-10.8534
▁diseases	-10.8536
▁precede	-10.8539
▁replacement	-10.8544
▁thousand	-10.8545
▁insists	-10.8548
▁freestyle	-10.8549
▁violation	-10.8552
▁sailors	-10.8553
▁imminent	-10.8558
▁jason	-10.8558
▁ankle	-10.8561
▁grip	-10.8564
▁deadliest	-10.8567
▁withdraws	-10.8568
▁braves	-10.8569
▁reflecting	-10.8575
▁ken	-10.8577
▁deploy	-10.8587
▁refusal	-10.8588
ce	-10.8588
▁firmer	-10.8589
▁grounds	-10.8595
▁releases	-10.86
▁sec	-10.8602
drug	-10.8604
▁declaring	-10.8606
▁donated	-10.8606
▁guests	-10.8608
▁filled	-10.8612
▁islamabad	-10.8621
▁library	-10.8624
▁torrent	-10.8627
▁mikhail	-10.8633
▁reputation	-10.8639
▁semiconductor	-10.8639
▁narrowly	-10.8641
▁blasted	-10.8643
▁trinidad	-10.8645
▁inaugurated	-10.8648
▁forex	-10.865
▁hijacked	-10.865
style	-10.8651
▁divorce	-10.8654
▁unexpectedly	-10.8656
▁zhejiang	-10.8657
▁option	-10.866
▁multinational	-10.866
▁direction	-10.8666
▁rev	-10.8668
▁hearings	-10.8677
▁celtics	-10.8678
▁bronze	-10.8687
▁underway	-10.8687
▁petition	-10.869
▁celtic	-10.8696
▁cigarette	-10.8696
▁nascar	-10.8696
▁doors	-10.8698
▁automobile	-10.87
▁assured	-10.8705
▁yahoo	-10.8705
▁herald	-10.871
▁buyers	-10.8711
awaited	-10.8713
▁kicks	-10.8714
▁touch	-10.8715
▁albright	-10.8716
▁lashed	-10.8718
▁examine	-10.8723
▁preparation	-10.8724
▁impoverished	-10.8727
▁albanians	-10.8732
▁counterparts	-10.8741
ranging	-10.8743
▁cells	-10.875
▁sinking	-10.8755
▁indiana	-10.8755
▁bryant	-10.8759
▁tentative	-10.8762
▁praise	-10.8765
▁peng	-10.8766
▁picks	-10.8767
▁devastated	-10.8767
▁spirit	-10.8773
▁tariffs	-10.8774
▁am	-10.878
▁article	-10.878
▁pete	-10.8787
▁expo	-10.8787
▁hidden	-10.88
▁venus	-10.88
▁sometimes	-10.8801
▁mahathir	-10.8812
▁truth	-10.8812
irna	-10.8815
▁risen	-10.8818
▁retailers	-10.8819
▁original	-10.882
▁bids	-10.8822
▁pictures	-10.8832
▁vacation	-10.8833
▁writers	-10.8839
▁piece	-10.8839
▁chang	-10.884
▁battled	-10.8847
called	-10.8849
ir	-10.8851
▁stroke	-10.8851
▁concrete	-10.8852
▁comment	-10.8852
▁monitors	-10.8855
▁kidnapp	-10.8856
▁xi	-10.8857
▁curfew	-10.8858
▁behavior	-10.886
▁pulling	-10.886
am	-10.8861
▁overtime	-10.8863
▁referee	-10.8866
lin	-10.8866
▁continental	-10.8867
▁polling	-10.8867
▁buses	-10.8871
▁citizenship	-10.8873
▁millennium	-10.8876
▁berth	-10.8878
▁devices	-10.8879
▁worry	-10.888
▁carbon	-10.888
▁voter	-10.8883
▁trapp	-10.8885
▁aerospace	-10.8885
▁consensus	-10.8885
▁inspections	-10.8886
▁spoke	-10.8891
ism	-10.8892
▁carl	-10.8893
ment	-10.8896
▁slash	-10.8899
▁overturned	-10.8901
running	-10.8904
▁panic	-10.8904
▁fatally	-10.8907
▁searched	-10.8911
▁wound	-10.8916
▁circuit	-10.8916
et	-10.8918
▁va	-10.8918
▁equal	-10.8926
▁theme	-10.8936
▁text	-10.8938
▁infection	-10.894
▁features	-10.8941
▁simon	-10.8941
▁haul	-10.8944
▁skorean	-10.8945
▁artists	-10.8951
▁merge	-10.8953
▁sporting	-10.8954
▁recalls	-10.8958
▁fixed	-10.8958
▁blacks	-10.8962
▁deputies	-10.8966
▁rank	-10.8971
▁mp	-10.8972
▁congolese	-10.8973
▁dhaka	-10.8975
▁caution	-10.8978
▁prodi	-10.8984
▁influenza	-10.8994
▁controlled	-10.8995
▁hiding	-10.8995
▁engineers	-10.8996
▁cattle	-10.8997
▁karadzic	-10.9003
▁baltimore	-10.9006
▁tianjin	-10.901
▁mob	-10.9019
▁disappear	-10.9019
▁iaea	-10.9022
▁soil	-10.9025
china	-10.903
▁recognition	-10.9032
▁mogadishu	-10.9034
▁allied	-10.9036
▁forming	-10.904
▁checks	-10.9041
▁handle	-10.9041
ization	-10.9044
▁ham	-10.9048
▁looming	-10.905
▁empire	-10.905
▁evacuate	-10.9053
▁mcdonald	-10.9053
▁mir	-10.9056
▁bernanke	-10.906
▁cloud	-10.9063
▁steep	-10.9064
▁temperatures	-10.9067
▁commanders	-10.9069
▁broker	-10.9069
▁happen	-10.9075
▁runner	-10.9079
▁reverse	-10.9085
▁corner	-10.9087
▁forms	-10.9091
▁write	-10.9093
▁shelter	-10.91
▁enrichment	-10.91
▁inmate	-10.9104
▁mps	-10.911
▁ranking	-10.9126
▁signals	-10.9128
▁damaging	-10.9129
▁barely	-10.913
▁select	-10.9136
▁virtually	-10.9138
▁hills	-10.9139
▁urgent	-10.9144
▁magnitude	-10.9144
▁inventories	-10.9145
▁attorneys	-10.9151
▁confront	-10.9168
▁scam	-10.9171
▁shrine	-10.9175
▁edward	-10.9178
▁privatization	-10.9186
▁sluggish	-10.9192
▁standings	-10.9198
ner	-10.9205
▁stabbed	-10.9205
▁shed	-10.9209
▁pursuit	-10.9214
▁fujian	-10.9218
▁stunning	-10.923
▁zhang	-10.9236
▁barry	-10.9238
▁ferrari	-10.924
▁oust	-10.924
▁rod	-10.9244
▁stress	-10.9248
▁il	-10.9253
▁rican	-10.9253
▁rift	-10.9256
▁really	-10.9256
▁producing	-10.9259
▁imprisoned	-10.9261
▁automakers	-10.9262
▁wayne	-10.9264
▁arabs	-10.9269
▁protocol	-10.9272
▁revenge	-10.9275
▁endorsed	-10.9276
▁withdrawn	-10.9277
▁stakes	-10.9281
▁summary	-10.9281
▁possession	-10.9285
shot	-10.9288
▁rebounds	-10.9289
back	-10.9291
▁photos	-10.9298
▁weakened	-10.9304
▁serge	-10.9316
▁traffickers	-10.9319
▁spa	-10.9323
▁regulator	-10.9324
▁lands	-10.9324
▁contributions	-10.9325
▁harvest	-10.9328
▁edition	-10.9333
▁unanimously	-10.9335
▁notes	-10.9335
▁consumption	-10.9343
high	-10.9348
▁ashes	-10.9351
▁ok	-10.9353
▁wings	-10.9355
▁lpga	-10.9356
▁bolivian	-10.9357
▁perry	-10.937
▁apart	-10.9371
▁kidnapping	-10.9371
▁desperate	-10.9374
▁guidelines	-10.9377
▁married	-10.9378
▁sharing	-10.9388
▁expensive	-10.9391
▁shortages	-10.9396
▁containing	-10.9404
▁citigroup	-10.9404
▁rick	-10.9407
▁palestine	-10.9408
▁lance	-10.9413
▁dinner	-10.9414
▁tennessee	-10.9417
▁metro	-10.9418
▁bbc	-10.9421
▁secrets	-10.9423
▁perform	-10.9426
▁goodwill	-10.9427
▁regulatory	-10.9435
▁arctic	-10.944
▁lab	-10.9451
▁respiratory	-10.9456
▁propose	-10.9458
▁th	-10.9459
▁valencia	-10.9459
▁statements	-10.9462
▁javier	-10.9463
▁submitted	-10.9465
▁birds	-10.9465
▁deportation	-10.9472
▁intensified	-10.9482
▁marseille	-10.9482
▁gift	-10.9495
▁filing	-10.9497
▁disappointing	-10.9499
▁pour	-10.9501
ally	-10.9503
▁clearing	-10.9507
▁album	-10.9508
▁upheld	-10.9509
▁outrage	-10.9509
▁sir	-10.9509
▁throw	-10.9518
▁slowed	-10.9527
▁predicts	-10.9529
▁unveil	-10.9533
▁melbourne	-10.9538
▁forge	-10.9539
izing	-10.9543
▁slight	-10.9544
cola	-10.9545
▁strict	-10.9547
▁commodities	-10.9551
▁serial	-10.9551
▁clark	-10.9552
▁qualify	-10.9553
▁significantly	-10.9555
▁monopoly	-10.9557
▁assessment	-10.9558
▁barometer	-10.9561
▁solana	-10.9574
▁detainee	-10.9578
▁flooded	-10.958
▁ibrahim	-10.9581
mo	-10.9583
▁ownership	-10.9584
▁swing	-10.9584
▁midnight	-10.9585
▁syndrome	-10.9597
▁disarm	-10.9603
▁challenging	-10.9607
▁con	-10.9608
▁penalties	-10.9611
▁hampshire	-10.9614
▁mississippi	-10.9614
▁capacity	-10.9616
▁racism	-10.9616
▁airplane	-10.9619
▁priests	-10.9621
▁lula	-10.9621
▁reception	-10.9624
▁babies	-10.9624
▁clinic	-10.9626
▁everyone	-10.9631
▁inner	-10.9637
▁canal	-10.9637
ina	-10.9642
▁honda	-10.9646
▁harassment	-10.9648
▁documentary	-10.9654
▁provider	-10.9656
▁interested	-10.9657
▁wealthy	-10.9657
▁plastic	-10.966
▁bmw	-10.9667
▁ron	-10.9667
▁throwing	-10.9674
▁marc	-10.9678
▁murders	-10.968
ng	-10.9683
▁shandong	-10.9687
▁rapidly	-10.9689
▁laboratory	-10.9691
▁letters	-10.9691
▁external	-10.97
▁stockholm	-10.9701
▁crops	-10.9702
▁ying	-10.9704
▁judiciary	-10.9707
▁foster	-10.9709
▁coaches	-10.9709
▁knocked	-10.9713
▁chair	-10.9717
▁feeling	-10.9718
▁tyson	-10.9721
▁rudolph	-10.9724
▁greenpeace	-10.9724
▁remember	-10.9724
▁fallujah	-10.9731
▁drowned	-10.9736
▁window	-10.9742
▁robust	-10.9744
▁extreme	-10.9753
▁criminals	-10.9754
▁institution	-10.9757
▁missouri	-10.9757
▁rampage	-10.9759
▁images	-10.9761
▁covering	-10.9764
▁enemy	-10.9765
▁###-#	-10.977
▁skiing	-10.9776
▁hikes	-10.9779
▁conservation	-10.9779
▁analyst	-10.978
▁alabama	-10.9784
▁unicef	-10.9784
▁impasse	-10.9789
▁venue	-10.979
▁founding	-10.9796
▁wilson	-10.9801
▁protestant	-10.9803
▁core	-10.9805
▁ko	-10.9809
▁simple	-10.981
▁directly	-10.9811
▁amsterdam	-10.9811
▁hair	-10.9812
▁disclosed	-10.9812
▁peso	-10.9818
▁tonnes	-10.982
▁x	-10.9824
▁lions	-10.9827
▁operators	-10.983
▁dominate	-10.9833
▁fiat	-10.9834
▁churches	-10.9836
▁contested	-10.9844
▁ab	-10.9845
▁larry	-10.9845
▁lottery	-10.9855
▁athletic	-10.9856
law	-10.9856
▁investigated	-10.9859
▁elsewhere	-10.9869
▁celebrating	-10.9872
▁suharto	-10.9872
▁tumble	-10.9876
▁cppcc	-10.9876
▁atop	-10.9882
▁roddick	-10.9883
▁sparks	-10.9885
▁ankara	-10.9886
▁aftermath	-10.9886
▁lin	-10.9886
▁km	-10.9888
▁empty	-10.9893
▁slated	-10.9898
▁monaco	-10.99
▁emotional	-10.9902
▁photograph	-10.9907
▁writing	-10.991
▁encouraging	-10.991
▁concessions	-10.991
▁hiring	-10.9913
▁older	-10.9918
▁economists	-10.9926
▁retreat	-10.993
▁challenged	-10.9933
▁gingrich	-10.9934
▁edges	-10.9934
▁honduran	-10.9937
▁application	-10.9941
▁zhu	-10.9941
▁tonight	-10.9941
▁nightclub	-10.9944
ou	-10.9945
▁roy	-10.9946
▁shops	-10.9946
▁knows	-10.9947
▁rape	-10.995
▁guy	-10.9951
▁religion	-10.9954
▁stick	-10.9956
ya	-10.9956
▁pressing	-10.996
▁balkans	-10.9961
▁arguments	-10.9963
car	-10.997
▁declining	-10.9975
▁siemens	-10.9978
▁yang	-10.998
▁dry	-10.998
▁suspicious	-10.9982
▁surface	-10.9983
▁palin	-10.9983
▁studio	-10.9983
▁divisions	-10.9986
▁banker	-10.9986
▁critic	-10.9994
▁acute	-10.9999
▁salvage	-11
▁eleven	-11.0003
▁herself	-11.0006
▁malaria	-11.0009
▁complained	-11.0015
▁agreeing	-11.0017
▁engaged	-11.0018
▁oman	-11.0018
▁chan	-11.0018
ful	-11.0019
▁bull	-11.002
▁competing	-11.0023
qtr	-11.0026
▁aged	-11.0028
▁yunnan	-11.003
▁bankers	-11.0035
▁seekers	-11.0035
▁luiz	-11.0037
▁ivan	-11.0037
official	-11.0049
▁crews	-11.005
he	-11.0051
▁gene	-11.0053
▁ncaa	-11.0054
▁hip	-11.006
kilometer	-11.0062
▁yu	-11.0065
▁frontier	-11.0065
▁sect	-11.0069
▁cincinnati	-11.0072
ge	-11.0078
▁grim	-11.0079
▁survive	-11.0082
▁medium	-11.0086
▁lock	-11.0086
▁copyright	-11.0093
▁punish	-11.0096
▁retaliation	-11.0096
▁stayed	-11.01
chairman	-11.0101
▁survivor	-11.0102
▁mavericks	-11.0103
▁lithuanian	-11.0103
▁hate	-11.0105
▁commodity	-11.0106
▁armored	-11.0111
▁rejecting	-11.0115
▁ec	-11.012
stricken	-11.0129
▁extradite	-11.0133
▁neighbour	-11.0141
▁legendary	-11.0145
▁correspondent	-11.0152
linked	-11.0154
▁ports	-11.0157
▁laureate	-11.016
▁airstrikes	-11.0162
▁sw	-11.0163
soviet	-11.0164
▁debts	-11.0165
▁organizing	-11.0166
▁spree	-11.0169
▁clothing	-11.0172
▁resolved	-11.0172
▁odds	-11.0173
▁stops	-11.0176
▁se	-11.0178
▁advisers	-11.0179
▁deposed	-11.018
▁beleaguered	-11.0187
▁shipment	-11.0189
▁bloodshed	-11.0194
▁resolving	-11.0197
▁lung	-11.0199
▁volunteers	-11.0203
▁kyrgyz	-11.0204
▁fireworks	-11.0205
▁weighed	-11.0206
▁followers	-11.0209
▁privacy	-11.0211
▁leeds	-11.0213
▁crunch	-11.0215
▁riding	-11.0225
▁samsung	-11.0225
▁albert	-11.0228
▁sampras	-11.0229
▁salary	-11.0229
▁worsening	-11.0229
▁supposed	-11.0233
▁tactics	-11.0243
▁commit	-11.0243
▁congratulate	-11.0246
▁associate	-11.0249
▁counts	-11.0249
▁arriving	-11.025
▁feed	-11.0252
▁unite	-11.0255
class	-11.0255
▁brink	-11.0257
▁estrada	-11.0257
▁yangtze	-11.0261
▁lynch	-11.0261
▁cubs	-11.0272
▁kg	-11.0276
▁depression	-11.0282
▁rolling	-11.0283
▁hassan	-11.0295
▁grass	-11.0296
▁drill	-11.0297
▁rein	-11.0299
▁identify	-11.0303
▁cook	-11.0306
▁clears	-11.0307
▁extraordinary	-11.0307
▁ryan	-11.0309
sen	-11.0311
▁indictment	-11.0311
▁mulls	-11.0316
▁eager	-11.0318
▁hail	-11.0318
▁messages	-11.0319
ac	-11.0323
▁flock	-11.0326
▁postpone	-11.0335
▁clinch	-11.0339
▁presses	-11.0341
▁pays	-11.0341
▁encouraged	-11.0341
▁gp	-11.0343
▁scrutiny	-11.0346
▁,###	-11.0346
▁turnout	-11.0349
▁impeachment	-11.0353
▁tajik	-11.0357
▁taxi	-11.0364
▁outlawed	-11.0367
▁mounted	-11.0371
▁spin	-11.0374
▁asset	-11.0375
▁restart	-11.0377
▁managing	-11.0386
▁gray	-11.0386
▁oregon	-11.0389
▁armenian	-11.0396
▁rushed	-11.0398
▁pride	-11.04
▁wholesale	-11.0402
▁bout	-11.0403
▁pledging	-11.0407
▁exhibit	-11.0412
▁briton	-11.0413
▁sniper	-11.0414
▁looms	-11.0414
▁visas	-11.0415
▁alarm	-11.0417
▁franchise	-11.0417
▁maintained	-11.0422
▁reopened	-11.0425
▁refuse	-11.0426
▁richest	-11.0427
▁himalayan	-11.0428
▁unhcr	-11.0428
▁anything	-11.0428
▁smashed	-11.043
▁usual	-11.0431
▁saved	-11.0431
▁proved	-11.0432
▁mena	-11.0437
▁framework	-11.0439
▁jiangsu	-11.0439
▁philip	-11.0439
▁broncos	-11.0444
▁restraint	-11.0446
▁chicken	-11.045
▁contacts	-11.0457
▁decisive	-11.046
▁prayer	-11.0463
▁sole	-11.0465
▁moldova	-11.0466
came	-11.0466
ized	-11.0467
▁burn	-11.0474
▁offense	-11.048
▁osce	-11.0482
▁sidelines	-11.0484
▁pla	-11.0484
▁qualifiers	-11.0484
▁rolled	-11.0485
▁deepening	-11.0487
▁awaiting	-11.0489
▁accepts	-11.0489
▁featur	-11.0491
▁mysterious	-11.0493
fi	-11.0493
▁muhammad	-11.0493
▁manage	-11.0497
▁nokia	-11.05
▁decides	-11.0505
▁painting	-11.051
▁sidelined	-11.0511
ol	-11.0517
▁waves	-11.0517
▁learning	-11.0523
▁supplier	-11.0531
▁felipe	-11.0533
▁reshuffle	-11.0534
mi	-11.0535
▁wider	-11.0536
ti	-11.0537
▁campaigning	-11.054
▁suffers	-11.054
▁michelle	-11.0544
▁burns	-11.055
▁autonomy	-11.0551
▁isolated	-11.0554
ists	-11.0556
▁radar	-11.0566
▁communication	-11.0568
▁turkmenistan	-11.0569
▁tradition	-11.0571
▁principle	-11.0572
▁girlfriend	-11.0572
▁caucasus	-11.0573
▁wood	-11.0574
▁lo	-11.058
▁checkpoint	-11.0581
▁reaffirmed	-11.0581
▁critically	-11.0581
▁prescription	-11.0584
▁ordering	-11.059
▁wealth	-11.0594
▁burma	-11.0599
▁skipper	-11.0599
▁shutdown	-11.06
▁cyclist	-11.0602
▁holidays	-11.0603
▁sinn	-11.0606
chi	-11.0606
▁machines	-11.0608
▁beauty	-11.0613
▁operate	-11.0619
▁barrels	-11.0621
▁uzbek	-11.0624
▁formation	-11.0626
▁legacy	-11.0628
▁sinks	-11.0628
▁outstanding	-11.0635
▁espionage	-11.0636
▁anthony	-11.0639
▁jong	-11.0647
▁shape	-11.0649
▁secured	-11.0657
▁dmitr	-11.0663
▁nicole	-11.0667
▁rough	-11.0668
▁defuse	-11.0671
▁restaurants	-11.0671
▁await	-11.0673
▁embark	-11.0676
▁denounces	-11.0679
▁garcia	-11.0679
▁wreckage	-11.0683
▁lucrative	-11.0687
▁repeat	-11.0689
▁multiple	-11.069
▁lufthansa	-11.0698
▁confirmation	-11.0698
▁depot	-11.0698
▁undermine	-11.0701
▁crossed	-11.0704
▁motorcycle	-11.0704
▁traveled	-11.0704
▁immunity	-11.0705
▁fein	-11.0709
▁bobby	-11.0711
▁carriers	-11.0711
▁bust	-11.0713
▁breach	-11.0715
▁bag	-11.0716
▁z	-11.0724
▁lunar	-11.0724
▁racist	-11.0725
▁shimo	-11.0733
▁swift	-11.0734
▁foes	-11.0734
corruption	-11.0735
▁slowly	-11.0736
▁engineer	-11.0737
acio	-11.0741
▁exporting	-11.0744
▁gap	-11.0744
▁servants	-11.0747
▁lethal	-11.0747
▁popularity	-11.0751
▁contractor	-11.0751
euro	-11.0753
▁knowledge	-11.0753
▁wildfires	-11.0754
▁sitting	-11.0754
▁overwhelmingly	-11.0757
tic	-11.0757
▁slumped	-11.0758
▁quietly	-11.0764
▁donor	-11.0766
▁arson	-11.0768
▁focusing	-11.0769
▁blues	-11.0772
▁structure	-11.0774
▁smart	-11.0775
▁sudden	-11.0775
▁metropolitan	-11.078
▁advisor	-11.0783
▁planet	-11.0783
▁boosts	-11.0784
▁alleging	-11.0792
▁su	-11.0794
▁switch	-11.0797
▁lender	-11.0797
▁romney	-11.0798
▁ka	-11.0799
▁nissan	-11.08
▁batch	-11.0802
▁emerge	-11.0805
▁gunn	-11.0806
▁bribes	-11.0806
▁investigator	-11.0806
▁matt	-11.0809
▁feud	-11.081
▁fu	-11.0814
▁bombed	-11.0818
▁santos	-11.0819
▁champ	-11.0822
▁preserve	-11.0823
▁expulsion	-11.0826
▁capitol	-11.0832
▁horn	-11.0832
▁shareholder	-11.0835
▁rolls	-11.0841
ov	-11.0841
▁opt	-11.0843
▁statue	-11.0845
▁pen	-11.0845
▁deport	-11.0847
▁slips	-11.0848
▁pet	-11.0849
▁easter	-11.085
▁regain	-11.0857
▁poet	-11.0858
▁specific	-11.0858
▁libertadores	-11.0862
▁oakland	-11.0866
▁courtroom	-11.0866
▁seeing	-11.0867
▁patent	-11.0868
▁sting	-11.0873
▁lagos	-11.0873
▁envoys	-11.0876
▁smooth	-11.0876
▁orlando	-11.0877
▁fun	-11.0879
▁ross	-11.088
▁substantial	-11.088
▁abusing	-11.0886
▁inspector	-11.0887
▁replacing	-11.0888
▁type	-11.089
▁deng	-11.0895
▁symbol	-11.0901
▁severely	-11.0903
▁hawaii	-11.0906
▁proceedings	-11.0907
▁liaoning	-11.0907
▁alpine	-11.0908
▁icc	-11.091
▁kobe	-11.0911
▁survival	-11.0914
▁lisbon	-11.0918
▁buffalo	-11.0921
▁levy	-11.0923
ho	-11.0923
▁mate	-11.0925
▁finishing	-11.0928
▁cult	-11.0941
▁contentious	-11.0941
▁steam	-11.0948
▁murray	-11.0952
▁someone	-11.0953
▁exposed	-11.0954
▁belfast	-11.0956
▁preventing	-11.0963
▁troubles	-11.0964
▁crowds	-11.0965
▁notice	-11.0966
▁stamp	-11.0967
▁sensex	-11.0969
▁marginally	-11.0972
▁monument	-11.0972
ler	-11.0974
▁aristide	-11.098
▁bench	-11.0984
▁daimlerchrysler	-11.0986
▁zones	-11.0993
▁terry	-11.0994
▁cotton	-11.1014
▁sang	-11.1017
▁kazakh	-11.1017
▁scholar	-11.1019
▁candidacy	-11.1021
▁procedures	-11.1022
▁quarterfinal	-11.1023
▁generally	-11.1026
▁goldman	-11.103
ek	-11.1031
▁ferguson	-11.1032
▁aziz	-11.1033
▁collect	-11.1035
▁warship	-11.1039
▁bruce	-11.104
jeou	-11.104
▁hewitt	-11.1041
▁stabilize	-11.1042
▁broadcaster	-11.105
▁voices	-11.1055
▁requested	-11.1058
▁robinson	-11.1063
strait	-11.1065
▁intervene	-11.1066
▁publication	-11.1068
▁governors	-11.107
▁routine	-11.107
▁celebrity	-11.1074
▁recount	-11.1075
▁farmer	-11.1077
▁anticipated	-11.1078
▁strife	-11.1078
▁prayers	-11.1078
▁cheap	-11.1078
▁scholars	-11.108
▁obtained	-11.1088
▁hire	-11.1089
▁tightened	-11.1091
▁titles	-11.1098
▁wary	-11.1101
▁du	-11.1106
▁ericsson	-11.1109
ham	-11.1109
▁bears	-11.1111
▁starr	-11.1111
▁studying	-11.1114
fa	-11.1116
▁ruler	-11.1116
▁educational	-11.1117
▁audit	-11.1118
▁angel	-11.112
▁stays	-11.1121
▁extradited	-11.1124
▁franco	-11.1134
▁greg	-11.1135
▁nepalese	-11.1136
▁airspace	-11.114
country	-11.1142
io	-11.1147
▁stuck	-11.1148
▁character	-11.1148
▁khartoum	-11.1151
▁transplant	-11.1154
▁quell	-11.116
▁consequences	-11.1163
nic	-11.1165
▁forthcoming	-11.1167
▁cemetery	-11.1171
▁hi	-11.1171
▁postpones	-11.1174
▁imprisonment	-11.1174
▁repeated	-11.1175
▁dealer	-11.1175
▁territorial	-11.1178
▁eating	-11.1179
▁category	-11.1182
▁belt	-11.1184
▁islanders	-11.1189
▁investigations	-11.1192
▁hague	-11.1194
▁tottenham	-11.1198
▁hainan	-11.1198
▁fort	-11.1213
▁decisions	-11.1217
▁rays	-11.1221
▁tracking	-11.1223
▁transferred	-11.1225
▁satisfied	-11.1229
▁hosting	-11.1231
▁actors	-11.1232
▁teammate	-11.1234
▁solo	-11.1236
▁tainted	-11.1241
▁rounds	-11.1243
pa	-11.1248
▁embassies	-11.1252
▁hyundai	-11.1252
▁roster	-11.1252
▁participants	-11.1255
▁disgrace	-11.1256
▁rejection	-11.1257
▁aging	-11.1257
▁ne	-11.1257
▁talent	-11.126
▁maryland	-11.126
▁charging	-11.1263
▁bi	-11.1264
▁#.####	-11.1265
▁teenagers	-11.1267
▁luxembourg	-11.1272
▁yields	-11.1272
▁clues	-11.1272
▁yield	-11.1272
▁warsaw	-11.1277
▁holder	-11.1278
ize	-11.1289
▁mario	-11.129
▁discussion	-11.1296
▁processing	-11.13
▁shelling	-11.1301
▁brawl	-11.1307
▁spur	-11.1308
▁yacht	-11.1308
▁objections	-11.1309
▁togo	-11.1314
state	-11.1316
▁reflect	-11.1321
▁uncovered	-11.1322
▁counsel	-11.1324
▁guest	-11.1324
▁occurred	-11.1325
▁fruit	-11.1329
▁economist	-11.134
▁seizure	-11.134
me	-11.134
▁amateur	-11.1342
▁sanchez	-11.1342
▁residential	-11.1343
▁britons	-11.1343
▁jumps	-11.1344
▁tomorrow	-11.1346
▁reveal	-11.135
▁mediator	-11.1352
▁insider	-11.1357
▁medalist	-11.1358
▁nick	-11.1359
▁passport	-11.1364
▁timetable	-11.1365
▁staying	-11.1367
▁spell	-11.137
▁duke	-11.137
▁bankrupt	-11.1372
▁summoned	-11.1375
▁stabbing	-11.1382
▁nor	-11.1383
▁dragg	-11.1384
▁hispanic	-11.1389
▁sarah	-11.1391
▁lying	-11.1394
▁destroying	-11.1395
kg	-11.14
▁strengthened	-11.14
▁railroad	-11.1402
▁warlord	-11.1405
▁spectacular	-11.1406
▁dairy	-11.1406
▁suddenly	-11.1406
▁handover	-11.1406
▁quebec	-11.1414
▁bradley	-11.1414
▁java	-11.1415
▁quite	-11.1416
▁hedge	-11.1417
▁wrappe	-11.1418
ney	-11.142
▁regarding	-11.1424
▁commemorate	-11.1424
▁snapp	-11.1424
▁wear	-11.1426
▁arguing	-11.1429
▁pataki	-11.143
▁glass	-11.143
▁ian	-11.143
▁fortune	-11.1432
▁lows	-11.1433
▁reward	-11.1436
▁discount	-11.144
▁miguel	-11.1441
▁values	-11.1442
▁clock	-11.1442
▁wildfire	-11.1443
▁pearl	-11.1445
▁mariners	-11.1446
▁estimate	-11.1449
funded	-11.1454
▁diving	-11.1457
▁strongest	-11.1464
▁cote	-11.1465
▁disrupted	-11.1466
▁walt	-11.1466
elena	-11.147
▁guatemalan	-11.1472
▁partly	-11.1475
▁liberty	-11.1477
▁routes	-11.1477
▁genetic	-11.1479
▁neo	-11.1479
▁ge	-11.1481
▁orbit	-11.1483
▁discussing	-11.1488
▁ra	-11.1491
▁namibia	-11.1492
▁gymnastics	-11.1496
▁sustainable	-11.1501
▁incentives	-11.1502
▁sadc	-11.1502
▁stones	-11.1504
▁flags	-11.1505
▁maximum	-11.1505
▁exporters	-11.151
▁regret	-11.151
▁lure	-11.151
▁fat	-11.1514
▁yukos	-11.1517
▁saving	-11.1519
ory	-11.1522
▁disrupt	-11.1525
▁dip	-11.1526
▁younger	-11.1527
▁suing	-11.1529
▁provisional	-11.153
▁pandemic	-11.1533
▁restored	-11.1536
▁clinched	-11.1539
▁rider	-11.1544
ger	-11.1546
▁ipo	-11.1546
▁cal	-11.1547
▁fujimori	-11.1549
▁fence	-11.1551
▁martinez	-11.1554
▁weapon	-11.1556
eu	-11.1559
▁appointment	-11.1562
▁skies	-11.1566
selling	-11.1566
▁militiamen	-11.1566
▁mild	-11.1567
ey	-11.1568
▁neck	-11.1573
▁vi	-11.1576
▁memorandum	-11.1582
▁protestors	-11.1582
▁financier	-11.1583
▁stern	-11.1584
▁frenchman	-11.1586
▁cnn	-11.1586
▁austerity	-11.1586
▁teaching	-11.1587
▁requiring	-11.159
▁smuggled	-11.159
▁centre	-11.1596
▁hamburg	-11.1597
▁nevada	-11.1606
▁stanford	-11.1606
▁sand	-11.1611
▁refuge	-11.1617
▁loyal	-11.1618
▁effectively	-11.1619
▁eases	-11.1621
▁mel	-11.1621
▁parks	-11.1622
▁humanity	-11.1623
▁roberto	-11.1624
▁regard	-11.1628
▁color	-11.1628
▁eventually	-11.1632
▁renowned	-11.1634
▁arbitration	-11.1634
▁rioting	-11.1636
▁mediation	-11.164
▁ideas	-11.165
han	-11.1652
▁wish	-11.1652
▁freight	-11.1656
▁districts	-11.1657
▁campbell	-11.1663
▁oau	-11.1664
▁eagles	-11.1666
▁removal	-11.1667
▁mitsubishi	-11.1668
▁mistake	-11.1671
▁cannes	-11.1671
▁lingering	-11.1673
bi	-11.1676
▁shipments	-11.1678
▁fallout	-11.1678
▁prophet	-11.1679
▁eliminated	-11.1686
▁sealed	-11.1686
▁boxer	-11.1687
▁debris	-11.1687
▁ouster	-11.1688
▁detected	-11.1694
▁atrocities	-11.1695
▁migrant	-11.1697
ty	-11.1699
▁ammunition	-11.1699
▁bow	-11.1706
▁drink	-11.1711
▁reunification	-11.1712
▁arthur	-11.1712
▁registration	-11.1719
▁heightened	-11.172
▁warring	-11.172
▁bold	-11.1722
▁consultative	-11.1724
▁farms	-11.1725
▁atletico	-11.1728
▁reconsider	-11.173
▁supermarket	-11.1731
▁establishing	-11.1732
▁attackers	-11.1735
▁observer	-11.1735
▁intention	-11.1738
▁gate	-11.175
▁centuries	-11.1751
▁discusses	-11.1751
mile	-11.1753
▁pose	-11.1754
▁mongolian	-11.1774
▁macau	-11.1778
▁explodes	-11.1778
ted	-11.1781
▁waited	-11.1783
▁pardon	-11.1787
▁bullets	-11.1793
se	-11.1808
ish	-11.1813
▁steven	-11.1813
▁register	-11.1819
▁doha	-11.1821
▁intellectual	-11.1827
▁straw	-11.1831
range	-11.1832
▁coaching	-11.1835
▁madeleine	-11.1835
▁michel	-11.1838
▁ramadan	-11.1839
▁deciding	-11.184
▁winger	-11.1848
▁ambitions	-11.1848
down	-11.1849
▁represent	-11.1852
▁obasanjo	-11.186
▁models	-11.1873
▁dismissal	-11.1874
▁prevented	-11.1875
▁tommy	-11.1876
▁bayer	-11.1878
▁basra	-11.1885
▁kenneth	-11.1889
▁rebellion	-11.1893
▁behalf	-11.1896
▁profile	-11.1902
▁anwar	-11.1904
▁persian	-11.1906
▁circle	-11.1908
▁indigenous	-11.191
▁weightlifting	-11.1914
▁bright	-11.1924
▁screening	-11.1928
▁merrill	-11.1931
▁safeguard	-11.1934
▁potter	-11.1935
▁bone	-11.1936
▁millionaire	-11.1937
▁speaking	-11.1937
▁poorest	-11.1946
▁graham	-11.1947
▁burden	-11.1951
▁mud	-11.1952
▁spate	-11.1955
▁tone	-11.1956
russian	-11.1961
▁brad	-11.1961
▁reacted	-11.1962
▁borrowing	-11.1963
▁participating	-11.1964
▁turnover	-11.1972
▁recommend	-11.1974
place	-11.1974
▁brands	-11.1983
▁receiver	-11.1986
▁missions	-11.1987
▁croat	-11.1992
▁everton	-11.1992
▁raw	-11.1994
▁posting	-11.1994
▁fog	-11.1995
▁cat	-11.1996
▁intensify	-11.1996
▁hints	-11.1997
▁lone	-11.1998
▁bolton	-11.1999
match	-11.2003
▁cites	-11.2006
▁obtain	-11.2007
▁solomon	-11.201
▁institutional	-11.2011
▁mahmud	-11.2015
▁counting	-11.2018
▁mechanism	-11.2019
▁accepting	-11.202
▁councilor	-11.2026
▁principal	-11.2031
▁ranch	-11.2034
ong	-11.2035
▁deeper	-11.2035
▁walking	-11.2039
▁unilateral	-11.204
▁incoming	-11.2041
▁shootings	-11.2044
▁thank	-11.2046
sponsored	-11.2047
care	-11.2048
▁criticised	-11.2048
▁buoyed	-11.206
▁jungle	-11.2063
km	-11.2066
▁developer	-11.2067
▁walker	-11.2069
▁commentary	-11.207
ru	-11.2075
▁victoria	-11.2077
▁accuse	-11.2077
▁sweet	-11.2077
league	-11.2088
▁salaries	-11.2089
▁mauritania	-11.209
▁raging	-11.2092
▁superstar	-11.2094
▁shi	-11.2096
▁topple	-11.2099
▁highs	-11.2099
▁contribution	-11.2102
▁flown	-11.2102
▁twelve	-11.2103
▁colony	-11.2105
▁volvo	-11.2108
▁muscle	-11.2111
▁jay	-11.2114
▁criticizing	-11.2116
▁newest	-11.2117
▁indefinitely	-11.2118
▁strained	-11.212
▁hurricanes	-11.2122
▁page	-11.2123
▁fee	-11.2124
▁cited	-11.2125
▁alitalia	-11.2126
▁pe	-11.2129
▁ceremonies	-11.2129
▁youngest	-11.2129
ter	-11.2131
▁abdel	-11.2131
▁toss	-11.2135
▁bethlehem	-11.2137
▁awaits	-11.214
▁landslides	-11.214
▁highlights	-11.2142
ivoire	-11.2142
▁penguins	-11.2146
▁persistent	-11.2146
▁surges	-11.215
▁taste	-11.215
▁else	-11.2151
▁achieved	-11.2153
▁cape	-11.2156
▁blind	-11.2157
▁harare	-11.2159
▁endorsement	-11.2159
▁nursing	-11.2159
▁cooperative	-11.2159
▁favored	-11.2161
▁ultra	-11.2165
doping	-11.2166
▁pc	-11.2167
▁physical	-11.2167
▁contingent	-11.2172
▁dying	-11.2175
▁weigh	-11.2175
▁promoted	-11.2176
▁grozny	-11.2176
▁rehabilitation	-11.218
▁retained	-11.2181
▁iii	-11.2181
▁dramatically	-11.2185
▁bonuses	-11.2185
▁stole	-11.2188
▁karl	-11.2188
▁adoption	-11.2194
▁except	-11.2197
tax	-11.2202
▁diet	-11.221
▁anaheim	-11.2215
▁predecessor	-11.2216
▁airstrike	-11.2216
▁ward	-11.2218
▁bowler	-11.2219
▁regrets	-11.2222
▁error	-11.2224
▁thinking	-11.2229
▁disasters	-11.2229
av	-11.223
▁vincent	-11.2236
▁usd	-11.2237
▁ke	-11.2237
▁trainer	-11.2238
▁ahmad	-11.2241
▁completes	-11.2243
▁afghans	-11.2245
▁silent	-11.2249
os	-11.225
mouth	-11.2251
▁wartime	-11.2253
▁maintenance	-11.2253
▁exchanged	-11.2256
▁impressive	-11.2258
▁mastermind	-11.2259
▁adam	-11.2262
abo	-11.2264
▁biden	-11.2265
▁licenses	-11.2266
ut	-11.2273
▁bags	-11.2274
▁milwaukee	-11.2275
▁pilgrimage	-11.2275
▁brokerage	-11.2278
▁qualified	-11.2279
▁hamilton	-11.2288
▁zanzibar	-11.2292
▁pieces	-11.2293
▁accelerate	-11.2299
▁relatively	-11.23
▁adams	-11.23
▁spacecraft	-11.2301
▁ubs	-11.2301
▁stream	-11.2304
▁morris	-11.2308
▁spare	-11.2309
▁impos	-11.2316
▁soars	-11.2322
▁ajax	-11.2327
▁radioactive	-11.2327
▁requirements	-11.233
▁ryder	-11.2331
▁storage	-11.2333
▁mali	-11.2335
▁expecting	-11.2336
cc	-11.2337
▁ramallah	-11.234
▁renault	-11.2343
▁nominations	-11.2343
▁macapagal	-11.2344
▁lobbying	-11.2345
▁brush	-11.2347
▁indices	-11.2349
▁stripped	-11.2349
▁cigarettes	-11.2349
▁inspired	-11.2355
▁lehman	-11.2357
▁dirty	-11.2368
▁lobby	-11.2374
▁dumped	-11.2375
▁sponsor	-11.2375
▁confederation	-11.2379
▁thirty	-11.2384
▁roh	-11.2384
jo	-11.2385
▁morales	-11.2387
▁rout	-11.239
▁collected	-11.2392
▁posed	-11.2398
▁portion	-11.24
▁clay	-11.24
▁excessive	-11.2401
ff	-11.2402
▁raul	-11.2402
▁roof	-11.2402
▁layoffs	-11.2405
▁cameras	-11.2408
▁abused	-11.2408
▁chose	-11.2409
▁museveni	-11.241
▁douglas	-11.2419
▁dell	-11.2426
▁probation	-11.2427
▁pump	-11.2431
▁walter	-11.2443
▁literature	-11.2445
▁unfair	-11.2445
▁spots	-11.245
▁blaming	-11.2454
▁filmmaker	-11.2457
▁reiterates	-11.246
▁tale	-11.2462
▁pinochet	-11.2471
▁bundesbank	-11.2471
▁awareness	-11.2472
▁finances	-11.2474
▁smuggle	-11.2475
▁norman	-11.2475
language	-11.2475
▁ignored	-11.2477
▁intensive	-11.2482
cutting	-11.2484
▁gazprom	-11.2485
▁pack	-11.2485
▁mini	-11.2488
▁evasion	-11.2491
runner	-11.2497
▁verge	-11.2498
▁yitzhak	-11.2507
▁anderson	-11.2507
▁smugglers	-11.2508
▁deposits	-11.251
▁botswana	-11.2511
▁sharif	-11.2512
▁permit	-11.2514
▁carmaker	-11.2517
▁hutu	-11.2518
▁hurdles	-11.252
▁hanoi	-11.252
▁probing	-11.252
▁administrator	-11.2524
▁oversight	-11.2524
▁shattered	-11.2525
▁rubble	-11.2533
▁sharks	-11.2536
▁comply	-11.2542
▁milestone	-11.2543
▁moore	-11.2544
▁protected	-11.2544
▁concerning	-11.2545
▁corrupt	-11.2551
▁repeatedly	-11.2552
▁assad	-11.2555
▁bet	-11.2555
▁wolf	-11.2556
▁kei	-11.2558
▁wire	-11.2562
▁fred	-11.2562
▁dublin	-11.257
em	-11.257
▁undergoing	-11.2577
▁galaxy	-11.2578
▁extensive	-11.2578
▁condemnation	-11.2578
▁moody	-11.2582
▁davenport	-11.2587
▁ducks	-11.2588
▁consultations	-11.2592
mer	-11.2593
▁upsets	-11.2594
▁dengue	-11.2596
▁lazio	-11.2596
▁withdrawing	-11.2599
▁treason	-11.26
▁christie	-11.2605
▁handing	-11.2605
ster	-11.2609
▁anglo	-11.2614
▁tunisian	-11.2614
▁peacefully	-11.2617
▁statistical	-11.262
▁minorities	-11.2623
▁dipped	-11.2623
▁drunken	-11.2623
ica	-11.2627
▁container	-11.2627
▁probes	-11.2635
▁sheriff	-11.2636
▁powerhouse	-11.2637
▁slower	-11.2638
▁shocked	-11.2642
▁install	-11.2643
▁discipline	-11.265
▁responding	-11.2652
▁collaps	-11.2658
wide	-11.2659
▁jetliner	-11.2661
▁bipartisan	-11.2663
▁supervision	-11.2667
po	-11.2669
▁mu	-11.2671
▁gangs	-11.2677
▁arkansas	-11.2681
▁buenos	-11.2681
▁outskirts	-11.2681
▁safely	-11.2682
▁performed	-11.2685
mar	-11.2697
▁reveals	-11.2697
▁developments	-11.2711
▁detailed	-11.2714
▁madoff	-11.2714
▁historical	-11.2714
▁aires	-11.2716
▁adult	-11.2717
▁wei	-11.2722
▁adopts	-11.2723
▁valuable	-11.2726
▁tip	-11.2726
▁corps	-11.2728
▁telekom	-11.2731
▁khatami	-11.2735
▁mitchell	-11.2735
▁surprised	-11.2739
▁plunges	-11.2739
▁soul	-11.2749
▁buyout	-11.275
▁vulnerable	-11.2753
▁misconduct	-11.2758
▁midwest	-11.2765
▁pursued	-11.2772
▁jitters	-11.2776
most	-11.2778
▁vessels	-11.2781
ent	-11.2783
▁weakening	-11.2784
ant	-11.2785
▁mosul	-11.2785
▁invites	-11.2785
▁skip	-11.2802
▁confessed	-11.2804
▁rivers	-11.2807
▁retains	-11.2812
▁henin	-11.2817
▁volunteer	-11.2819
zi	-11.2825
▁commuter	-11.2828
▁advocate	-11.2833
▁colonial	-11.2838
▁latvian	-11.2846
der	-11.2848
maliki	-11.285
fixing	-11.2851
▁describ	-11.2852
▁ossetia	-11.2853
▁moral	-11.2855
▁hun	-11.2856
▁nv	-11.2857
▁foiled	-11.2858
▁monks	-11.2858
▁astronaut	-11.2862
▁monica	-11.2863
▁broader	-11.2864
▁informed	-11.2865
▁flyers	-11.2865
▁manslaughter	-11.2867
▁magistrate	-11.287
▁scandals	-11.2874
▁hammer	-11.288
▁dominant	-11.288
▁jumping	-11.2885
▁electrical	-11.2888
▁riyadh	-11.289
▁mi	-11.289
ably	-11.2891
▁apply	-11.2892
▁hingis	-11.2895
▁capp	-11.2895
▁map	-11.2898
▁costly	-11.2899
hi	-11.2901
▁estonian	-11.2903
▁aussie	-11.2903
▁bury	-11.2904
▁advancing	-11.2909
▁blake	-11.2909
▁expands	-11.2911
▁mix	-11.2912
▁rob	-11.2913
▁teammates	-11.292
rule	-11.2925
▁desire	-11.2925
hui	-11.2925
▁transactions	-11.2926
▁analysis	-11.2927
▁biological	-11.2927
ak	-11.293
▁donation	-11.293
▁submit	-11.2931
▁founded	-11.2932
▁holes	-11.2936
▁infant	-11.294
▁revival	-11.2941
western	-11.2943
▁maine	-11.2943
ghali	-11.2946
▁turin	-11.2951
▁steer	-11.2953
▁kandahar	-11.2955
▁convince	-11.2955
▁mourn	-11.2958
▁ladies	-11.2959
▁beheaded	-11.2961
▁difficulties	-11.2965
▁prop	-11.2968
▁usc	-11.297
▁topped	-11.297
lmut	-11.2972
▁vicente	-11.2973
▁experienced	-11.2974
▁substance	-11.2974
id	-11.2976
▁recruiting	-11.2985
▁taiex	-11.2987
▁gesture	-11.2988
season	-11.2992
▁memories	-11.2992
▁slid	-11.2995
▁ottawa	-11.2997
▁stemm	-11.3001
▁proceed	-11.3003
▁cole	-11.3004
chip	-11.3005
▁entrance	-11.301
▁interference	-11.3012
raising	-11.3012
▁tang	-11.3015
▁trader	-11.3015
▁researcher	-11.3018
test	-11.3019
▁opposing	-11.3029
▁wfp	-11.3029
▁denying	-11.303
▁sons	-11.3032
▁clijsters	-11.3034
▁renews	-11.3038
▁dar	-11.3038
▁campaigns	-11.3039
▁islamists	-11.304
▁farming	-11.304
▁seeds	-11.3043
▁alongside	-11.3044
▁mood	-11.3047
▁contaminated	-11.3047
▁craig	-11.3048
▁yi	-11.3049
sisting	-11.3056
▁athlete	-11.3057
▁mom	-11.3059
breaking	-11.306
▁birmingham	-11.3062
▁arch	-11.3064
▁skills	-11.3064
▁unacceptable	-11.3067
▁surrendered	-11.3067
▁exactly	-11.3068
▁oslo	-11.3071
▁harder	-11.3071
▁hsbc	-11.3076
▁igor	-11.3076
▁unita	-11.3078
▁pkk	-11.3085
▁rage	-11.3086
▁divide	-11.3093
▁debates	-11.3096
▁forget	-11.3096
▁guarantees	-11.3097
▁frustration	-11.3099
▁reagan	-11.3099
▁endorse	-11.31
▁sahara	-11.3102
▁heights	-11.3103
▁fights	-11.3111
▁prior	-11.3118
▁samuel	-11.3118
night	-11.3124
▁architect	-11.3127
▁flare	-11.3128
▁lopez	-11.3129
confidence	-11.3129
▁engines	-11.3134
▁expenses	-11.3135
▁columns	-11.3137
ud	-11.3137
▁slashed	-11.3143
▁accession	-11.3148
▁whale	-11.315
▁adults	-11.3151
▁hide	-11.3152
▁slim	-11.3163
▁pave	-11.3164
▁orchestra	-11.3165
▁ted	-11.3166
▁shoes	-11.3168
▁kabila	-11.317
▁shakes	-11.3176
▁qantas	-11.3179
ki	-11.3184
▁nicaraguan	-11.319
▁hurdle	-11.319
▁ambushed	-11.3193
▁diesel	-11.3194
▁contractors	-11.3195
▁motorola	-11.3204
▁knight	-11.3204
▁slows	-11.3204
▁gorges	-11.3206
▁hurl	-11.3214
▁justin	-11.3222
▁gunbattle	-11.3223
▁killers	-11.3225
▁enforce	-11.3227
▁roots	-11.3228
▁controlling	-11.3229
un	-11.3231
▁completing	-11.3232
▁issuing	-11.3232
▁genetically	-11.3241
▁directed	-11.3245
▁cycle	-11.3246
▁stunned	-11.3246
▁kidney	-11.3246
▁songs	-11.3248
▁laura	-11.3251
▁consolidate	-11.3251
▁dealt	-11.3261
▁lowered	-11.3262
▁advised	-11.3263
▁parking	-11.3265
▁thompson	-11.3265
▁wells	-11.3266
▁nurses	-11.3268
▁feels	-11.3269
▁...	-11.327
▁twist	-11.3271
▁facebook	-11.3271
▁carlo	-11.3277
▁equities	-11.3279
▁defying	-11.328
▁restrict	-11.3283
▁amr	-11.3283
▁torn	-11.3286
▁mercedes	-11.3286
▁camera	-11.3289
▁televised	-11.3289
▁tightening	-11.329
▁origin	-11.3291
▁sleep	-11.3292
sized	-11.3293
▁classified	-11.3299
▁yards	-11.3302
▁ku	-11.3304
▁hanging	-11.3308
▁sumatra	-11.3308
▁bed	-11.3309
ex	-11.3309
▁reds	-11.331
▁plenty	-11.3313
▁resident	-11.3315
▁defiance	-11.3318
left	-11.332
▁kelly	-11.3323
▁loaded	-11.3325
▁encounter	-11.3331
▁#-##	-11.3333
pound	-11.3335
▁halts	-11.3335
▁jesus	-11.3337
▁powder	-11.3337
▁revolt	-11.3342
▁guangxi	-11.3352
▁shoppers	-11.3356
▁frustrated	-11.3357
▁moments	-11.3358
▁maintaining	-11.3358
▁knife	-11.3361
▁stalemate	-11.3366
▁bse	-11.3366
▁facilitate	-11.3366
▁foul	-11.3369
▁scrap	-11.337
ika	-11.3371
▁projected	-11.3372
▁romano	-11.3374
▁properties	-11.3375
▁comic	-11.3376
▁enable	-11.3378
▁assailants	-11.3387
▁pot	-11.3387
▁dump	-11.3388
▁nile	-11.3393
▁example	-11.3395
▁rockies	-11.3398
▁tin	-11.34
▁speeding	-11.3402
▁resulted	-11.3403
▁####.##	-11.3403
va	-11.3404
othy	-11.3406
▁hosted	-11.3417
▁spike	-11.3418
▁nw	-11.342
▁performances	-11.342
▁pitching	-11.3424
▁phillies	-11.3429
▁contender	-11.3432
▁staging	-11.3434
▁gifts	-11.3435
set	-11.344
▁content	-11.3445
▁graf	-11.3447
▁skeptical	-11.3448
wa	-11.3451
▁indexes	-11.3454
▁wonder	-11.3454
▁individuals	-11.3455
gu	-11.3457
▁barriers	-11.3458
▁rifle	-11.3465
▁jon	-11.3466
▁condemning	-11.3467
▁hewlett	-11.3477
▁civic	-11.3477
pe	-11.3478
▁recognized	-11.348
▁victor	-11.3481
▁speaks	-11.3483
▁prostitution	-11.3487
▁mourners	-11.3488
rate	-11.3489
▁symbolic	-11.349
▁composer	-11.3492
▁efficiency	-11.3496
▁plunging	-11.3497
▁irregularities	-11.3502
▁thriller	-11.3504
▁associates	-11.3504
▁paintings	-11.351
cost	-11.3514
▁nancy	-11.3516
▁pickup	-11.3518
▁martial	-11.3521
▁convicts	-11.3521
▁astros	-11.3528
▁sailor	-11.3535
▁presents	-11.3536
▁premiere	-11.3541
▁stopping	-11.3543
▁assassinated	-11.3543
▁ordinary	-11.3546
▁regulate	-11.3547
▁dedicated	-11.3553
▁annually	-11.3555
▁sacramento	-11.3556
▁unified	-11.3558
▁catholics	-11.356
▁noon	-11.3565
▁conducting	-11.3568
▁hans	-11.3569
▁avenue	-11.357
▁maradona	-11.357
▁koreans	-11.3574
▁answers	-11.358
ee	-11.3584
▁shrugg	-11.3585
▁gong	-11.3589
▁straits	-11.359
▁enterprise	-11.359
▁keen	-11.3591
ard	-11.3596
▁dust	-11.3597
▁crush	-11.3601
▁warriors	-11.3604
▁austin	-11.3605
▁municipality	-11.3606
▁tortured	-11.3607
bissau	-11.3609
▁household	-11.361
▁repatriation	-11.361
▁escort	-11.3615
▁trained	-11.3616
▁marred	-11.3621
▁devil	-11.3621
▁hectares	-11.3625
▁acres	-11.3625
▁informal	-11.3626
▁authorized	-11.3627
▁sadr	-11.3627
▁creditors	-11.3627
like	-11.3628
▁telecoms	-11.3629
▁foods	-11.3629
▁hybrid	-11.363
▁pedro	-11.363
▁prosperity	-11.363
ping	-11.3633
▁oecd	-11.3635
▁betting	-11.3635
▁cautiously	-11.3638
▁transitional	-11.3641
▁heating	-11.3644
▁coordinator	-11.3645
ini	-11.3648
▁forests	-11.3651
▁nurse	-11.3653
▁grown	-11.3657
▁cinema	-11.3661
▁uniform	-11.3662
▁retires	-11.3666
▁sailing	-11.3666
▁turner	-11.3666
▁overthrow	-11.3669
▁ja	-11.367
▁novelist	-11.367
atlantic	-11.3673
▁stages	-11.3674
▁viewers	-11.3677
▁narcotics	-11.3679
▁haven	-11.3683
▁sentencing	-11.3689
▁painful	-11.369
▁underwent	-11.3694
▁component	-11.3697
▁incursion	-11.3697
▁mediators	-11.3697
▁reassure	-11.3698
▁ga	-11.3703
▁happy	-11.3703
▁concludes	-11.3708
▁polio	-11.3709
▁studios	-11.3709
▁sessions	-11.3713
▁murdoch	-11.3714
▁defenseman	-11.3715
▁guyana	-11.3719
ruled	-11.372
▁actually	-11.3721
house	-11.3721
ford	-11.3722
▁dating	-11.3725
▁nice	-11.373
▁reigning	-11.3735
ridden	-11.374
▁alvar	-11.3741
▁franc	-11.3743
▁rampant	-11.3744
▁ronald	-11.3746
▁todd	-11.3751
▁requests	-11.3751
▁competitors	-11.3751
▁procedure	-11.3753
▁crushed	-11.3756
▁dumping	-11.3757
▁jails	-11.376
ive	-11.376
▁classes	-11.3764
▁fearing	-11.3766
▁porto	-11.3769
▁observe	-11.3769
▁shaanxi	-11.3769
▁criticize	-11.377
che	-11.3771
▁iaaf	-11.3774
▁glory	-11.3779
▁restoring	-11.378
▁recording	-11.3781
▁grab	-11.3787
▁suns	-11.3787
▁relative	-11.3789
▁braces	-11.379
▁metals	-11.3793
▁signaled	-11.3793
▁unesco	-11.3794
▁coordinate	-11.3801
▁shoots	-11.3804
▁sciences	-11.3813
▁widening	-11.3819
▁proof	-11.3825
shi	-11.3825
▁congratulated	-11.3829
▁seizing	-11.383
▁pretax	-11.3836
▁marlins	-11.3837
▁overwhelming	-11.384
▁plate	-11.3841
▁tears	-11.3843
▁trick	-11.3845
▁ignoring	-11.3855
▁livestock	-11.3855
les	-11.3857
▁restoration	-11.386
▁workshop	-11.386
▁jamaican	-11.3865
world	-11.3866
▁atlantis	-11.387
▁migration	-11.387
▁caretaker	-11.3871
▁detonated	-11.388
▁burial	-11.3881
▁joy	-11.3886
▁lies	-11.3888
▁cameron	-11.3892
▁rulers	-11.3903
▁climbs	-11.3906
▁shells	-11.3906
▁exclusive	-11.3907
▁mouth	-11.3917
▁controllers	-11.392
▁skin	-11.3921
▁suburbs	-11.3925
▁weighs	-11.3926
▁srebrenica	-11.3926
▁brace	-11.3926
ell	-11.3927
▁partially	-11.3934
▁clothes	-11.3935
▁lieutenant	-11.3936
▁fischer	-11.3936
▁eat	-11.3938
▁merck	-11.3938
▁wisconsin	-11.3942
▁survives	-11.3943
▁pierre	-11.3946
▁delaying	-11.3947
▁pneumonia	-11.3947
▁organize	-11.3947
▁ratify	-11.3949
▁cd	-11.3949
▁insurers	-11.395
▁rok	-11.3952
▁woo	-11.3953
▁honorary	-11.3958
▁bashar	-11.3959
▁heated	-11.3964
▁ultimatum	-11.3967
▁installed	-11.3969
▁patriarch	-11.3972
▁unique	-11.3975
▁yushchenko	-11.3977
▁zagreb	-11.3982
▁megawati	-11.3982
▁stun	-11.3983
town	-11.3986
▁tire	-11.3992
▁engulf	-11.3993
▁reversing	-11.3993
▁abruptly	-11.3994
▁militias	-11.3997
▁thick	-11.3998
min	-11.4
▁radovan	-11.4003
▁graves	-11.4009
▁picking	-11.4011
▁raiders	-11.4013
▁thieves	-11.4013
▁argued	-11.4013
▁favorites	-11.4016
▁recruit	-11.4016
▁nationalists	-11.4026
over	-11.4027
▁atmosphere	-11.4029
▁marcos	-11.4029
▁invite	-11.403
▁exposure	-11.4039
ze	-11.404
▁hijacking	-11.4041
▁modestly	-11.4045
▁spat	-11.405
▁hilton	-11.4055
▁indy	-11.4056
▁client	-11.4056
▁remarkable	-11.4061
▁nervous	-11.4065
▁slumping	-11.4068
▁surrounded	-11.407
▁tighter	-11.4079
court	-11.4081
▁risky	-11.4082
▁besieged	-11.4083
▁cypriots	-11.4089
▁denounce	-11.409
▁tap	-11.4095
▁transmission	-11.4096
▁parole	-11.4097
▁dolphins	-11.4099
▁gabon	-11.4106
▁cellular	-11.4106
▁listing	-11.4107
▁graduate	-11.4108
▁qian	-11.4109
▁id	-11.4109
▁pastor	-11.4113
▁greeted	-11.4114
egun	-11.4116
▁delivering	-11.4116
▁bud	-11.4118
▁passports	-11.4119
▁bias	-11.4121
▁credibility	-11.4122
▁pierce	-11.4122
▁speedway	-11.4123
▁alfred	-11.4127
▁havana	-11.4127
▁performing	-11.4127
▁balanced	-11.413
▁yo	-11.413
▁shaky	-11.4132
▁wreck	-11.4136
▁signaling	-11.414
▁horror	-11.414
▁arabian	-11.414
ci	-11.4143
ville	-11.4149
▁opium	-11.4153
▁dig	-11.4154
▁purchases	-11.4155
▁grabbed	-11.4158
▁eddie	-11.4164
ahead	-11.4168
▁counties	-11.417
▁lend	-11.4175
▁slaughter	-11.4178
▁commitments	-11.4178
▁testifies	-11.4179
▁crippling	-11.4179
▁bronx	-11.4179
▁ivanov	-11.418
▁arrivals	-11.4184
▁simply	-11.4185
▁firmly	-11.4187
▁craft	-11.4188
▁matters	-11.419
▁sorenstam	-11.419
▁vajpayee	-11.4195
▁frederick	-11.4195
▁arresting	-11.4198
▁kiev	-11.4201
hushen	-11.4203
▁remembered	-11.4204
▁troy	-11.4205
lu	-11.4206
share	-11.4213
▁vault	-11.4216
▁paving	-11.4216
bar	-11.4217
▁ji	-11.422
▁sort	-11.422
▁janeiro	-11.4221
▁roberts	-11.4225
▁rocky	-11.4225
▁resist	-11.4228
▁mentally	-11.4229
▁secur	-11.4234
▁sean	-11.4235
▁barrage	-11.4237
▁literary	-11.4242
▁archaeologists	-11.4244
▁tung	-11.4248
▁biathlon	-11.4253
▁pursuing	-11.4253
▁resuming	-11.4253
▁indianapolis	-11.4253
▁erdogan	-11.4258
▁kathmandu	-11.4258
▁shoe	-11.4259
sually	-11.4261
den	-11.4261
▁mediate	-11.4262
▁lashes	-11.4264
▁throws	-11.4264
▁derailed	-11.4265
▁mistakes	-11.4268
ana	-11.4268
▁essential	-11.4272
▁lights	-11.4273
▁enemies	-11.4274
▁olus	-11.4274
▁defendant	-11.4274
▁avian	-11.4275
▁abkhazia	-11.4275
▁mistaken	-11.4276
▁oks	-11.4276
▁monte	-11.4278
▁symposium	-11.4279
▁bearing	-11.428
▁han	-11.428
▁openly	-11.4284
oweri	-11.4285
▁sumo	-11.4293
ending	-11.4296
▁grenades	-11.4297
▁accords	-11.43
▁dictatorship	-11.4301
▁virtual	-11.4301
governmental	-11.4306
▁oracle	-11.4306
▁township	-11.4307
▁petrol	-11.4311
▁nablus	-11.4311
▁tomb	-11.4312
▁stampede	-11.4316
▁dive	-11.4324
▁tender	-11.4328
▁deposit	-11.4328
▁queens	-11.4329
▁toys	-11.4332
▁boxes	-11.4332
▁lockerbie	-11.4332
▁zurich	-11.4332
▁aiding	-11.4333
▁convene	-11.4341
▁fda	-11.4345
▁settles	-11.4346
▁label	-11.4349
▁unearthed	-11.4353
▁extremism	-11.4353
▁rongji	-11.4353
▁achievements	-11.4356
▁valued	-11.4356
▁henan	-11.4358
▁compensate	-11.4362
▁prisons	-11.4364
▁wizards	-11.4371
british	-11.4372
ran	-11.4374
▁tuberculosis	-11.4375
ched	-11.4383
▁steal	-11.4387
▁disperse	-11.4398
▁jorge	-11.4401
▁located	-11.4406
▁jewelry	-11.4407
que	-11.4419
▁automotive	-11.4423
maker	-11.4425
▁robbers	-11.4425
▁turks	-11.4428
▁admit	-11.4432
▁subprime	-11.4434
we	-11.4437
▁moi	-11.4437
lan	-11.4439
▁tu	-11.4443
▁completely	-11.4444
face	-11.4446
ette	-11.4449
▁cla	-11.4449
▁fiery	-11.445
▁surviving	-11.445
▁coordination	-11.445
▁understand	-11.4452
▁buildup	-11.4456
▁leaked	-11.446
▁lakes	-11.4461
▁enlargement	-11.4466
▁wrestling	-11.4466
▁grammy	-11.4467
▁injection	-11.4471
▁nominees	-11.4472
▁yard	-11.4479
▁punished	-11.4481
▁technological	-11.4482
▁batsman	-11.4483
sea	-11.4485
▁cancellation	-11.4487
▁rafah	-11.4488
▁shuts	-11.4488
▁conspir	-11.4488
if	-11.449
▁favors	-11.449
▁deteriorating	-11.4493
▁lincoln	-11.4493
op	-11.4493
▁grounded	-11.4497
▁casting	-11.4497
▁marshall	-11.4499
▁pitt	-11.4501
▁escalation	-11.4505
▁heroes	-11.4508
▁greet	-11.4509
▁drag	-11.451
▁meltdown	-11.4514
▁interrogation	-11.4515
▁cavaliers	-11.4516
▁gamble	-11.4519
▁ashcroft	-11.452
▁variety	-11.452
▁sachs	-11.452
▁swimmer	-11.452
▁maybe	-11.452
▁flies	-11.4525
▁lessons	-11.4528
▁hefty	-11.4536
▁mighty	-11.4539
▁fundamentalist	-11.4543
▁reviewing	-11.4545
▁evil	-11.4547
nazi	-11.455
▁enjoyed	-11.4551
▁reformist	-11.4552
▁specialist	-11.4553
▁gul	-11.4556
▁algiers	-11.4558
▁releasing	-11.4558
▁colonel	-11.4558
▁privately	-11.4559
▁servicemen	-11.4561
▁dhabi	-11.4563
▁porn	-11.4564
▁laying	-11.4566
▁principles	-11.457
▁martha	-11.4574
▁rid	-11.4577
▁hksar	-11.458
▁sail	-11.458
growing	-11.4583
▁pesos	-11.4586
▁pitched	-11.4587
▁surgeon	-11.4589
▁colleges	-11.4589
dy	-11.4592
▁outspoken	-11.4592
▁autumn	-11.4594
▁lindsay	-11.4596
▁crises	-11.4596
▁turnaround	-11.4596
▁owen	-11.4599
▁bacteria	-11.4601
▁planted	-11.4602
▁lengthy	-11.4604
▁witnessed	-11.4604
▁argument	-11.4609
▁synagogue	-11.4609
▁cracks	-11.461
▁johnny	-11.4614
▁automatic	-11.4615
ab	-11.4618
▁pounded	-11.4619
▁weighing	-11.4619
▁ace	-11.462
▁za	-11.4621
▁popul	-11.4631
▁zairean	-11.4632
tti	-11.4633
▁hunter	-11.4633
▁jesse	-11.4634
▁slovenian	-11.4634
▁lawrence	-11.4635
▁committ	-11.4636
▁gays	-11.4639
▁defendants	-11.4639
▁pit	-11.4639
▁robin	-11.464
▁disciplinar	-11.4641
▁lion	-11.4642
▁indicat	-11.4642
▁nominate	-11.4643
▁connected	-11.4643
▁dave	-11.465
▁sovereign	-11.465
▁diabetes	-11.4651
▁machinery	-11.4651
▁sp	-11.4657
▁aol	-11.4658
▁exxon	-11.4662
▁qinghai	-11.4662
-####	-11.4663
▁wishes	-11.4663
tv	-11.4664
▁greenback	-11.4669
▁mile	-11.4672
▁retiring	-11.4673
kin	-11.4675
▁correct	-11.4676
▁destination	-11.4682
▁hitler	-11.4688
▁moderately	-11.4688
▁carnival	-11.4689
▁hijackers	-11.469
▁experiment	-11.4692
▁mothers	-11.4694
▁panda	-11.4694
▁utilities	-11.4695
▁reversed	-11.4699
▁focuses	-11.4705
▁quotas	-11.4707
▁jacob	-11.4711
▁mayoral	-11.4715
▁nears	-11.4716
▁treating	-11.4716
yu	-11.4718
▁hebei	-11.472
taliban	-11.472
▁kuchma	-11.4722
▁orioles	-11.4722
▁theory	-11.4725
▁chongqing	-11.4728
▁uribe	-11.4728
▁extremely	-11.4729
▁hunan	-11.4729
▁tiananmen	-11.4733
▁patrols	-11.4735
▁none	-11.4738
▁reaffirms	-11.474
▁nec	-11.4742
packard	-11.4748
▁discover	-11.4748
▁plus	-11.475
▁embezzlement	-11.475
▁cop	-11.475
▁klaus	-11.475
▁multibillion	-11.4751
ao	-11.4753
▁disclosure	-11.4756
▁determination	-11.4757
▁tide	-11.4757
▁respectively	-11.4758
cb	-11.4759
▁sprinter	-11.4761
ik	-11.4762
per	-11.4766
▁billy	-11.4768
▁cartoon	-11.4771
▁highways	-11.4773
▁clippers	-11.4773
▁shah	-11.4776
▁reno	-11.4779
▁volumes	-11.4792
▁tightens	-11.4792
▁ruins	-11.4792
▁coordinated	-11.4794
▁outlines	-11.4795
▁jia	-11.4797
▁hudson	-11.48
standing	-11.48
▁reopens	-11.4803
▁uygur	-11.4805
▁bullet	-11.4806
▁paralyzed	-11.4806
▁reinforce	-11.4808
▁closest	-11.481
▁pretty	-11.4811
▁impossible	-11.4811
terrorist	-11.4816
har	-11.4822
ker	-11.4826
▁burmese	-11.4828
▁dispatch	-11.4829
▁colleague	-11.483
▁compatriot	-11.483
▁stiff	-11.4835
▁react	-11.4838
▁cheer	-11.4838
▁expos	-11.4838
▁nazis	-11.4842
▁pistons	-11.485
▁dancing	-11.485
▁chapter	-11.485
▁warships	-11.4852
▁freezing	-11.4853
▁embrace	-11.4856
▁removing	-11.4856
▁elephant	-11.4858
▁illicit	-11.4861
▁soybean	-11.4864
setting	-11.4866
▁nam	-11.4869
▁recommends	-11.4879
tada	-11.4885
▁francois	-11.4889
side	-11.4892
▁seasons	-11.4894
▁chest	-11.4898
▁rabbi	-11.49
▁portland	-11.4903
▁contenders	-11.4906
▁executions	-11.4906
▁embargo	-11.4906
▁dismantle	-11.4909
▁attitude	-11.491
▁predict	-11.4912
▁liquidity	-11.4912
▁divers	-11.4919
ez	-11.4919
▁charlotte	-11.4929
▁mercury	-11.4929
▁prosecute	-11.493
▁eduardo	-11.4931
trade	-11.4931
rei	-11.4933
delayed	-11.4933
▁stuttgart	-11.4934
▁bremen	-11.4934
▁infections	-11.4936
▁convert	-11.4936
▁blockbuster	-11.494
▁idol	-11.4941
▁jonath	-11.4942
▁wade	-11.4942
▁jockey	-11.4943
▁courthouse	-11.4945
▁medics	-11.4945
▁instability	-11.4946
▁pornograph	-11.4946
▁revived	-11.4949
assad	-11.495
▁contained	-11.4951
▁barroso	-11.4951
▁reviving	-11.4957
▁lenders	-11.4963
▁ming	-11.4966
▁experimental	-11.4971
neal	-11.4971
▁conversation	-11.4973
▁lieberman	-11.4974
▁epic	-11.4974
▁jin	-11.4975
▁leon	-11.4976
▁aggression	-11.4977
ero	-11.4981
▁repay	-11.4983
▁degrees	-11.4986
▁escap	-11.499
▁explanation	-11.4991
▁sink	-11.4991
▁anc	-11.4993
▁ravaged	-11.4994
▁confiscated	-11.4996
▁comfortable	-11.5003
▁touched	-11.5004
▁teng	-11.5005
▁counterfeit	-11.5007
▁brotherhood	-11.5014
▁zuma	-11.5014
▁rankings	-11.5016
▁separated	-11.5019
▁anne	-11.5019
unconstitutional	-11.502
ray	-11.5024
▁madonna	-11.5025
▁radiation	-11.5025
▁initiatives	-11.5032
▁deadlocked	-11.5033
▁blackburn	-11.5042
▁crushing	-11.5046
▁bonus	-11.5047
▁lockheed	-11.5048
▁separation	-11.5048
▁tribe	-11.505
▁ore	-11.5053
▁deepen	-11.5056
▁earns	-11.5057
▁wright	-11.5059
▁cyber	-11.5059
▁najaf	-11.5059
▁dreams	-11.506
▁naming	-11.5072
▁angered	-11.5073
▁pak	-11.5073
▁gadhafi	-11.5076
▁propaganda	-11.5076
▁nose	-11.5077
▁customer	-11.5079
▁rattled	-11.5079
▁eligible	-11.5082
▁lesotho	-11.5082
▁deliveries	-11.5083
▁rent	-11.5086
▁dortmund	-11.5088
▁taichung	-11.5088
▁roles	-11.5088
▁gases	-11.5088
▁factor	-11.5088
▁successive	-11.5089
▁thanksgiving	-11.5089
▁drunk	-11.5093
distance	-11.5093
▁vivendi	-11.5094
▁nuggets	-11.5095
▁modified	-11.5097
▁retreated	-11.5097
▁misses	-11.5098
▁partisan	-11.5101
▁intent	-11.5103
▁climbing	-11.5106
▁emir	-11.5108
▁gandhi	-11.5111
▁toppled	-11.5111
▁stricken	-11.5114
▁rupiah	-11.5116
aclav	-11.5117
▁medicines	-11.5122
communist	-11.5122
▁columbus	-11.5122
▁leap	-11.5123
▁thwart	-11.5125
head	-11.5126
▁barbara	-11.5128
bank	-11.513
▁upward	-11.5131
▁sheffield	-11.5134
▁engage	-11.5136
▁destroys	-11.514
▁resource	-11.5143
▁investing	-11.5143
▁miracle	-11.5145
▁eruption	-11.5145
▁derail	-11.5152
▁quarantine	-11.5154
▁ambassadors	-11.5158
▁hawks	-11.516
▁richardson	-11.5164
▁luck	-11.5165
▁postwar	-11.5166
▁forensic	-11.5168
▁granting	-11.5173
▁downward	-11.5174
▁restructure	-11.5177
▁mutiny	-11.518
▁inspect	-11.5181
▁overturn	-11.5182
▁offenders	-11.5182
shares	-11.5187
▁fundamental	-11.519
▁organ	-11.5194
▁tool	-11.5197
▁handful	-11.5199
yugoslavia	-11.5203
▁drinks	-11.5206
▁caspian	-11.5209
▁crystal	-11.521
▁fernandez	-11.522
▁obstacles	-11.5222
▁pacers	-11.5222
▁tore	-11.5224
▁tornado	-11.5225
▁anhui	-11.5225
▁homicide	-11.5226
▁priorities	-11.5226
▁implementing	-11.5227
▁samples	-11.5227
▁comedian	-11.5238
▁avoided	-11.5241
▁neither	-11.5244
▁lie	-11.5247
▁designated	-11.5249
▁volcanic	-11.5249
▁reign	-11.5253
▁flower	-11.5254
▁mecca	-11.5255
▁sayyaf	-11.5255
ot	-11.5261
▁ernesto	-11.5262
▁confusion	-11.5267
▁eads	-11.5267
▁collective	-11.5275
▁cathedral	-11.5279
▁horses	-11.528
▁lease	-11.5282
▁combination	-11.5284
water	-11.5285
ji	-11.5285
▁favorable	-11.5288
▁trump	-11.529
▁decrease	-11.5293
▁quot	-11.5296
▁productivity	-11.5296
▁abolish	-11.5297
▁location	-11.5297
▁dividend	-11.5299
▁accidentally	-11.5301
▁defied	-11.5302
▁hubei	-11.5302
▁conclusion	-11.5303
▁felix	-11.5305
▁fixing	-11.5308
▁daimler	-11.5308
▁rooney	-11.5308
▁venice	-11.5308
▁paint	-11.5308
▁grace	-11.5309
gan	-11.5312
▁phelps	-11.5314
▁nuke	-11.5315
▁endorses	-11.5316
▁hung	-11.5317
▁farc	-11.5318
▁ismail	-11.5322
ani	-11.5322
▁pause	-11.5332
▁finger	-11.5333
▁methods	-11.5336
▁everest	-11.5336
▁es	-11.5337
▁sum	-11.534
▁gallery	-11.5343
▁exporter	-11.5348
▁captive	-11.5349
▁warehouse	-11.5352
▁dubb	-11.5355
▁opel	-11.5355
▁prolonged	-11.5357
▁bahamas	-11.5361
▁tracks	-11.5363
▁isolation	-11.5371
▁pocket	-11.5371
▁judgment	-11.5373
▁scrambled	-11.5373
plagued	-11.5373
▁pig	-11.5377
▁ebay	-11.5378
▁proposing	-11.5378
▁tools	-11.5379
▁conclude	-11.5382
▁recalling	-11.5384
▁miner	-11.5385
▁tha	-11.5386
▁eriksson	-11.539
▁barring	-11.539
▁rap	-11.5393
▁uses	-11.5393
▁uruguayan	-11.5394
▁negotiated	-11.5397
▁janet	-11.5398
▁mere	-11.5404
▁loved	-11.5406
▁taxpayers	-11.5408
▁beaches	-11.541
▁lasting	-11.5412
▁malta	-11.5414
▁outdoor	-11.5416
▁homemade	-11.5417
ig	-11.5417
▁margin	-11.5423
▁martina	-11.5425
▁cohen	-11.5426
ick	-11.543
▁gbagbo	-11.5432
▁clouds	-11.5434
▁yevgen	-11.5438
▁gender	-11.5438
▁combating	-11.5439
▁hell	-11.5442
▁innovation	-11.5443
▁affecting	-11.5445
▁francis	-11.5449
▁strategies	-11.5449
▁elementary	-11.545
▁aston	-11.5452
ang	-11.5453
▁burkina	-11.5455
▁icrc	-11.5455
▁disappearance	-11.5473
▁undisclosed	-11.5479
▁laborers	-11.548
▁lukashenko	-11.5485
▁flagship	-11.5485
▁warfare	-11.5488
▁grid	-11.5491
▁ceiling	-11.5491
▁disastrous	-11.5491
▁celebrities	-11.5497
▁precious	-11.5497
▁blueprint	-11.5497
▁adjourned	-11.55
▁anchor	-11.5502
hander	-11.5505
braced	-11.5509
▁strange	-11.551
▁failures	-11.5513
▁yes	-11.5513
▁aig	-11.5518
▁mill	-11.5526
▁brunei	-11.5527
▁column	-11.5532
▁elimination	-11.5533
▁cabin	-11.5534
▁gripp	-11.5534
▁bio	-11.5537
▁swim	-11.5539
▁pill	-11.554
▁jolted	-11.5543
om	-11.555
▁tan	-11.5551
▁superior	-11.5551
▁likud	-11.5551
▁loose	-11.5554
▁hughes	-11.5558
▁desk	-11.5558
▁violate	-11.5561
▁calendar	-11.5563
▁completion	-11.5563
▁engagement	-11.5563
▁showcase	-11.5563
▁interpol	-11.5563
▁mainstream	-11.5563
▁jane	-11.5564
▁sights	-11.5569
▁contracted	-11.5573
▁findings	-11.5577
▁willingness	-11.5578
▁elements	-11.5579
hu	-11.558
▁petrochemical	-11.5581
▁cache	-11.5582
▁crippled	-11.5584
▁settling	-11.5587
▁drift	-11.5587
▁gcc	-11.5589
▁furious	-11.5589
▁reactors	-11.5589
▁margaret	-11.5593
▁mercosur	-11.5593
▁neighborhoods	-11.5597
▁kyoto	-11.5605
▁mofa	-11.5606
▁duel	-11.5609
▁garbage	-11.5611
▁depend	-11.5613
▁sabotage	-11.5615
▁tariff	-11.5616
▁freighter	-11.5621
▁secretly	-11.5621
▁numerous	-11.5629
▁lloyd	-11.5632
▁auckland	-11.5635
▁bo	-11.5639
▁pointed	-11.5642
▁panamanian	-11.5647
▁locker	-11.565
▁harris	-11.5651
▁clergy	-11.5652
▁pad	-11.5654
▁sultan	-11.5655
▁pages	-11.5656
overs	-11.5656
▁asiad	-11.5657
▁dominique	-11.566
▁spray	-11.566
handed	-11.566
▁plagued	-11.566
letting	-11.5665
▁execute	-11.5665
▁hungry	-11.5666
▁tenure	-11.5666
▁unanimous	-11.5667
▁communists	-11.567
▁syndicate	-11.5672
▁den	-11.5672
▁proper	-11.5679
▁blatter	-11.5684
▁perez	-11.5685
▁che	-11.5688
▁merchant	-11.5694
▁socialists	-11.5694
▁madison	-11.5696
▁leonid	-11.5698
wife	-11.5699
▁branches	-11.57
▁usher	-11.5701
▁depict	-11.5702
▁voluntary	-11.5702
▁garment	-11.5707
▁juvenile	-11.5708
▁nightmare	-11.5709
▁ballet	-11.5709
▁cleanup	-11.5709
▁frequent	-11.571
▁silicon	-11.571
gi	-11.5716
▁wbc	-11.5717
▁proud	-11.5718
▁hui	-11.572
▁catastrophe	-11.572
▁poison	-11.5725
▁searches	-11.5731
▁libel	-11.5733
▁penn	-11.5735
ite	-11.5735
▁clamp	-11.5739
▁charlie	-11.5739
▁outlined	-11.5739
ries	-11.5747
▁degree	-11.5748
row	-11.5748
ate	-11.5749
▁ebola	-11.5751
▁emmy	-11.5757
▁baht	-11.5757
▁queensland	-11.5757
▁panthers	-11.5761
▁abduction	-11.5763
▁unofficial	-11.5768
▁plug	-11.5768
▁xiaoping	-11.5769
▁readiness	-11.5782
▁kicking	-11.5782
▁flowers	-11.5784
▁hood	-11.5785
▁unarmed	-11.5787
▁boca	-11.579
▁pap	-11.5792
▁freddie	-11.5794
▁insulting	-11.5794
▁maintains	-11.5794
▁editors	-11.5798
▁jenin	-11.5801
▁contend	-11.5803
▁lifetime	-11.5803
▁mae	-11.5811
▁bosses	-11.5813
mon	-11.5813
▁aluminum	-11.5819
▁talked	-11.5819
▁mis	-11.5819
▁singing	-11.582
▁dress	-11.5823
▁diagnosed	-11.5828
▁addition	-11.5829
▁gra	-11.583
▁childhood	-11.5831
▁folk	-11.5833
▁concept	-11.5837
▁beneath	-11.5838
▁originally	-11.584
▁hinted	-11.5843
▁method	-11.5844
▁abuja	-11.5844
▁kaczynski	-11.5849
▁responded	-11.585
▁chronic	-11.585
▁entrepreneurs	-11.5852
▁scattered	-11.5854
▁spears	-11.5854
▁christ	-11.5855
▁marion	-11.5855
▁fifteen	-11.5856
▁mend	-11.5858
▁revamp	-11.5858
▁trademark	-11.586
▁equivalent	-11.5862
▁root	-11.5864
▁unpaid	-11.5865
▁wikileaks	-11.5868
▁shortfall	-11.5868
▁rubin	-11.5869
▁sabres	-11.587
▁till	-11.5873
▁suits	-11.5874
cu	-11.5876
▁dangers	-11.5876
▁admission	-11.5877
▁substitute	-11.5877
▁math	-11.5877
▁spacewalk	-11.588
▁widened	-11.5881
▁outfielder	-11.5881
▁fertilizer	-11.5887
jazeera	-11.5893
▁choosing	-11.5893
▁safin	-11.5896
▁dates	-11.59
▁takeoff	-11.5901
▁dressed	-11.5903
▁recep	-11.5905
▁downed	-11.5906
▁forestry	-11.5907
▁shane	-11.5907
▁rhetoric	-11.5911
▁overshadowed	-11.5912
▁mc	-11.5914
▁shark	-11.5915
ise	-11.5921
▁conceded	-11.5921
▁pipe	-11.5923
▁flotilla	-11.5924
▁casualty	-11.593
▁cure	-11.5935
▁murderer	-11.5941
▁dynasty	-11.5943
▁sprawling	-11.5946
▁assassinate	-11.5946
▁liquid	-11.5948
▁comfort	-11.5948
▁royals	-11.5951
▁digest	-11.5953
▁nerve	-11.5953
▁faltering	-11.5954
▁jar	-11.5955
▁fitness	-11.5956
bu	-11.5957
▁dips	-11.5959
▁supervisor	-11.5959
▁rings	-11.5961
▁plague	-11.5962
▁teens	-11.5963
▁qatari	-11.5966
▁rejoin	-11.5968
rodom	-11.5974
powered	-11.5974
▁zelaya	-11.598
▁holders	-11.5981
▁quota	-11.5986
▁conductor	-11.5987
▁shaken	-11.599
▁hunters	-11.5993
▁sheep	-11.5994
▁credentials	-11.5995
income	-11.5996
▁recovers	-11.5997
▁oath	-11.5999
ow	-11.5999
▁walkout	-11.6
▁halfway	-11.6005
ten	-11.6008
▁spurr	-11.6009
▁relics	-11.6011
▁hemisphere	-11.6011
▁qichen	-11.6011
▁assaulting	-11.6016
▁earthquakes	-11.6017
▁cathay	-11.6018
▁floyd	-11.6018
▁thirteen	-11.6018
▁ram	-11.6018
▁parker	-11.6019
eb	-11.6022
▁mogul	-11.6023
▁patience	-11.6024
▁youtube	-11.6024
▁tinto	-11.6025
berg	-11.6028
ova	-11.6031
▁trash	-11.6031
▁plight	-11.6032
▁forged	-11.6037
▁sunken	-11.6037
▁defy	-11.6038
▁clerics	-11.6041
▁enormous	-11.6043
▁consulting	-11.6051
▁wheel	-11.6053
▁creates	-11.6055
▁mauresmo	-11.6055
▁otherwise	-11.6055
▁loom	-11.6057
▁artificial	-11.6058
▁rely	-11.6058
▁tsvangirai	-11.6062
▁colo	-11.6062
▁jays	-11.6063
ku	-11.6063
▁homeowners	-11.6067
▁smile	-11.6067
▁faso	-11.6068
▁marco	-11.6071
▁glimpse	-11.6074
▁skier	-11.6078
▁poses	-11.6079
▁sneak	-11.608
▁raymond	-11.6081
▁mandatory	-11.6081
▁tayyi	-11.6081
two	-11.6081
▁pile	-11.6082
▁bounce	-11.6089
▁sounds	-11.6091
▁ghraib	-11.6093
▁halting	-11.61
▁chernomyrdin	-11.6106
▁ricky	-11.6108
▁mansion	-11.6113
▁fo	-11.6114
▁speedy	-11.6114
▁implicated	-11.6114
▁passion	-11.6116
▁suspending	-11.6116
▁batting	-11.6118
▁provisions	-11.612
▁runners	-11.6122
▁strive	-11.6123
▁reeling	-11.6124
▁moussaoui	-11.6125
▁duo	-11.6126
▁earning	-11.6129
▁semis	-11.6129
▁dock	-11.613
▁safer	-11.6132
russia	-11.6138
▁angrily	-11.6138
▁giro	-11.6142
▁duma	-11.6143
▁wwii	-11.6151
▁symptoms	-11.6151
▁assurances	-11.6156
▁diocese	-11.6157
▁susan	-11.6157
▁universe	-11.6157
▁seles	-11.616
▁auschwitz	-11.6163
▁introduction	-11.6163
▁stomach	-11.6163
▁maiden	-11.617
▁becker	-11.6178
▁forbes	-11.6179
▁kirkuk	-11.6189
▁alps	-11.619
▁seeming	-11.6192
▁historian	-11.6192
▁publish	-11.6193
▁primaries	-11.6196
▁oval	-11.6196
▁pleased	-11.6197
ef	-11.6198
▁respected	-11.62
▁caracas	-11.6202
▁knockout	-11.6209
▁bu	-11.6209
▁carries	-11.6213
▁havoc	-11.6215
▁junk	-11.6215
▁achievement	-11.6219
▁baker	-11.622
▁helm	-11.6221
▁cart	-11.6226
▁communique	-11.6227
▁consolidated	-11.6228
▁lech	-11.6228
▁ri	-11.623
▁facts	-11.623
▁shin	-11.6231
▁fend	-11.6232
▁transform	-11.6233
▁biotechnology	-11.6234
▁swung	-11.6241
▁cave	-11.6241
▁hears	-11.6247
▁moratorium	-11.6247
▁erupts	-11.6247
▁robbed	-11.625
▁psv	-11.6253
▁trips	-11.6264
▁fledgling	-11.6266
▁yangon	-11.6268
▁ratified	-11.6272
▁sponsorship	-11.6273
▁helen	-11.6275
▁slave	-11.6279
hunting	-11.6282
▁valentine	-11.6287
▁ignore	-11.6289
▁eggs	-11.6291
▁bordeaux	-11.6292
ev	-11.6293
▁convinced	-11.6304
▁bucharest	-11.6305
▁riders	-11.6309
▁siberian	-11.631
▁backers	-11.6311
▁tackling	-11.6311
▁alain	-11.6315
▁floating	-11.6317
▁unpopular	-11.6318
▁retrial	-11.6319
ec	-11.6319
▁glenn	-11.6323
▁warrants	-11.6324
▁unclear	-11.6325
▁snap	-11.6327
▁repairs	-11.6327
ditch	-11.633
▁healthcare	-11.6331
▁kadhafi	-11.6331
▁spaniard	-11.6331
▁mitt	-11.6335
▁furniture	-11.6337
ring	-11.6338
sadr	-11.6342
▁tips	-11.6344
▁slayings	-11.6345
▁pork	-11.6345
▁concentration	-11.635
▁corporations	-11.6354
▁secular	-11.6356
vi	-11.6356
▁presum	-11.6357
▁mineral	-11.6359
▁outpost	-11.636
▁occupy	-11.6363
▁bucks	-11.6363
▁integrity	-11.637
▁stoke	-11.637
▁flame	-11.6371
▁dominance	-11.6376
▁moo	-11.6377
▁reunion	-11.6378
▁distribute	-11.6379
▁gonzales	-11.6383
▁pirate	-11.6388
▁seas	-11.6392
▁acted	-11.6394
▁cartoons	-11.6395
▁tunis	-11.6395
▁anxiety	-11.6397
▁cooking	-11.6397
▁chartered	-11.6397
▁sympathy	-11.6402
▁yudhoyono	-11.6402
▁matthew	-11.6404
▁fares	-11.6404
▁hint	-11.6405
▁suggestions	-11.6406
▁patch	-11.6407
▁motivated	-11.6407
▁forty	-11.6411
▁workplace	-11.6414
▁respects	-11.6414
▁slum	-11.6418
▁golfer	-11.6422
▁admiral	-11.6422
▁satellites	-11.6424
▁anglican	-11.6424
▁guardian	-11.6425
▁mull	-11.6427
▁ti	-11.6428
▁unemployed	-11.6429
▁leaking	-11.6431
▁publicity	-11.6432
▁endeavour	-11.6435
neill	-11.6441
▁falun	-11.6448
▁widens	-11.645
▁cluster	-11.6455
rin	-11.6456
▁carefully	-11.6457
▁expense	-11.6457
strong	-11.646
▁amounts	-11.6461
▁shifting	-11.6465
▁weld	-11.6474
▁lesson	-11.6475
▁rooms	-11.6476
▁glance	-11.6476
▁zhuang	-11.6481
▁alter	-11.6484
▁saves	-11.6484
▁adjusted	-11.6485
▁harper	-11.6488
israel	-11.6491
▁beautiful	-11.6494
▁inciting	-11.6494
▁refrain	-11.6494
▁cliff	-11.6496
▁finalize	-11.6499
▁winston	-11.65
▁burundian	-11.6508
▁goalie	-11.6509
▁bollywood	-11.6514
▁lackluster	-11.6514
▁kitchen	-11.6514
▁susilo	-11.6514
korean	-11.652
▁backlash	-11.6521
▁trim	-11.6523
▁trio	-11.6523
ino	-11.6528
▁suez	-11.6529
▁sebastian	-11.6534
▁sofia	-11.6534
▁preside	-11.6538
▁chretien	-11.654
▁expedition	-11.654
▁undp	-11.654
van	-11.6541
▁runaway	-11.6541
▁repeal	-11.6542
▁strokes	-11.6542
▁qaeda	-11.6543
red	-11.6545
▁gu	-11.6546
▁ayatollah	-11.6547
▁meteorological	-11.6547
▁bleak	-11.6547
▁brewers	-11.6549
▁delivers	-11.6551
▁governance	-11.6555
benz	-11.656
▁fao	-11.6566
▁huang	-11.6566
▁porsche	-11.6567
▁liver	-11.6571
▁quartet	-11.6574
south	-11.6577
▁foil	-11.6577
▁wipe	-11.6577
▁holed	-11.6577
▁indication	-11.658
▁mt	-11.658
▁blitz	-11.658
▁landscape	-11.658
▁formerly	-11.6583
▁samoa	-11.6584
▁provision	-11.6585
▁cubans	-11.6588
▁ferdinand	-11.6594
▁battery	-11.6595
▁gala	-11.66
▁financially	-11.6606
▁mourns	-11.6607
▁reluctant	-11.6609
▁ze	-11.661
▁factors	-11.6611
▁solutions	-11.6613
▁vp	-11.6613
▁chocolate	-11.6614
▁weaken	-11.6614
▁scrapp	-11.6614
▁contention	-11.6621
lie	-11.6621
▁consultant	-11.6627
▁looted	-11.6632
▁hatred	-11.6634
▁signature	-11.6634
▁forecasters	-11.6637
▁boyfriend	-11.6641
▁shanxi	-11.6647
▁belarusian	-11.6648
▁punch	-11.6649
▁mclaren	-11.6654
▁permits	-11.6655
▁yao	-11.6657
▁examination	-11.6658
▁briefed	-11.6659
▁spreads	-11.6663
▁shifts	-11.6665
▁ralph	-11.6667
▁speedskating	-11.6667
▁improvements	-11.6669
▁convened	-11.6671
▁disclose	-11.6673
▁difference	-11.6675
▁examin	-11.6676
▁reviews	-11.6676
▁anxious	-11.6676
▁multimillion	-11.6677
▁monarch	-11.6679
▁sisters	-11.6679
▁basin	-11.6682
▁quarters	-11.6684
▁siberia	-11.6685
▁curbing	-11.6689
▁oscars	-11.6689
▁secrecy	-11.6694
▁lesbian	-11.6696
▁dong	-11.6697
▁hanged	-11.6699
▁mobil	-11.6705
▁plummeted	-11.6706
wood	-11.6707
▁scandinavian	-11.6709
▁toughest	-11.6711
▁padres	-11.6712
action	-11.6713
▁bihac	-11.6714
work	-11.6715
▁mr	-11.6715
▁ricardo	-11.6721
▁evans	-11.6724
▁saakashvili	-11.6728
▁default	-11.6729
▁promotes	-11.6729
▁exceed	-11.6733
▁lap	-11.6734
▁aegean	-11.6734
▁strongman	-11.6735
▁foe	-11.6736
▁bonn	-11.6736
▁amendments	-11.6744
▁internationally	-11.6746
▁falcons	-11.6747
▁carpet	-11.6748
▁recommendations	-11.6748
▁mou	-11.6749
▁birdie	-11.6751
▁errors	-11.6753
▁sweeps	-11.6754
▁operational	-11.6754
▁turbulent	-11.6755
▁copies	-11.6755
▁weeklong	-11.6757
▁suisse	-11.6761
▁minibus	-11.6761
▁rig	-11.6763
▁bordering	-11.6765
▁belong	-11.677
▁counted	-11.6771
▁detains	-11.6772
▁chee	-11.6774
▁reopening	-11.6781
▁briefing	-11.6783
▁tolerance	-11.6784
▁sevilla	-11.6789
▁avoiding	-11.679
▁durable	-11.6795
fu	-11.6798
▁dissent	-11.6801
▁affirmative	-11.6804
▁generate	-11.6807
▁cats	-11.6808
▁transparency	-11.6809
▁acquisitions	-11.681
▁finishes	-11.681
▁sk	-11.6812
▁apple	-11.6813
▁rallying	-11.6813
▁detective	-11.6813
pti	-11.6816
market	-11.6818
▁intercepted	-11.6818
▁painter	-11.6819
▁thinks	-11.6821
▁railways	-11.6821
▁dad	-11.6821
▁stamps	-11.6822
▁dismal	-11.6823
▁admitting	-11.6823
▁capabilit	-11.6827
▁database	-11.683
▁equality	-11.683
▁buyer	-11.6835
▁underscor	-11.6836
▁halftime	-11.6837
▁specialists	-11.6839
▁stationed	-11.6841
▁nanjing	-11.6843
magnitude	-11.6844
▁outbreaks	-11.6845
▁brewer	-11.6845
▁biotech	-11.685
▁djokovic	-11.6857
▁embarrassing	-11.686
▁organizer	-11.6864
▁fulham	-11.6864
▁montana	-11.6864
▁readers	-11.6866
▁harlem	-11.687
▁kampala	-11.6877
speaking	-11.6878
▁musicians	-11.6878
five	-11.688
▁embryo	-11.6883
▁mtv	-11.6886
▁banana	-11.6886
▁detect	-11.6887
pplied	-11.6888
▁guarded	-11.689
▁afc	-11.6891
▁advocacy	-11.6891
▁initially	-11.69
▁eritrean	-11.6906
▁wooden	-11.6906
▁grabs	-11.6909
▁arrangements	-11.691
▁reprieve	-11.6912
king	-11.6914
af	-11.6914
▁highlighted	-11.6915
▁fulfill	-11.6915
ck	-11.6916
▁commandos	-11.6916
▁bribe	-11.6917
▁practical	-11.6918
▁reference	-11.6919
▁spotted	-11.6919
▁professionals	-11.692
▁oliver	-11.6921
ensuring	-11.6924
ambang	-11.6925
▁posing	-11.6926
▁cruz	-11.6933
▁mounts	-11.6935
▁cent	-11.6937
▁tabloid	-11.6939
▁moussa	-11.6939
counterterrorism	-11.6945
door	-11.6945
▁wa	-11.6946
▁deliberations	-11.6951
▁slipping	-11.6953
▁sergio	-11.6954
▁washed	-11.6954
▁inventory	-11.6955
▁assists	-11.6956
▁channels	-11.6959
▁famine	-11.696
▁czar	-11.696
▁operated	-11.6968
▁pink	-11.6968
▁parliamentarian	-11.6968
▁epa	-11.6973
▁buck	-11.6973
▁pfizer	-11.6974
cy	-11.6977
▁rupees	-11.6978
▁loud	-11.6979
▁scrambling	-11.6981
ai	-11.6981
▁timorese	-11.6981
▁planting	-11.6983
▁calderon	-11.6988
▁renewal	-11.699
iya	-11.6995
▁balloon	-11.6995
▁bounced	-11.7004
▁dame	-11.7006
▁combine	-11.7007
▁havel	-11.7007
▁der	-11.7007
▁expression	-11.7009
▁faithful	-11.7009
▁eagle	-11.7013
▁devoted	-11.7013
hand	-11.7015
▁canberra	-11.7015
▁tragic	-11.7015
▁pivotal	-11.7015
▁acceptance	-11.7016
▁md	-11.7019
▁rivalry	-11.7022
▁tome	-11.7022
▁noted	-11.7023
▁pray	-11.7027
▁fisheries	-11.7029
▁tally	-11.7029
ago	-11.7032
ver	-11.7035
▁renovation	-11.7036
▁heathrow	-11.7036
▁pal	-11.7038
▁reliance	-11.704
ager	-11.7045
▁sour	-11.7049
▁ratification	-11.705
▁mauric	-11.7054
▁deemed	-11.7055
▁afford	-11.7057
▁restricted	-11.7057
▁developers	-11.7062
▁cafe	-11.7062
▁authorize	-11.7063
▁sinai	-11.7068
▁edging	-11.7071
▁pelosi	-11.7071
designate	-11.7074
▁pigs	-11.7075
▁danny	-11.7078
▁scenes	-11.708
ub	-11.7083
▁minh	-11.7087
▁blanket	-11.7089
▁busiest	-11.7093
▁indicators	-11.7098
▁debated	-11.7099
▁jennifer	-11.7099
▁wrongdoing	-11.7099
▁tipped	-11.7099
▁adopting	-11.7101
▁atal	-11.7102
▁brett	-11.7103
▁visitor	-11.7103
▁lima	-11.7103
▁nawaz	-11.7106
▁wrist	-11.7106
mohan	-11.7109
▁tribune	-11.7113
▁masked	-11.7116
▁chiang	-11.712
▁print	-11.7124
▁wb	-11.7124
▁bowling	-11.7128
▁kath	-11.7128
ore	-11.7131
▁vacant	-11.7134
▁worldcom	-11.7136
hyun	-11.7136
▁outfit	-11.7138
▁chickens	-11.7141
▁fourteen	-11.7141
ship	-11.7143
▁muster	-11.7149
▁filipinos	-11.715
▁bahraini	-11.715
▁unification	-11.7153
▁benin	-11.7164
▁golan	-11.7165
▁koizumi	-11.7169
area	-11.7171
▁constructive	-11.7179
▁mills	-11.718
▁knock	-11.7182
▁eliminating	-11.7183
▁mirror	-11.7183
▁nixon	-11.7184
▁confidential	-11.7185
tara	-11.7186
▁tires	-11.7188
▁looting	-11.7188
▁###,###-	-11.7191
▁fault	-11.7195
▁bhp	-11.7198
▁narrowed	-11.7198
die	-11.7199
▁blank	-11.72
hop	-11.7202
▁marry	-11.7202
▁deportivo	-11.7205
▁particular	-11.7208
story	-11.7208
▁cooperating	-11.7212
dominated	-11.7214
▁profitable	-11.7214
syrian	-11.7216
▁azerbaijani	-11.7216
generation	-11.7222
hari	-11.7225
▁tobago	-11.7226
▁psychological	-11.7229
▁universiade	-11.7233
▁whales	-11.7241
▁roughly	-11.7241
▁flurry	-11.7247
▁telescope	-11.7247
▁yankee	-11.7248
▁footage	-11.7248
tu	-11.725
▁rogers	-11.7251
▁addresses	-11.7257
▁barclays	-11.7257
▁buffett	-11.7258
▁capabl	-11.7258
▁odd	-11.7259
▁gujarat	-11.7261
▁gansu	-11.7262
▁prostate	-11.7264
▁properly	-11.7266
▁disagree	-11.7268
▁aznar	-11.7268
▁ontario	-11.7269
▁ferrero	-11.727
▁bike	-11.7272
▁sch	-11.7274
▁linebacker	-11.7276
uous	-11.7276
▁neutral	-11.7277
▁correction	-11.7277
▁oic	-11.7279
con	-11.728
▁sixteen	-11.7283
▁botched	-11.7283
▁andersen	-11.7283
▁cautioned	-11.7284
▁reid	-11.7285
▁char	-11.7288
▁maldives	-11.729
▁chef	-11.7292
▁clearly	-11.7292
▁acquir	-11.7294
▁firearms	-11.7295
▁limiting	-11.7296
▁welsh	-11.7296
ft	-11.7299
▁conclud	-11.7301
▁ringgit	-11.7304
▁consideration	-11.7306
▁yan	-11.7311
▁flawed	-11.7312
▁settler	-11.7313
▁reminder	-11.7317
▁rupert	-11.7318
▁ritual	-11.7321
▁lien	-11.7324
▁relegation	-11.7326
▁legally	-11.7326
▁fortunes	-11.7327
▁pressured	-11.733
▁elusive	-11.7333
▁exodus	-11.7333
▁mcveigh	-11.7333
▁satisfaction	-11.7333
▁salmon	-11.7333
▁shrinking	-11.7335
▁revise	-11.7336
▁lane	-11.7337
▁skate	-11.7338
▁coins	-11.7343
▁ecowas	-11.7347
▁gabriel	-11.7347
▁liquor	-11.7347
life	-11.7349
▁joke	-11.735
▁steroid	-11.735
▁sustain	-11.7351
▁recruits	-11.7354
▁requires	-11.7355
▁dealings	-11.7358
▁attracting	-11.7361
▁employer	-11.7367
▁sven	-11.7368
▁hashish	-11.7369
eme	-11.7369
light	-11.7369
oc	-11.7372
▁nearing	-11.7375
▁memo	-11.7377
appoint	-11.7377
▁lra	-11.738
▁pensions	-11.7386
▁indo	-11.739
▁archdiocese	-11.739
▁nebraska	-11.739
▁spies	-11.7391
▁psychiatric	-11.7398
▁privatisation	-11.7398
▁daughters	-11.7401
thirds	-11.7401
▁pressures	-11.7402
▁consolidation	-11.7405
▁movements	-11.7405
▁tumbling	-11.7412
▁sad	-11.7416
▁tired	-11.7417
▁chronicle	-11.7418
▁duck	-11.7419
▁disappointment	-11.7419
▁croats	-11.742
▁rafi	-11.7423
▁hurting	-11.7428
▁cheered	-11.743
▁faulty	-11.7431
▁inject	-11.7431
▁ballistic	-11.7436
tr	-11.7437
▁newt	-11.744
▁lists	-11.744
▁renegade	-11.7441
▁regained	-11.7442
▁stir	-11.7442
▁handled	-11.7444
▁elephants	-11.7445
▁unleashed	-11.7446
▁breakdown	-11.7452
▁stockpiles	-11.7452
track	-11.7454
▁exported	-11.7455
▁bizarre	-11.7455
▁pharmaceuticals	-11.7457
fold	-11.7458
▁je	-11.7459
▁sas	-11.7462
▁voyage	-11.7463
▁mag	-11.7467
▁abn	-11.747
▁chernobyl	-11.747
▁rogue	-11.747
▁lavish	-11.747
biggest	-11.7473
▁bones	-11.7473
▁mor	-11.7476
▁object	-11.7478
▁squeeze	-11.7483
▁poles	-11.7484
▁akbar	-11.7485
▁undercover	-11.7492
▁wenger	-11.7492
▁graduates	-11.7497
▁involve	-11.7497
▁emirate	-11.7498
▁baseman	-11.7504
▁collide	-11.7506
▁sponsored	-11.7506
▁contemporary	-11.7506
▁typical	-11.7506
▁cleaning	-11.7508
worth	-11.7512
▁grief	-11.7514
▁tall	-11.7514
▁undermining	-11.7515
▁blackout	-11.7515
▁musician	-11.7516
nuclear	-11.7517
▁gaming	-11.7518
▁yale	-11.7521
▁alonso	-11.7522
▁max	-11.7527
▁emerges	-11.7527
▁preseason	-11.753
▁patriot	-11.7535
▁bracing	-11.7543
▁tonga	-11.7544
▁cy	-11.7549
▁complications	-11.755
▁mladic	-11.755
▁bolt	-11.7554
▁robertson	-11.7556
▁drafting	-11.7558
▁viewed	-11.7561
▁hopefuls	-11.7564
▁portfolio	-11.7565
▁ventures	-11.7566
▁rat	-11.7566
gas	-11.7572
▁curtain	-11.7572
▁blazers	-11.7573
▁guo	-11.7574
▁maneuvers	-11.7581
▁indict	-11.7582
▁array	-11.7587
▁parma	-11.7587
▁sha	-11.759
▁supporter	-11.7593
▁demolition	-11.7594
▁shevardnadze	-11.7594
▁addressing	-11.7596
▁fiction	-11.7598
fe	-11.7599
▁elects	-11.7605
▁chambers	-11.7606
▁disorder	-11.7606
▁dale	-11.7607
▁stimulate	-11.7609
▁wnba	-11.7609
▁dismantling	-11.7616
▁saints	-11.7619
▁mention	-11.7623
▁barracks	-11.7624
ill	-11.7625
▁guild	-11.7626
din	-11.7627
▁allegation	-11.7633
▁chiluba	-11.7639
▁meaning	-11.764
ada	-11.764
▁prostitutes	-11.7653
▁solving	-11.7654
aligned	-11.7654
▁enact	-11.7655
▁hijack	-11.7656
▁cloning	-11.7661
▁hires	-11.7662
▁workforce	-11.7662
semitic	-11.7665
taiwan	-11.7665
▁wba	-11.767
▁heir	-11.7672
▁oas	-11.7674
▁warmup	-11.7674
▁amro	-11.7682
rie	-11.7682
▁kumaratunga	-11.7683
▁clarke	-11.7684
independence	-11.7687
▁insist	-11.7691
▁andres	-11.7692
▁mat	-11.7692
▁saga	-11.7693
card	-11.7694
▁elbow	-11.7695
▁vaccines	-11.7697
▁bottles	-11.7698
▁ulster	-11.7698
▁cracking	-11.7703
cal	-11.7704
german	-11.7704
ball	-11.7707
▁coyotes	-11.7712
▁convincing	-11.7713
▁generic	-11.7713
▁legitimate	-11.7713
▁contamination	-11.7713
bertrand	-11.7717
▁fossil	-11.7724
▁dagestan	-11.7728
▁monster	-11.7728
▁interviews	-11.7728
▁fannie	-11.7729
▁normally	-11.7729
▁cracked	-11.773
broker	-11.7732
▁vie	-11.7735
▁kid	-11.7737
▁chaotic	-11.7743
▁swaziland	-11.7743
digit	-11.7747
▁complain	-11.7747
▁lit	-11.7747
▁schalke	-11.7748
▁brave	-11.7749
▁entrepreneur	-11.775
▁gerry	-11.775
▁shelves	-11.7751
ble	-11.7753
▁suppliers	-11.7754
▁procession	-11.7756
▁defamation	-11.776
▁stressing	-11.7763
▁contempt	-11.7765
▁evo	-11.7765
▁finalized	-11.7769
▁offenses	-11.7771
▁reclaim	-11.7773
▁revered	-11.7773
▁addressed	-11.7774
▁downing	-11.7774
▁curbs	-11.7776
▁bypass	-11.7777
gang	-11.7778
tion	-11.7779
▁conn	-11.778
▁im	-11.778
▁aaron	-11.778
▁instruments	-11.7785
well	-11.7794
▁blown	-11.7797
▁industrialized	-11.7798
▁toshiba	-11.7803
▁charities	-11.7803
asian	-11.7804
▁improper	-11.7806
▁pretoria	-11.781
▁tune	-11.7814
▁bug	-11.7817
▁turkmen	-11.7818
▁renewable	-11.7819
▁accusation	-11.7824
▁weakens	-11.7826
▁attendance	-11.7826
▁swiftly	-11.7826
▁djibouti	-11.7827
▁societ	-11.7828
▁caucus	-11.7831
▁actively	-11.7836
▁indicates	-11.7838
▁cha	-11.7838
▁authoritarian	-11.784
▁kafelnikov	-11.784
▁castle	-11.7845
▁providers	-11.7845
▁attacker	-11.7846
hnom	-11.7848
▁resolutions	-11.7853
▁lucky	-11.7853
mann	-11.7854
▁kai	-11.7859
▁lao	-11.7861
▁steadily	-11.7865
▁rams	-11.7866
▁treasure	-11.7868
▁nur	-11.7868
qui	-11.7869
▁slides	-11.7869
▁liberties	-11.7871
▁panathinaikos	-11.7871
▁tam	-11.7871
▁marriages	-11.7875
▁delicate	-11.7878
▁elian	-11.7878
▁dvd	-11.7878
▁copy	-11.7882
islav	-11.7882
▁dakar	-11.7882
semitism	-11.7886
▁canyon	-11.7886
▁choices	-11.7886
▁sheik	-11.7889
▁imperial	-11.7893
▁aboriginal	-11.7893
▁observation	-11.7893
▁uproar	-11.7893
▁alzheimer	-11.7901
▁shutout	-11.7905
nt	-11.7906
▁middlesbrough	-11.7908
▁lleyton	-11.7908
▁unmanned	-11.7908
▁buchanan	-11.7916
▁repatriated	-11.7916
▁predicting	-11.7918
iraq	-11.792
▁motorists	-11.7924
▁leverkusen	-11.7924
▁gloom	-11.7927
▁inevitable	-11.7931
▁ministries	-11.7931
▁senegalese	-11.7931
ap	-11.7934
▁undergoes	-11.7935
▁efficient	-11.7936
▁photographer	-11.7938
▁penh	-11.7939
▁polar	-11.7939
▁describes	-11.7942
▁cor	-11.7944
▁generale	-11.7945
▁generations	-11.7946
▁lionel	-11.7947
zone	-11.7949
▁reorganization	-11.7954
▁butterfly	-11.7954
▁watson	-11.7954
▁lt	-11.7957
▁julia	-11.7958
▁exploring	-11.7962
▁cisco	-11.7962
▁competitiveness	-11.7962
▁auctioned	-11.7963
▁dual	-11.7964
▁fiber	-11.7965
▁chart	-11.7967
▁downgraded	-11.7969
▁turf	-11.797
▁antiquities	-11.7977
▁introducing	-11.7978
▁chevron	-11.7985
▁roche	-11.7989
▁builds	-11.799
▁investigati	-11.7991
bak	-11.7991
▁col	-11.7992
▁squash	-11.7992
▁paulson	-11.7996
▁hornets	-11.7997
▁lahore	-11.8
▁unauthorized	-11.8
▁fifty	-11.8
▁networking	-11.8002
yard	-11.8003
▁fundraising	-11.8003
▁steelmaker	-11.8005
pu	-11.8006
▁stark	-11.8008
▁mourinho	-11.8008
▁teresa	-11.8008
▁lusaka	-11.8008
ain	-11.8008
▁kashmiri	-11.8012
▁feeding	-11.8015
▁malcolm	-11.8015
▁zia	-11.8018
▁amend	-11.8021
▁define	-11.8023
▁enthusiasm	-11.8023
▁mickelson	-11.8023
▁augusto	-11.8024
▁chasing	-11.8027
▁khamenei	-11.8031
▁bermuda	-11.8031
▁clearance	-11.8031
▁listen	-11.8033
▁whitewater	-11.8035
▁clemens	-11.8046
▁olympiakos	-11.8046
▁turbulence	-11.8046
elecommunication	-11.805
▁collecting	-11.8052
▁timing	-11.806
del	-11.8062
▁fidelity	-11.8063
▁deficits	-11.8063
▁parcel	-11.8069
###.##	-11.8076
▁succeeded	-11.8077
▁fe	-11.8079
pi	-11.8082
▁stevens	-11.8084
▁fta	-11.8086
▁finale	-11.8088
▁complaining	-11.8088
leg	-11.809
▁fraudulent	-11.8092
▁journalism	-11.8093
▁ecuadorian	-11.8094
▁dispatched	-11.8096
▁comoros	-11.8098
▁balk	-11.81
▁verizon	-11.81
▁youngsters	-11.8106
▁appropriate	-11.8108
▁dalian	-11.8108
▁shelters	-11.8109
▁summons	-11.811
▁obstacle	-11.8113
▁autopsy	-11.8116
▁sana	-11.8118
▁indefinite	-11.8119
▁crowned	-11.8121
▁namibian	-11.8126
wi	-11.8127
▁assigned	-11.8131
▁tripoli	-11.8132
▁bridges	-11.8138
▁whistle	-11.8138
▁relieved	-11.8138
▁deter	-11.814
▁chun	-11.8142
▁stunt	-11.8143
▁gradually	-11.8149
▁purported	-11.815
▁videos	-11.815
▁cheers	-11.8152
▁episcopal	-11.8154
▁sponsors	-11.8154
▁addis	-11.8155
▁owing	-11.8157
▁escalated	-11.8161
▁articles	-11.8166
▁lara	-11.8167
▁steroids	-11.8167
armed	-11.8168
▁climbers	-11.8168
▁breath	-11.8169
▁punjab	-11.817
▁ta	-11.8173
▁globalization	-11.8173
▁luther	-11.8177
▁russell	-11.8178
▁timber	-11.8178
▁hostilities	-11.8186
▁depressed	-11.819
▁vermont	-11.8194
▁rushing	-11.8194
▁rudd	-11.8195
african	-11.8199
▁mock	-11.82
shift	-11.82
▁bang	-11.8201
▁inadequate	-11.8201
▁scenic	-11.8201
▁placing	-11.8201
tz	-11.8201
▁rover	-11.8203
▁realize	-11.8203
▁portrait	-11.8204
▁britney	-11.8209
▁pioneering	-11.821
▁improves	-11.8214
nie	-11.8221
▁rifles	-11.8222
▁construct	-11.8223
▁banco	-11.8223
▁anonymous	-11.8225
▁ryanair	-11.8225
▁karen	-11.8226
▁programming	-11.8228
▁naked	-11.8229
▁gerald	-11.8231
ied	-11.8231
▁tag	-11.8232
▁aerial	-11.8233
▁jolts	-11.8234
▁convict	-11.8236
▁shutt	-11.8236
▁novak	-11.8237
yo	-11.8239
▁sin	-11.824
▁resigning	-11.8241
▁ghanaian	-11.8241
▁beloved	-11.8243
▁sounded	-11.8249
▁observed	-11.8254
▁shrink	-11.8255
▁branded	-11.8257
▁stall	-11.8263
▁franklin	-11.8265
▁poisoned	-11.8265
▁subdued	-11.8266
▁dayton	-11.8266
▁greatly	-11.8268
▁arabic	-11.8268
▁gar	-11.8268
▁amp	-11.827
▁creative	-11.8272
▁navigation	-11.8272
ised	-11.8274
▁landmine	-11.8274
▁venues	-11.8274
▁instant	-11.8276
▁cheating	-11.8279
▁editorial	-11.8281
▁hearts	-11.8282
ber	-11.8282
key	-11.8283
▁whatever	-11.8285
▁prompts	-11.8287
new	-11.8289
▁videotape	-11.8289
▁blunt	-11.8291
▁modernize	-11.8295
▁aground	-11.8296
▁filling	-11.8301
▁pills	-11.8302
▁identification	-11.8304
▁operative	-11.8304
▁sophisticated	-11.8304
▁extortion	-11.8309
▁scaled	-11.8311
▁helsinki	-11.8311
▁bible	-11.8312
▁marcus	-11.8313
▁rao	-11.8316
▁iranians	-11.8316
▁characters	-11.8318
cut	-11.8319
▁anticipation	-11.8319
▁diamondbacks	-11.8319
▁sufficient	-11.8324
▁chandr	-11.8325
▁sleeping	-11.8326
course	-11.8326
▁assume	-11.8329
▁lauds	-11.8331
▁nestle	-11.8331
▁heal	-11.8331
▁ya	-11.8333
▁artifacts	-11.8336
▁equatoria	-11.8342
▁ot	-11.8342
▁nail	-11.8342
▁magnate	-11.8343
▁disqualified	-11.8344
ack	-11.8344
▁shifted	-11.8344
▁powered	-11.8347
▁manner	-11.8349
▁towers	-11.8349
▁alleges	-11.835
▁gubernatorial	-11.8351
▁teach	-11.8353
▁audio	-11.8354
▁spectators	-11.8354
▁clan	-11.8354
▁revealing	-11.8356
▁gloomy	-11.8363
▁minors	-11.8366
▁bolstered	-11.8366
▁alcatel	-11.8367
▁nashville	-11.8367
▁steelers	-11.8368
▁rebounding	-11.8372
▁archipelago	-11.8375
▁liaison	-11.8375
▁collaboration	-11.8375
founder	-11.8375
▁newborn	-11.8378
▁tapp	-11.8381
▁imposes	-11.8384
▁manhunt	-11.8384
▁broadband	-11.8391
▁eradicate	-11.8391
▁micro	-11.8397
▁thorpe	-11.8399
▁kinmen	-11.8399
▁bread	-11.8399
▁button	-11.8402
▁commuters	-11.8404
▁marino	-11.8406
▁borussia	-11.8407
▁background	-11.8408
ye	-11.8412
▁buzz	-11.8416
▁exploit	-11.8417
▁santiago	-11.8423
▁indicate	-11.8424
▁bare	-11.8425
▁rossi	-11.8426
▁rocker	-11.8427
▁metres	-11.8432
▁moldovan	-11.8436
ue	-11.8436
▁swoop	-11.8437
▁pianist	-11.8439
▁ultimate	-11.8442
▁broadcasts	-11.8447
▁icy	-11.8451
▁represented	-11.8454
▁stricter	-11.8455
▁andean	-11.8456
▁tata	-11.8456
▁growers	-11.8456
▁objects	-11.8456
▁packers	-11.8462
▁intensifies	-11.8463
▁negligence	-11.8463
▁denis	-11.8465
▁expires	-11.8465
▁format	-11.847
▁bogota	-11.8471
▁flexibility	-11.8471
▁skepticism	-11.8471
▁juniors	-11.8472
▁rarely	-11.8476
▁fare	-11.8476
ended	-11.8483
▁sore	-11.8486
▁innocence	-11.8487
▁brewing	-11.8489
▁vaccination	-11.8493
▁farmland	-11.8497
▁monarchy	-11.85
▁undertake	-11.8502
▁divisive	-11.8503
▁deliberately	-11.8507
▁displayed	-11.8511
goal	-11.8514
▁describe	-11.8516
▁lodged	-11.8518
▁hoax	-11.8519
▁jeep	-11.8519
▁spitzer	-11.852
▁consult	-11.8522
▁pavel	-11.8523
▁random	-11.8523
▁collins	-11.8527
▁compact	-11.8528
▁lobbyist	-11.8528
▁load	-11.8529
▁detectives	-11.853
▁truckers	-11.8531
▁spirits	-11.8531
▁jam	-11.8535
▁credible	-11.8535
▁sterling	-11.8535
▁interfere	-11.8535
▁rental	-11.8537
▁missionary	-11.854
▁obligations	-11.8541
room	-11.8543
▁nike	-11.8544
▁lets	-11.8547
▁nun	-11.8548
▁clinical	-11.855
▁monsoon	-11.8552
▁airplanes	-11.8555
▁concession	-11.8559
▁impending	-11.856
▁attendants	-11.8561
india	-11.8562
▁catcher	-11.8562
her	-11.8563
▁acknowledges	-11.8567
▁geological	-11.8568
▁toddler	-11.8568
▁backup	-11.8569
ming	-11.8571
board	-11.8573
▁secretariat	-11.8576
▁clinics	-11.8579
▁sharemarket	-11.8581
▁grade	-11.8585
▁disappoint	-11.859
▁heilongjiang	-11.8592
▁investigates	-11.8594
▁purpose	-11.8594
▁throat	-11.8596
▁bitterly	-11.8598
▁kar	-11.8604
▁dae	-11.8605
▁battlefield	-11.8605
▁generated	-11.8607
▁mercantile	-11.8608
▁latter	-11.8609
▁shun	-11.8612
▁exam	-11.8615
▁campaigners	-11.8616
▁comesa	-11.8616
▁obesity	-11.8618
▁bourses	-11.8621
▁circumstances	-11.8621
▁booked	-11.8623
▁multilateral	-11.8625
tte	-11.8625
▁imam	-11.8625
▁raft	-11.8625
▁explorer	-11.8629
▁mph	-11.8629
▁zhou	-11.863
▁influx	-11.8633
▁snowfall	-11.8633
▁upgraded	-11.8634
▁mess	-11.8637
▁antarctic	-11.8638
▁detail	-11.8638
▁transformed	-11.8641
▁disrupting	-11.8646
▁smash	-11.8652
▁revision	-11.8653
▁resorts	-11.8654
▁pin	-11.8654
▁vo	-11.8656
zer	-11.8657
▁publishers	-11.8658
pr	-11.8664
▁predominantly	-11.8666
▁portsmouth	-11.8666
▁argue	-11.8667
▁romantic	-11.8667
strapp	-11.8668
ara	-11.8668
▁xiamen	-11.8674
▁kenny	-11.8674
▁bargaining	-11.8682
▁logistics	-11.8682
▁existence	-11.8685
ren	-11.8686
▁tail	-11.8688
▁daewoo	-11.869
▁philips	-11.8691
all	-11.8692
▁requirement	-11.8694
▁slick	-11.8696
▁memphis	-11.8698
▁misery	-11.8698
▁smoothly	-11.87
▁margins	-11.8701
▁cream	-11.8704
▁logging	-11.8711
▁tribesmen	-11.8715
▁diversity	-11.8715
▁traces	-11.8716
▁accompanie	-11.8717
friendly	-11.8717
▁charm	-11.872
pakistan	-11.8721
▁brilliant	-11.8723
▁estranged	-11.8723
wicket	-11.8724
mp	-11.8725
▁papua	-11.8731
▁rebuke	-11.8735
▁adjust	-11.8735
▁creator	-11.8738
▁gauge	-11.874
▁felony	-11.874
▁evaluation	-11.8742
▁acid	-11.8743
▁distribut	-11.8748
▁grandmother	-11.8749
▁tape	-11.8749
▁rene	-11.875
cha	-11.8751
▁jerem	-11.8757
▁colon	-11.8758
pping	-11.8762
▁blacklist	-11.8763
▁slashing	-11.8764
▁minds	-11.8764
low	-11.8766
ward	-11.8768
▁coma	-11.8769
▁dampen	-11.877
▁vigil	-11.8772
▁kibaki	-11.8773
▁fann	-11.8773
▁colorful	-11.8773
▁wi	-11.8774
▁wolfowitz	-11.8781
▁dug	-11.8781
▁doomed	-11.8782
▁grocery	-11.8782
▁blessing	-11.8785
▁sensation	-11.8787
▁fina	-11.8788
▁mortgages	-11.8788
▁sliding	-11.8789
▁medicaid	-11.8789
record	-11.879
▁lou	-11.879
▁handball	-11.879
opening	-11.8793
▁cousin	-11.8795
▁warne	-11.8797
▁rafsanjani	-11.8798
▁gibson	-11.8798
▁secondary	-11.8803
▁stormy	-11.8803
▁goodbye	-11.8806
▁mekong	-11.8806
▁denounc	-11.8807
▁subsidy	-11.8807
▁roland	-11.8809
▁remembers	-11.8812
▁guaranteed	-11.8812
▁ver	-11.8812
▁ibf	-11.8814
▁wet	-11.8815
▁concentrate	-11.8815
dumping	-11.8815
▁invitational	-11.8817
▁aggressively	-11.8819
▁ike	-11.882
▁bets	-11.882
▁assisted	-11.8822
▁dwindling	-11.8822
▁intimidation	-11.8822
▁jeffrey	-11.8823
▁ugly	-11.8823
▁hamper	-11.8827
▁fur	-11.8827
▁justices	-11.8831
▁circus	-11.8831
▁twa	-11.8833
bin	-11.8833
▁referees	-11.8834
win	-11.8836
pp	-11.8836
▁differ	-11.8839
▁recruitment	-11.8839
▁mci	-11.8844
▁lovers	-11.8846
▁haas	-11.885
▁bicycle	-11.8853
▁dissolved	-11.8855
▁routed	-11.8855
▁hazardous	-11.8856
dor	-11.8858
▁pleas	-11.886
▁compaq	-11.8864
▁casey	-11.8868
▁mudslides	-11.887
▁households	-11.8872
▁pradesh	-11.8873
▁sihanouk	-11.8873
▁follows	-11.8874
montenegro	-11.8874
▁thwarted	-11.8875
▁intensifying	-11.8875
art	-11.8877
▁purchasing	-11.8881
▁extinction	-11.8881
▁slavery	-11.8881
▁jilin	-11.8881
▁tb	-11.8882
▁columnist	-11.8882
▁wallace	-11.8882
arab	-11.8886
▁discharged	-11.8887
▁scramble	-11.8888
▁prizes	-11.8889
▁concacaf	-11.8889
▁crashing	-11.8891
▁dire	-11.8893
▁proliferation	-11.8893
ance	-11.8896
▁amtrak	-11.8898
▁oprah	-11.8898
▁ro	-11.8899
▁drives	-11.8899
▁enhanc	-11.8899
european	-11.89
▁portray	-11.8904
▁subscribers	-11.8906
▁bulk	-11.8906
▁owed	-11.8907
yan	-11.8911
▁clarify	-11.8914
▁outcry	-11.8914
▁duncan	-11.8914
▁tent	-11.8915
▁wallabies	-11.8923
▁saarc	-11.8923
▁accelerated	-11.8923
▁expressway	-11.8925
▁mulling	-11.893
▁ar	-11.8932
▁rear	-11.8932
▁tomas	-11.8932
▁bottle	-11.8935
▁distributed	-11.8937
tel	-11.8941
▁disruption	-11.8941
▁##,###-	-11.8941
▁salvadoran	-11.8944
▁seals	-11.8945
▁reversal	-11.8948
▁tumult	-11.8948
▁spector	-11.8948
▁owe	-11.8949
▁interstate	-11.895
▁totaling	-11.8952
▁tele	-11.8953
▁conventional	-11.8955
▁khodorkovsky	-11.8957
▁undefeated	-11.8957
▁delegate	-11.8957
▁ruble	-11.8957
fly	-11.8959
▁cheering	-11.8959
▁ultimately	-11.8961
▁drastic	-11.8965
▁parallel	-11.8965
▁entitl	-11.8966
▁enhanced	-11.8969
▁canadiens	-11.8973
▁complicated	-11.8978
▁cho	-11.8978
▁outline	-11.8979
▁ju	-11.898
▁shiites	-11.8981
▁mccartney	-11.8982
▁pricing	-11.8982
shan	-11.8986
▁holbrooke	-11.899
▁strengthens	-11.8991
▁mourned	-11.8992
▁negotiation	-11.8992
▁si	-11.8995
▁reflects	-11.8997
environmentalist	-11.8999
▁fueling	-11.9008
▁speeches	-11.9012
▁tourney	-11.9013
▁benfica	-11.9016
▁symphony	-11.9016
▁ababa	-11.9016
▁confronted	-11.9016
▁paraguayan	-11.902
▁pakistanis	-11.9023
▁cambridge	-11.9024
▁abortions	-11.903
▁feuding	-11.9032
▁cu	-11.9032
▁trends	-11.9034
▁stray	-11.9041
▁indoors	-11.9043
▁employ	-11.9043
▁neil	-11.9044
▁diamonds	-11.9045
▁phillips	-11.9045
▁wiped	-11.9051
▁occasion	-11.9051
▁habitat	-11.9053
▁nan	-11.9055
▁robot	-11.9061
▁rematch	-11.9062
▁cooling	-11.9063
▁stave	-11.9064
▁theaters	-11.9065
ala	-11.9067
▁glasgow	-11.9067
▁nuri	-11.9067
▁smallest	-11.9068
▁forging	-11.9069
▁sticks	-11.9069
▁keane	-11.9075
▁invested	-11.9078
▁lindh	-11.9083
▁catastrophic	-11.9084
▁procurement	-11.9084
▁earliest	-11.9084
▁promoter	-11.9084
▁disposal	-11.9084
▁relevant	-11.9092
▁trek	-11.9096
▁webber	-11.9096
▁premature	-11.9097
cent	-11.9097
▁ransom	-11.91
▁provocative	-11.9101
▁zidane	-11.9101
degree	-11.9103
▁swimmers	-11.9109
▁gibraltar	-11.911
▁polo	-11.911
▁sergeant	-11.911
▁countdown	-11.911
▁smokers	-11.9111
ola	-11.9112
▁finalists	-11.9113
▁touring	-11.9114
▁carol	-11.9114
crime	-11.9117
▁darren	-11.9118
▁diverted	-11.9118
▁walks	-11.9122
▁episode	-11.9123
▁represents	-11.9125
page	-11.9128
wrack	-11.9133
▁suspicions	-11.9133
grade	-11.9134
▁refineries	-11.9135
▁freeway	-11.9136
▁op	-11.914
▁pac	-11.9141
third	-11.9143
▁yorkers	-11.9144
iest	-11.9147
ura	-11.9147
▁heartland	-11.9148
▁improperly	-11.9149
▁freshman	-11.915
▁pregnancy	-11.9152
▁johansson	-11.9152
▁shipyard	-11.9159
▁worshippers	-11.9161
▁achieving	-11.9163
▁chat	-11.9167
▁ghost	-11.9168
▁opposite	-11.917
▁gi	-11.9172
chief	-11.9172
▁mas	-11.9174
▁departed	-11.9177
▁bristol	-11.9178
▁tainan	-11.9178
▁antarctica	-11.9182
▁repatriate	-11.9187
▁shirt	-11.9187
▁justify	-11.9187
▁jamie	-11.9187
▁mont	-11.9188
▁drafted	-11.9189
▁ecological	-11.9196
▁backdrop	-11.9196
▁ahern	-11.9204
▁postponement	-11.9205
▁pie	-11.9205
▁pt	-11.9205
▁rita	-11.9205
▁fugitives	-11.9207
▁banner	-11.9208
▁taxation	-11.9212
▁reputed	-11.9213
▁coin	-11.9215
▁seaside	-11.9216
ching	-11.9218
▁inland	-11.922
▁destined	-11.9222
▁kodak	-11.9222
dawn	-11.9224
▁audiences	-11.9226
▁paralympic	-11.9228
▁notre	-11.9229
▁populist	-11.9231
▁wag	-11.9234
▁hydro	-11.9234
▁taekwondo	-11.9239
▁americas	-11.9239
▁trace	-11.9248
▁feast	-11.9248
▁swarm	-11.9254
▁henman	-11.9257
▁tame	-11.9257
▁lobbyists	-11.9257
▁organs	-11.9258
▁hbo	-11.9259
▁accidental	-11.9262
▁kirk	-11.9263
▁geithner	-11.9265
▁bullish	-11.9265
▁rainfall	-11.9265
ated	-11.9266
▁canadians	-11.9271
▁fi	-11.9272
▁consultation	-11.9273
▁kurdistan	-11.9274
▁pulitzer	-11.9274
▁reliable	-11.9274
▁alarming	-11.9274
▁ideal	-11.9274
▁dim	-11.9275
▁chung	-11.9277
▁catches	-11.9278
▁eventual	-11.9278
▁spearhead	-11.9283
▁proves	-11.9284
▁clubhouse	-11.9286
liners	-11.9287
▁reed	-11.9288
▁archives	-11.9288
▁worsen	-11.929
▁rowing	-11.929
▁reynolds	-11.93
▁monk	-11.9301
▁peer	-11.9301
▁clinches	-11.9303
▁lied	-11.9306
▁manufacture	-11.9307
▁podium	-11.9309
▁physician	-11.9309
▁treasurer	-11.931
▁knocking	-11.9314
▁coroner	-11.9317
west	-11.9321
▁menem	-11.9325
▁egg	-11.9325
▁cricketers	-11.9325
▁shaking	-11.9326
▁manufactured	-11.9327
▁countryside	-11.9327
▁midst	-11.9328
▁ridge	-11.9328
▁capsiz	-11.9329
▁adventure	-11.933
▁pageant	-11.9335
▁airlift	-11.9335
ile	-11.9337
▁willie	-11.9341
serving	-11.9341
▁pairs	-11.9344
▁chanting	-11.9345
▁mwa	-11.9348
▁dome	-11.9351
▁dominates	-11.9352
raiser	-11.9352
▁staunch	-11.9352
▁nonprofit	-11.9353
marie	-11.9357
nations	-11.9358
▁sacks	-11.9359
▁hull	-11.9362
▁patrolling	-11.9363
▁praising	-11.9364
nette	-11.9369
▁drugmaker	-11.9369
▁juppe	-11.937
▁height	-11.9371
▁attraction	-11.9373
▁techniques	-11.9374
▁tours	-11.938
▁deepened	-11.9382
▁skeleton	-11.9388
▁arrangement	-11.939
▁abandoning	-11.9394
▁coke	-11.9394
▁sack	-11.9396
▁lewinsky	-11.9396
▁deploying	-11.9397
▁downgrade	-11.9398
▁desperately	-11.9399
▁cristian	-11.94
fl	-11.9403
▁courage	-11.9405
▁laboratories	-11.9405
net	-11.9411
tank	-11.9414
▁rasmussen	-11.9414
▁purchased	-11.9419
▁nicholas	-11.9423
▁suriname	-11.9423
▁breakfast	-11.9423
▁whitman	-11.9423
▁hottest	-11.9424
▁romance	-11.9425
▁premium	-11.9425
▁dinosaur	-11.9426
▁tumor	-11.9426
claude	-11.9426
brien	-11.9429
▁integrated	-11.9429
ett	-11.943
▁barbados	-11.9432
▁transaction	-11.9435
▁slapp	-11.9435
▁tar	-11.9436
▁casinos	-11.9438
▁rim	-11.9442
▁kronor	-11.9449
▁ordeal	-11.9449
▁sickened	-11.9449
▁laser	-11.945
▁bnp	-11.945
▁scuffle	-11.9452
▁starter	-11.9452
▁jaffna	-11.9458
▁jeopardy	-11.9458
▁peugeot	-11.9458
▁repression	-11.9458
▁moya	-11.9459
▁ana	-11.9459
▁hackers	-11.946
▁treasures	-11.9467
▁darkness	-11.9468
▁broaden	-11.9469
▁maid	-11.9479
▁forgotten	-11.948
▁guided	-11.9483
▁anew	-11.9484
▁schoolchildren	-11.9485
▁pure	-11.9488
▁checking	-11.9489
▁pitches	-11.9489
▁suggestion	-11.9491
▁paula	-11.9493
▁punitive	-11.9494
▁skull	-11.9494
▁substantially	-11.9495
table	-11.9496
iz	-11.9498
ese	-11.95
▁okinawa	-11.9503
▁selective	-11.9503
▁guru	-11.9503
▁holland	-11.9503
▁implemented	-11.9507
▁mosques	-11.9507
▁eli	-11.9508
▁lots	-11.9509
▁quitting	-11.9513
▁reply	-11.9515
▁rang	-11.9516
▁stretched	-11.9516
▁sara	-11.952
▁classical	-11.952
▁devastation	-11.952
▁birthplace	-11.9521
▁breeders	-11.9526
▁ambulance	-11.9529
▁plain	-11.953
▁invade	-11.9532
▁oilers	-11.9534
versus	-11.9534
▁exceeded	-11.9537
▁profitability	-11.954
bl	-11.9541
ila	-11.9542
▁decreased	-11.9543
▁keeper	-11.9544
▁competitions	-11.9546
▁pablo	-11.9547
▁tuition	-11.9547
tra	-11.9548
▁isaf	-11.9548
▁gustav	-11.9553
▁drills	-11.9553
▁labels	-11.9553
▁ecstasy	-11.9556
▁sicily	-11.9556
▁strains	-11.9557
▁kilometres	-11.9562
▁eindhoven	-11.9565
▁sunderland	-11.9565
▁stoppage	-11.9567
▁gil	-11.9567
▁homers	-11.9573
▁installations	-11.9573
▁stirs	-11.9576
▁explode	-11.9581
▁flagging	-11.9583
▁wives	-11.9583
▁wigan	-11.9586
▁guidance	-11.9592
▁infamous	-11.9593
▁outlets	-11.9593
▁reinstated	-11.9594
▁personally	-11.9596
use	-11.9599
▁reunited	-11.96
▁tallest	-11.9602
hra	-11.9602
▁pattern	-11.9608
▁belief	-11.9608
▁doug	-11.961
▁villepin	-11.961
▁balls	-11.9611
▁assumed	-11.9611
▁saab	-11.9611
rt	-11.9613
dr	-11.9615
▁reaffirm	-11.9616
▁relax	-11.9616
▁kinshasa	-11.9619
▁starbucks	-11.9619
▁fahd	-11.9619
▁demo	-11.9627
▁crocodile	-11.9628
▁wcup	-11.9628
▁peacekeeper	-11.9629
▁encourages	-11.9632
▁develops	-11.9636
▁acquittal	-11.9637
▁sulawesi	-11.9637
▁ablaze	-11.9637
▁catching	-11.9639
▁nobody	-11.964
▁conflicting	-11.9641
▁painted	-11.9644
zo	-11.9645
▁drown	-11.9645
▁absent	-11.9646
▁hepatitis	-11.9646
▁playwright	-11.9646
▁polanski	-11.9646
▁maize	-11.9647
▁demolished	-11.9648
▁chairwoman	-11.9652
▁perot	-11.9657
▁uniforms	-11.9662
▁affiliate	-11.9664
▁santander	-11.9664
▁newark	-11.9664
▁censorship	-11.9666
▁midway	-11.9667
▁kent	-11.9668
▁luggage	-11.9673
▁haitians	-11.9677
▁soup	-11.9678
graft	-11.9678
▁scope	-11.9681
▁consistent	-11.9682
▁rotation	-11.9683
▁revelations	-11.9688
▁metropolis	-11.9691
▁sanctuary	-11.9691
▁spencer	-11.9691
▁shipped	-11.9692
▁censure	-11.9692
▁elvis	-11.9692
▁eurostat	-11.9692
proliferation	-11.9693
▁inches	-11.9693
▁pleading	-11.9693
▁infringement	-11.9694
▁compliance	-11.9694
play	-11.9695
▁fading	-11.9697
▁swings	-11.9698
▁headline	-11.97
▁idaho	-11.9701
▁roared	-11.9702
▁scoreless	-11.9702
▁aware	-11.9703
▁cab	-11.9704
▁touted	-11.9708
▁sacred	-11.971
▁reservoir	-11.971
▁spilled	-11.9712
control	-11.9713
▁earmark	-11.9716
▁blizzard	-11.9719
▁adequate	-11.9724
smoking	-11.9724
▁eduard	-11.9725
▁echo	-11.9728
▁kraft	-11.9728
▁bride	-11.9728
▁ruth	-11.973
▁sikh	-11.9737
fez	-11.9739
▁ce	-11.9741
▁butler	-11.9745
fired	-11.9746
▁els	-11.9746
▁pepper	-11.9746
▁hart	-11.9747
ny	-11.9747
▁sham	-11.9747
▁pumping	-11.9747
▁installation	-11.9748
▁mum	-11.9748
oriented	-11.9753
▁moro	-11.9755
▁baron	-11.9755
▁jammu	-11.9755
bomb	-11.9759
▁breeding	-11.9759
▁boot	-11.976
▁respective	-11.9761
▁cas	-11.9764
▁relaunch	-11.9765
▁misleading	-11.9768
▁headlines	-11.9774
▁guizhou	-11.9774
▁packing	-11.9775
wan	-11.9776
▁update	-11.9776
▁blows	-11.9778
▁components	-11.9778
▁astronomers	-11.9779
▁kostunica	-11.9783
▁observatory	-11.9783
▁redskins	-11.9783
▁evolution	-11.9789
▁flowing	-11.9793
▁chadian	-11.9793
▁readies	-11.9793
▁assure	-11.9795
▁cleaner	-11.9797
▁disruptions	-11.9801
▁werder	-11.9801
▁parked	-11.9809
▁silk	-11.9819
▁pfp	-11.9819
▁jiangxi	-11.982
▁enjoys	-11.9823
missile	-11.9825
▁midterm	-11.9826
▁scorer	-11.9827
▁physics	-11.9829
▁volatility	-11.9829
▁annika	-11.9829
▁classroom	-11.9832
arroyo	-11.9834
▁meningitis	-11.9838
▁swat	-11.984
▁hawk	-11.984
▁jackie	-11.9849
▁succession	-11.985
▁fuels	-11.9851
▁hangs	-11.9855
▁sagging	-11.9856
▁vodafone	-11.9856
▁funny	-11.9856
▁designers	-11.9857
▁concorde	-11.9858
▁shooter	-11.9858
▁chu	-11.9859
▁hashimoto	-11.9865
▁nkorean	-11.9866
▁adrian	-11.9868
▁saleh	-11.9878
▁corinthians	-11.9884
▁lavrov	-11.9884
▁homage	-11.9884
▁dakota	-11.9884
▁cheng	-11.9885
▁topic	-11.9888
▁brisk	-11.989
keeping	-11.9892
▁overcoming	-11.9894
▁campaigner	-11.9896
▁touchdown	-11.9898
▁viacom	-11.9904
▁checkpoints	-11.9904
▁corpses	-11.9904
▁personality	-11.9905
▁sonia	-11.991
▁digging	-11.9912
▁salaam	-11.9912
▁unspecified	-11.9912
▁slogans	-11.9917
▁cops	-11.9918
▁grandson	-11.992
▁solemn	-11.9921
▁mia	-11.9922
▁lover	-11.9923
▁types	-11.9924
▁convictions	-11.9926
▁constant	-11.9928
▁heats	-11.9935
▁competitor	-11.9936
▁blackmail	-11.9936
▁tossed	-11.9938
▁retaliate	-11.994
seat	-11.9943
▁legs	-11.9945
division	-11.9945
▁attributed	-11.9947
▁parmalat	-11.9949
▁heels	-11.9951
▁solved	-11.9952
finding	-11.9955
▁shine	-11.9958
▁rugged	-11.9958
▁sacking	-11.9959
▁flashpoint	-11.9959
▁judo	-11.996
▁innovative	-11.9968
▁ear	-11.9968
▁mauritanian	-11.997
▁examined	-11.9971
▁generating	-11.9971
▁acclaimed	-11.9974
don	-11.9976
▁chill	-11.9977
▁bruno	-11.9977
dar	-11.9983
▁transfers	-11.9983
▁mitterrand	-11.9986
▁physicist	-11.9986
▁villarreal	-11.9986
▁chuck	-11.9986
▁blackwater	-11.9989
▁candy	-11.9992
▁departments	-11.9992
▁yong	-11.9995
▁fundraiser	-11.9998
▁colts	-12
▁museums	-12
▁deliberate	-12.0001
▁assures	-12.0003
▁provoked	-12.0003
▁curtail	-12.0005
▁ramirez	-12.0005
▁flexible	-12.0005
lying	-12.0011
▁reinforcements	-12.0011
▁drowning	-12.0015
▁myung	-12.0017
▁approache	-12.0022
▁adelaide	-12.0024
▁doubling	-12.0024
▁inviting	-12.0024
▁derek	-12.0024
▁professors	-12.0025
▁vikings	-12.0026
▁loyalists	-12.0027
▁erik	-12.0028
ral	-12.0029
▁er	-12.0032
▁overshadow	-12.0033
lon	-12.0034
▁allocate	-12.0037
▁blackhawks	-12.004
dine	-12.0042
▁battleground	-12.0043
▁doh	-12.0044
▁spared	-12.0047
▁dent	-12.0049
▁hormone	-12.0051
▁iverson	-12.0052
▁nalbandian	-12.0052
▁brigades	-12.0053
▁outraged	-12.0057
▁beverage	-12.006
▁widen	-12.0065
▁complains	-12.0065
ski	-12.0067
▁bode	-12.0071
▁ethanol	-12.0071
laden	-12.0078
▁earnhardt	-12.008
▁coa	-12.0082
vo	-12.0082
▁casts	-12.0083
▁safrica	-12.0089
▁arrange	-12.0089
▁horizon	-12.009
▁savage	-12.009
▁proving	-12.009
agers	-12.0092
▁skidd	-12.0094
▁prosecuted	-12.0095
▁attracts	-12.0095
▁cage	-12.0096
▁assaulted	-12.0097
▁comparison	-12.0099
▁jse	-12.0102
▁leaks	-12.0103
▁helms	-12.0103
▁cooper	-12.0104
▁bengal	-12.0104
uk	-12.0105
▁recommendation	-12.0109
▁eclipse	-12.011
decade	-12.0115
▁dodge	-12.0117
▁dioxide	-12.0118
▁distributor	-12.0119
▁franz	-12.0119
▁harmony	-12.0119
▁lebed	-12.012
▁artistic	-12.0122
▁billed	-12.0122
pped	-12.0123
▁funded	-12.0125
▁fundamentalists	-12.0126
▁protracted	-12.0128
▁transformation	-12.0128
▁tidal	-12.0128
▁nyse	-12.0128
▁canary	-12.0129
▁matchup	-12.0129
▁flaws	-12.0132
▁pupils	-12.0136
▁sword	-12.0136
▁contests	-12.0136
▁heaven	-12.0137
▁shaquille	-12.0137
▁clout	-12.0137
▁moammar	-12.0137
▁hubble	-12.0137
▁thrashers	-12.0138
▁noise	-12.0138
▁snatched	-12.0147
▁hammered	-12.0148
▁featured	-12.0149
▁govern	-12.0153
haul	-12.0155
▁debating	-12.0156
▁basket	-12.0156
▁arap	-12.0156
▁reap	-12.0158
ros	-12.0165
▁mobutu	-12.0166
▁thatcher	-12.0166
▁thunder	-12.0167
▁yassin	-12.0168
▁divert	-12.0171
val	-12.0172
▁mega	-12.0174
▁embroil	-12.0175
▁frantic	-12.0175
▁attached	-12.0177
dated	-12.0181
▁flamengo	-12.0185
▁twitter	-12.0185
▁doubtful	-12.0186
▁exiles	-12.0188
▁manning	-12.0196
▁drone	-12.0198
▁winding	-12.0201
▁olive	-12.0201
▁packages	-12.0203
▁kuerten	-12.0204
▁bombardment	-12.0204
▁jonas	-12.0205
▁hover	-12.0209
▁tribes	-12.021
ious	-12.0211
▁lean	-12.0219
▁shu	-12.022
▁moslems	-12.0221
▁frame	-12.0222
▁exposition	-12.0223
▁licensing	-12.0223
▁approving	-12.0223
▁plutonium	-12.0223
▁ru	-12.0226
▁mao	-12.023
▁clampdown	-12.0233
▁overwhelmed	-12.0241
africa	-12.0241
▁emphasis	-12.0242
▁ni	-12.0242
book	-12.0242
▁outlaw	-12.0249
▁racially	-12.0253
▁nod	-12.0254
▁teeth	-12.0255
▁thigh	-12.0258
rc	-12.026
▁strauss	-12.0261
▁thomson	-12.0261
▁breakup	-12.0266
▁sepp	-12.0268
▁lisa	-12.0268
▁cockpit	-12.0271
▁kamal	-12.0271
▁mason	-12.0274
▁absolute	-12.0276
▁countrywide	-12.0277
▁companion	-12.028
▁vieira	-12.028
▁bangguo	-12.0281
▁attractive	-12.0281
▁limbo	-12.0282
▁costas	-12.0284
▁void	-12.0286
▁marches	-12.0286
▁winless	-12.0287
▁dancer	-12.0289
▁confederations	-12.0289
▁davydenko	-12.029
▁soybeans	-12.0295
▁patriotic	-12.0296
▁acknowledg	-12.0297
▁ngo	-12.0299
▁halliburton	-12.03
▁throne	-12.03
▁uneasy	-12.03
▁iberia	-12.03
▁mls	-12.03
▁disc	-12.03
▁stuff	-12.0301
▁relieve	-12.0308
▁hai	-12.0311
▁protectionism	-12.0312
building	-12.0313
gue	-12.0313
▁importing	-12.032
▁splash	-12.0322
▁pirated	-12.0322
▁kurt	-12.0323
▁magazines	-12.0323
▁fisher	-12.0323
ua	-12.0327
▁wie	-12.0327
▁badawi	-12.0329
▁brisbane	-12.0329
▁fiorentina	-12.0329
▁sorry	-12.0329
▁dragging	-12.0329
▁avenge	-12.0329
▁canceling	-12.0333
▁float	-12.0335
aziz	-12.0337
▁squads	-12.0338
▁oxford	-12.0338
▁restrain	-12.0342
ure	-12.0347
▁dominating	-12.0348
▁sunny	-12.0349
▁cake	-12.0351
▁touches	-12.0352
▁commando	-12.0353
▁pistol	-12.0354
▁mcc	-12.0355
▁firefight	-12.0356
▁locations	-12.0356
▁infectious	-12.0358
▁lightweight	-12.0358
▁sebastien	-12.0359
▁temperature	-12.0364
▁denial	-12.0364
jung	-12.0364
▁permanently	-12.0364
▁forever	-12.0368
▁ashore	-12.0369
▁jie	-12.037
▁leonard	-12.0374
▁bodyguard	-12.0374
▁frees	-12.0376
▁oilfield	-12.0376
▁hernandez	-12.0377
▁bailey	-12.0378
▁mergers	-12.0381
▁bolstering	-12.0382
▁murphy	-12.0387
▁reckless	-12.0387
▁kidd	-12.039
▁medication	-12.0394
▁graphic	-12.0397
▁anthem	-12.0397
cl	-12.0399
▁printing	-12.0402
▁lifeline	-12.0406
▁marching	-12.0406
▁swap	-12.0407
▁replay	-12.0408
▁fury	-12.0411
▁fairly	-12.0411
▁substances	-12.0416
▁staple	-12.0416
▁evangelical	-12.0416
▁kilos	-12.0417
▁racketeering	-12.0419
▁proclaimed	-12.042
▁reuters	-12.042
▁sits	-12.0423
▁coastline	-12.0424
▁baja	-12.0425
host	-12.0425
▁communism	-12.0426
▁billiton	-12.0426
▁exploitation	-12.0426
hardenne	-12.0427
▁petra	-12.0431
▁fractured	-12.0431
▁thus	-12.0432
▁cannabis	-12.0436
▁nabbed	-12.0436
▁justified	-12.0437
▁alleviate	-12.044
▁wbo	-12.044
▁clemency	-12.0445
▁tracy	-12.0446
▁breathing	-12.0449
▁rash	-12.045
▁fray	-12.0452
ban	-12.0454
▁marie	-12.0455
▁feyenoord	-12.0455
▁meddling	-12.0455
▁deck	-12.0456
▁hardware	-12.0456
▁checked	-12.0456
▁kingpin	-12.0456
▁modernization	-12.0457
▁tbilisi	-12.0457
▁wicket	-12.0461
▁furor	-12.0462
▁lifestyle	-12.0464
▁sacrifice	-12.0465
▁accelerating	-12.0465
▁preview	-12.0465
borne	-12.0468
▁molestation	-12.0468
▁dismantled	-12.0471
abortion	-12.0474
▁inspiration	-12.0474
▁trichet	-12.0475
▁weary	-12.0478
▁certificates	-12.0478
▁credited	-12.0479
▁sothe	-12.048
▁purposes	-12.0483
▁memoir	-12.0484
▁spokesperson	-12.0485
▁charlton	-12.0485
▁leather	-12.0485
▁traditionally	-12.0485
cio	-12.0487
▁stan	-12.0491
▁anywhere	-12.0495
▁palermo	-12.0495
▁hamstring	-12.0495
▁harmful	-12.0495
▁length	-12.0501
▁wield	-12.0501
saving	-12.0502
trick	-12.0502
▁plaza	-12.0506
▁renewing	-12.0507
▁rotterdam	-12.0514
▁undecided	-12.0514
▁welcoming	-12.0514
▁mickey	-12.0514
▁harrison	-12.0516
▁metric	-12.0518
▁factional	-12.0518
▁slashes	-12.0518
▁hoop	-12.0521
▁concerts	-12.0521
▁addiction	-12.0524
▁predictions	-12.0524
▁vanished	-12.0528
▁rebuffed	-12.0532
▁stuart	-12.0534
▁diverse	-12.0541
▁tra	-12.0541
▁bubble	-12.0544
▁canterbury	-12.0544
▁persecution	-12.0544
▁lecture	-12.0545
▁hor	-12.0545
ane	-12.0546
▁walesa	-12.0546
▁dragon	-12.0546
▁reliever	-12.0547
▁lax	-12.0549
▁ponting	-12.0551
▁lg	-12.0552
▁thierry	-12.0554
▁heighten	-12.0555
▁pointing	-12.0559
▁implications	-12.0561
▁climber	-12.0563
▁gateway	-12.0564
hitter	-12.0565
▁undermined	-12.0567
▁cling	-12.0569
school	-12.0572
▁jiaxuan	-12.0574
▁barnes	-12.0574
▁script	-12.0575
▁buffer	-12.0575
▁webb	-12.0579
retz	-12.0581
ily	-12.0581
ea	-12.0582
▁rounded	-12.0585
▁thrilling	-12.0585
▁connect	-12.0586
▁converted	-12.0587
▁bath	-12.0588
aircraft	-12.0593
ix	-12.0593
▁compulsory	-12.0593
▁experiments	-12.0593
▁lodge	-12.0595
▁borrow	-12.0595
▁circulation	-12.0596
reaching	-12.06
▁asbestos	-12.0603
▁distant	-12.0603
▁primakov	-12.0603
▁fcc	-12.0604
▁rode	-12.0612
▁interfering	-12.0613
▁rogge	-12.0613
▁adolf	-12.0614
sam	-12.0616
▁lighting	-12.0616
▁ramon	-12.062
▁defects	-12.0623
▁bulletin	-12.0626
▁trawler	-12.0626
▁dai	-12.0626
▁ink	-12.0626
▁plow	-12.0627
▁commits	-12.0635
▁organic	-12.0635
▁swath	-12.0641
▁jackets	-12.0641
▁ningxia	-12.0643
▁mrs	-12.0645
▁toughen	-12.0645
▁skiers	-12.0649
▁chains	-12.0649
▁reelection	-12.0651
▁selloff	-12.0652
▁alarmed	-12.0652
▁enduring	-12.0653
ita	-12.066
▁monitored	-12.0661
▁bite	-12.0661
▁persist	-12.0664
▁wrap	-12.0664
▁switched	-12.0665
▁pullback	-12.0665
▁criticise	-12.0666
▁gaz	-12.0666
▁totally	-12.0668
▁unveiling	-12.0669
▁shy	-12.0669
▁heist	-12.0671
three	-12.0673
▁huddle	-12.0674
▁revoked	-12.0675
▁basement	-12.0677
▁sanction	-12.0678
operation	-12.068
▁nationally	-12.0681
hwa	-12.0683
▁alcoa	-12.0683
inning	-12.0684
▁entirely	-12.0684
▁fold	-12.0688
▁strikers	-12.069
▁antigua	-12.0693
▁apartheid	-12.0696
▁perjury	-12.0703
▁shrank	-12.0703
▁travels	-12.0705
▁axe	-12.0706
▁imagine	-12.0712
europe	-12.0722
producing	-12.0723
▁reclusive	-12.0723
▁contributing	-12.0723
▁baggage	-12.0723
▁profound	-12.0724
pl	-12.0727
▁disagreement	-12.0728
▁ethical	-12.073
▁ivanisevic	-12.0733
▁winfrey	-12.0733
▁smell	-12.0734
▁tend	-12.0735
▁evaluate	-12.0736
▁surround	-12.0737
▁regularly	-12.0739
▁picket	-12.074
▁beheading	-12.0742
▁pi	-12.0743
▁representation	-12.0744
▁daytona	-12.0748
▁technique	-12.0749
▁statewide	-12.0752
▁beverly	-12.0754
▁elder	-12.0756
▁reservations	-12.0756
▁bryan	-12.0756
▁vegetable	-12.0759
▁gunfight	-12.0761
▁intact	-12.0764
▁jumper	-12.0767
▁aden	-12.0769
▁hotly	-12.077
▁enabl	-12.077
▁dissolve	-12.0771
▁palmer	-12.0773
▁speculative	-12.0774
▁prospective	-12.0774
gun	-12.0779
▁delaware	-12.0784
▁jumbo	-12.0784
▁julian	-12.0784
gh	-12.0784
▁preparat	-12.0784
▁waving	-12.0786
▁shocking	-12.0788
▁cosmetics	-12.0789
▁breeze	-12.079
▁pouring	-12.079
iki	-12.0792
▁audi	-12.0793
herzegovina	-12.0794
▁visible	-12.0794
ical	-12.0795
elle	-12.08
▁trafficker	-12.0802
▁guillerm	-12.0804
▁lhasa	-12.0804
▁tendulkar	-12.0804
anqing	-12.0804
fighting	-12.0809
▁stalls	-12.0812
▁garage	-12.0815
▁administrators	-12.0816
▁vw	-12.0819
▁possessing	-12.0821
▁reductions	-12.0822
▁leicester	-12.0825
▁steffi	-12.0825
▁transparent	-12.0825
▁rudy	-12.0825
▁watches	-12.0826
ernie	-12.0828
acre	-12.0832
▁haze	-12.0833
▁rey	-12.0833
▁studied	-12.0835
duty	-12.0835
▁raza	-12.0837
▁slot	-12.0838
hai	-12.0838
▁kurd	-12.0838
▁fran	-12.0844
▁earl	-12.0844
stock	-12.0844
▁veterinary	-12.0845
team	-12.0848
▁tuna	-12.0848
▁bargains	-12.0852
▁touts	-12.0854
▁robbie	-12.0855
▁intern	-12.086
▁sing	-12.0865
▁equipped	-12.0866
▁nouri	-12.0867
▁shout	-12.0868
▁urgently	-12.0869
▁bru	-12.087
▁champs	-12.0872
▁ramp	-12.0873
▁damon	-12.0873
▁qualification	-12.0873
▁administer	-12.0874
▁chorus	-12.0876
▁liquef	-12.0876
▁rammed	-12.0876
▁centrist	-12.0876
▁descended	-12.0877
▁mal	-12.0877
▁stefan	-12.0878
▁depart	-12.0878
▁zi	-12.0879
rated	-12.088
▁airborne	-12.088
▁legality	-12.0882
▁relentless	-12.0882
▁span	-12.0882
▁extent	-12.0886
pec	-12.0887
▁nickel	-12.0887
▁underline	-12.0887
▁relaxed	-12.0887
▁zapat	-12.0896
cho	-12.0896
▁milf	-12.0897
▁sample	-12.0898
▁tumbles	-12.0903
▁hardest	-12.0904
▁ecuadorean	-12.0906
▁wellington	-12.0906
laundering	-12.0907
muslim	-12.0907
start	-12.0914
▁recipients	-12.0915
▁espn	-12.0916
▁kasparov	-12.0916
▁marxist	-12.0917
▁prudential	-12.0917
rom	-12.0917
▁belmont	-12.0919
▁animated	-12.0919
▁excerpts	-12.0919
▁cali	-12.0919
▁confession	-12.0926
▁spawn	-12.0927
▁buddha	-12.0927
▁mallorca	-12.0927
▁remind	-12.093
▁nest	-12.0933
tivity	-12.0936
▁montgomery	-12.0937
▁preacher	-12.0939
▁rainy	-12.0944
ime	-12.0945
▁violates	-12.0945
▁xu	-12.0948
▁worsened	-12.0949
▁soy	-12.095
▁eid	-12.0952
▁courses	-12.0953
▁barge	-12.0953
▁bal	-12.0957
▁quan	-12.0958
▁choppy	-12.0958
▁libby	-12.0958
▁homosexuality	-12.0958
▁populat	-12.0959
martial	-12.096
▁beam	-12.0962
▁bowlers	-12.0963
lis	-12.0967
▁lumber	-12.0968
▁nippon	-12.0968
▁philanthropist	-12.0968
▁salim	-12.097
dad	-12.097
▁hijacker	-12.0972
▁propelled	-12.0976
▁underwater	-12.0976
▁qu	-12.0977
▁snowstorm	-12.0978
▁shedding	-12.0978
▁spends	-12.098
▁pine	-12.098
▁fargo	-12.0985
▁humor	-12.0988
▁mice	-12.099
▁caucuses	-12.099
▁idb	-12.0991
▁congressmen	-12.0991
▁defect	-12.0992
city	-12.0992
▁elders	-12.0994
▁shouting	-12.0997
▁specter	-12.0999
ena	-12.1
▁containers	-12.1
agent	-12.1004
▁programme	-12.1004
▁mindanao	-12.1009
▁questionable	-12.1013
▁sheet	-12.1016
▁refining	-12.102
▁seahawks	-12.102
▁locally	-12.102
▁medallist	-12.102
defense	-12.1021
▁presentation	-12.1022
▁goran	-12.1029
▁mammoth	-12.103
▁novartis	-12.103
▁inquest	-12.103
▁indicator	-12.1032
▁groundbreaking	-12.1033
▁adventurer	-12.1034
▁heavyweights	-12.1036
▁broadly	-12.1039
▁emperor	-12.104
sign	-12.1042
▁cri	-12.1043
▁andrea	-12.1049
let	-12.1053
och	-12.1054
▁cry	-12.1059
ari	-12.1061
▁canucks	-12.1061
▁hashemi	-12.1064
▁ve	-12.1065
▁malawian	-12.1068
▁lawless	-12.1068
▁acquit	-12.1071
▁excellent	-12.1072
▁probed	-12.1072
mails	-12.1073
▁freely	-12.1078
▁totaled	-12.1079
▁sweat	-12.108
▁torched	-12.1082
▁woodward	-12.1082
▁icelandic	-12.1085
▁amy	-12.1086
▁ngos	-12.1088
ide	-12.1092
▁coveted	-12.1092
▁andreas	-12.1093
▁overturns	-12.1095
▁cpi	-12.1098
▁tripled	-12.11
ama	-12.1101
▁faa	-12.1101
▁czechs	-12.1102
▁domination	-12.1103
▁montgomerie	-12.1103
▁prolific	-12.1103
▁advertisements	-12.1103
▁detaining	-12.1103
▁mostar	-12.1104
nda	-12.1104
▁rages	-12.1105
▁destinations	-12.1106
▁snatch	-12.1109
▁bullion	-12.1114
▁massacres	-12.1114
▁industrials	-12.1117
▁fantasy	-12.1124
▁sporadic	-12.1124
▁wheelchair	-12.1124
▁taught	-12.1124
du	-12.1125
▁corsica	-12.1125
▁heath	-12.1127
▁flows	-12.1127
▁sticking	-12.1127
▁chargers	-12.1129
▁drum	-12.1131
▁nude	-12.1131
trial	-12.1133
▁standstill	-12.1134
▁playboy	-12.1135
bashir	-12.1136
▁elaborate	-12.1137
▁greene	-12.1139
▁notion	-12.1142
▁restricting	-12.1143
▁employed	-12.1144
▁centennial	-12.1145
▁chalk	-12.1145
▁dependence	-12.1145
tat	-12.1148
▁ditch	-12.1148
▁topping	-12.1148
▁endanger	-12.1149
▁tying	-12.115
▁upgrading	-12.1155
pierre	-12.1157
▁ozone	-12.1157
▁ruin	-12.1159
▁seasonally	-12.116
▁protester	-12.1161
▁hp	-12.1162
▁reinstate	-12.1162
▁laugh	-12.1162
eh	-12.1163
▁recess	-12.1166
▁wrangling	-12.1166
▁medley	-12.1166
▁projections	-12.1167
administer	-12.1168
▁initiated	-12.1169
▁vegetables	-12.1171
▁continuous	-12.1172
▁dirt	-12.1173
▁surprises	-12.1174
▁engaging	-12.1176
▁sewage	-12.1176
▁multimedia	-12.1177
see	-12.1179
▁remark	-12.1182
▁dusty	-12.1185
▁trent	-12.1186
▁brady	-12.1187
▁dementieva	-12.1187
▁ratifies	-12.1187
ay	-12.119
▁feelings	-12.1197
▁allawi	-12.1197
▁punishing	-12.12
▁hindus	-12.12
▁peacemaking	-12.1203
▁messi	-12.1204
holder	-12.1204
▁domingo	-12.1208
▁festivities	-12.1208
▁misdemeanor	-12.1208
leading	-12.1208
▁jackpot	-12.1208
▁bass	-12.121
series	-12.1214
▁footballer	-12.1218
▁moea	-12.1221
▁preferred	-12.1222
▁rattles	-12.1223
▁kickbacks	-12.1224
▁lacking	-12.1226
▁steering	-12.1229
▁cyberspace	-12.1229
▁everywhere	-12.1229
▁plains	-12.1234
connor	-12.1234
elli	-12.1234
▁snub	-12.1234
▁condoms	-12.1236
▁escalate	-12.1237
▁nino	-12.1238
▁holmes	-12.124
▁underdog	-12.124
▁allocated	-12.1241
▁reviewed	-12.1241
▁philippe	-12.1244
▁middleweight	-12.1244
▁newcomer	-12.1246
▁labeled	-12.1246
▁generous	-12.125
▁pedophile	-12.125
▁pudong	-12.125
▁throng	-12.125
▁hiroshima	-12.125
▁wagner	-12.1251
▁blackberry	-12.1251
▁vy	-12.1254
▁considerable	-12.1255
▁hsie	-12.1257
▁lauded	-12.1259
▁gorbachev	-12.1261
▁petrobras	-12.1261
▁liability	-12.1261
▁exempt	-12.1263
▁toledo	-12.1263
▁tents	-12.1264
▁wolves	-12.1272
▁chopper	-12.1272
▁voj	-12.1273
▁sol	-12.1279
▁kin	-12.128
▁nephew	-12.1282
▁vanuatu	-12.1282
▁haider	-12.1282
▁qwest	-12.1283
▁malone	-12.1283
enhanc	-12.1284
▁faded	-12.1286
▁eviction	-12.1293
▁guitarist	-12.1293
▁faults	-12.1294
▁tube	-12.1295
fought	-12.1295
▁tick	-12.13
▁wondering	-12.1301
▁kenyans	-12.1303
▁goaltender	-12.1304
▁bor	-12.1306
▁streamline	-12.1306
▁arranged	-12.1308
▁defused	-12.1308
▁publishe	-12.1314
▁beatles	-12.1322
▁downer	-12.1324
▁neglect	-12.1327
▁setbacks	-12.133
ata	-12.1333
▁hasina	-12.1334
▁lacks	-12.1335
▁cigar	-12.1336
▁osaka	-12.1336
▁pontiff	-12.1336
▁springboard	-12.1336
▁bodyguards	-12.134
▁interrupted	-12.1341
▁lucent	-12.1343
▁titans	-12.1344
▁meter	-12.1345
▁remake	-12.1346
▁shower	-12.1347
▁northridge	-12.135
▁salma	-12.1354
▁sef	-12.1355
▁wore	-12.1356
▁veer	-12.1356
▁appliance	-12.1357
▁wesley	-12.1357
▁holiest	-12.1357
▁economically	-12.1358
royce	-12.1359
▁fms	-12.1362
▁freedoms	-12.1366
▁referred	-12.1367
▁eds	-12.1367
▁trafford	-12.1368
▁jankovic	-12.1368
▁loyalty	-12.1368
▁sc	-12.1369
french	-12.137
▁zine	-12.1372
▁wash	-12.1376
▁auditors	-12.1376
▁rhode	-12.1377
▁brigade	-12.1377
▁payroll	-12.1378
▁pizza	-12.1379
▁secretive	-12.138
▁hook	-12.1382
▁sal	-12.1389
▁pessimistic	-12.1389
▁qingdao	-12.1389
islam	-12.1391
▁warlords	-12.1392
vis	-12.1392
▁meal	-12.1395
▁assassin	-12.1399
americans	-12.1399
▁whip	-12.14
▁eurotunnel	-12.14
▁outsourcing	-12.14
stage	-12.1409
▁lebron	-12.1411
▁injunction	-12.1411
yer	-12.1411
▁cheese	-12.1412
▁pandas	-12.1413
engine	-12.1414
▁illnesses	-12.1418
▁kiss	-12.1418
▁har	-12.142
dan	-12.1422
▁aquino	-12.1422
▁stirred	-12.1422
▁triumphant	-12.1422
▁geoff	-12.1423
▁harold	-12.1425
stone	-12.1425
hua	-12.1429
▁monrovia	-12.1432
▁burnt	-12.1434
uc	-12.1435
▁disarming	-12.1438
▁tenor	-12.1438
▁reduces	-12.1442
▁reunite	-12.1445
▁gr	-12.1446
italia	-12.1447
hl	-12.1447
▁postseason	-12.1448
ence	-12.145
▁timberwolves	-12.1454
▁brutality	-12.1455
built	-12.1455
▁overtake	-12.1456
▁herman	-12.1456
screen	-12.1457
▁exec	-12.1457
▁wise	-12.146
▁bandits	-12.1461
▁alejandr	-12.1465
▁dash	-12.1465
▁revamped	-12.1466
ken	-12.1469
uri	-12.1472
▁facto	-12.1474
risk	-12.1475
▁onslaught	-12.1476
▁strasbourg	-12.1476
▁commemorating	-12.1476
▁sculpture	-12.1476
▁stumps	-12.1484
▁petraeus	-12.1487
▁torturing	-12.1487
▁grizzlies	-12.1497
▁hostility	-12.1498
yi	-12.1499
▁bertie	-12.1499
▁homosexual	-12.15
▁frenzy	-12.1508
▁memorabilia	-12.1508
▁mwanawasa	-12.1508
▁wisdom	-12.1508
▁severed	-12.1509
▁destroyer	-12.1509
▁clinching	-12.1513
▁cloned	-12.1514
▁rioters	-12.1516
▁broadcasters	-12.1518
▁halloween	-12.1519
▁nintendo	-12.1519
▁manned	-12.1521
▁proclaim	-12.1522
▁locate	-12.1522
▁collector	-12.1522
▁bur	-12.1524
▁registering	-12.1524
▁mayors	-12.1528
▁glitch	-12.1529
▁dupont	-12.153
▁tissue	-12.153
▁mercy	-12.1532
▁bidders	-12.1537
▁plummet	-12.1539
▁juice	-12.1541
▁wilkinson	-12.1541
▁aired	-12.1543
▁protective	-12.1543
▁sailed	-12.1547
▁shillings	-12.1548
▁anbar	-12.1551
▁signatures	-12.1551
▁cesar	-12.1559
▁proven	-12.1559
▁eighteen	-12.1563
▁cologne	-12.1563
▁amelie	-12.1564
py	-12.1567
mc	-12.1571
▁affects	-12.1573
▁elbaradei	-12.1574
▁exotic	-12.1574
▁gears	-12.1574
natal	-12.1577
▁depleted	-12.1577
rise	-12.1579
▁pipelines	-12.1579
▁mexicans	-12.1584
▁philharmonic	-12.1585
▁ronaldinho	-12.1585
▁zhaox	-12.1585
▁injure	-12.159
▁freezes	-12.1591
▁pardoned	-12.1592
security	-12.1593
▁chemistry	-12.1596
▁filming	-12.1597
▁balloting	-12.1601
▁revoke	-12.1602
fat	-12.1603
▁sco	-12.1604
vin	-12.1605
▁layer	-12.1605
▁abacha	-12.1607
zar	-12.1607
▁sears	-12.1607
▁roller	-12.1608
▁organised	-12.1612
▁derivatives	-12.1618
▁wuhan	-12.1618
▁cis	-12.1622
▁surrenders	-12.1624
▁wool	-12.1625
zhou	-12.1626
▁averting	-12.1628
▁guitar	-12.1628
▁fatigue	-12.1629
▁smithsonian	-12.1629
▁ifor	-12.1631
▁crusade	-12.1633
▁nab	-12.1637
▁kate	-12.164
▁cuomo	-12.164
▁kirchner	-12.164
▁spiral	-12.1641
▁marcelo	-12.1642
▁sooner	-12.1643
▁chunk	-12.1646
▁welterweight	-12.1646
▁assembled	-12.1647
▁blanc	-12.1648
▁vioxx	-12.1651
▁docked	-12.1651
▁kay	-12.1652
▁blend	-12.1653
bert	-12.1653
▁remnants	-12.1653
▁sanders	-12.1654
▁corridor	-12.1656
▁whaling	-12.1661
▁scenario	-12.1662
▁flavor	-12.1662
minister	-12.1665
cos	-12.1668
▁submarines	-12.167
studd	-12.1674
▁wrongful	-12.1674
▁ratio	-12.1675
▁predators	-12.1675
▁motherland	-12.1677
▁brooks	-12.1678
▁legalize	-12.1679
▁sway	-12.1683
▁humiliating	-12.1684
▁jittery	-12.1684
▁waugh	-12.1684
▁bastion	-12.1684
▁davos	-12.1684
▁infants	-12.1685
▁muq	-12.1686
▁rafter	-12.1686
▁healing	-12.1688
▁swedes	-12.1689
▁swede	-12.1691
▁premiums	-12.1692
▁mortars	-12.1695
▁evacuees	-12.1695
▁shakespeare	-12.1695
▁jema	-12.1695
▁bunker	-12.1695
sch	-12.1695
▁drastically	-12.1695
▁garner	-12.1695
▁kal	-12.1696
▁gotten	-12.1697
▁expose	-12.17
leen	-12.1701
four	-12.1703
▁carve	-12.1705
▁freeing	-12.1707
rey	-12.1711
throwing	-12.1711
▁airliners	-12.1713
▁app	-12.1714
▁worship	-12.1716
▁screens	-12.1717
▁somewhat	-12.1717
▁stearns	-12.1717
▁insufficient	-12.1718
▁titanic	-12.1718
▁needy	-12.1719
▁lining	-12.1722
nice	-12.1724
▁logo	-12.1728
▁jpmorgan	-12.1728
ach	-12.1729
stakes	-12.1735
▁workout	-12.1736
▁deepens	-12.1737
▁bullpen	-12.174
▁sever	-12.1742
▁gerard	-12.1743
▁dutchman	-12.1747
od	-12.1751
▁nowhere	-12.1751
▁kuznetsova	-12.1751
▁mgm	-12.1752
▁aspects	-12.1756
▁cather	-12.1757
▁expired	-12.1757
▁picasso	-12.1762
▁descent	-12.1762
▁financed	-12.1765
▁rethink	-12.1766
▁psychiatrist	-12.1773
▁liechtenstein	-12.1773
▁assignment	-12.1773
iba	-12.1773
▁plotted	-12.1775
▁privatize	-12.1775
▁grouping	-12.1777
▁juli	-12.1777
▁serves	-12.1781
▁torre	-12.1782
▁sideline	-12.1782
▁coordinating	-12.1784
▁cornerback	-12.1785
▁nader	-12.1788
▁burger	-12.1788
▁relat	-12.1789
▁bloodiest	-12.1796
ram	-12.1799
port	-12.1801
▁aggregate	-12.1807
▁wembley	-12.1807
▁ravine	-12.1807
▁reforming	-12.1808
▁moam	-12.1808
▁vick	-12.1808
size	-12.1812
▁minerals	-12.1817
▁concerted	-12.1817
▁allay	-12.1818
▁edmonton	-12.1818
▁embezzling	-12.1818
▁northrop	-12.1818
▁stirring	-12.1818
▁wanting	-12.182
▁cholesterol	-12.1822
▁unfairly	-12.1829
▁soeharto	-12.1829
▁binding	-12.183
▁glen	-12.1831
ju	-12.1832
▁netted	-12.1834
▁manual	-12.1841
▁rushdie	-12.1841
▁affordable	-12.1841
▁trailing	-12.1842
▁publications	-12.1843
▁realized	-12.1846
▁battalion	-12.1852
▁renounce	-12.1856
▁lan	-12.1858
▁interactive	-12.1861
▁telefonica	-12.1863
lia	-12.1865
▁fade	-12.1865
▁dose	-12.1868
stop	-12.1869
▁transporting	-12.1869
▁erupt	-12.1869
▁jeopardize	-12.1871
▁exceeding	-12.1871
▁ansa	-12.1872
▁radicals	-12.1873
▁linda	-12.1874
▁conversion	-12.1874
▁holyfield	-12.1876
randy	-12.1876
▁hwa	-12.1878
▁joan	-12.1882
▁combatants	-12.1884
▁conrad	-12.1886
▁marat	-12.1886
▁liberalization	-12.1887
▁contrast	-12.189
cher	-12.1894
▁taxpayer	-12.1896
▁clandestine	-12.1897
▁console	-12.1897
▁sequel	-12.1897
▁theatre	-12.1897
▁boc	-12.1898
▁sci	-12.1901
allied	-12.1902
▁frigate	-12.1908
▁terrible	-12.1908
▁vinci	-12.1908
▁wahid	-12.1908
▁lawn	-12.191
▁tentatively	-12.1913
▁coral	-12.1914
▁endured	-12.1915
▁harvey	-12.192
▁von	-12.192
▁snag	-12.192
▁mechanical	-12.1923
▁cue	-12.1927
▁narrows	-12.193
▁abraham	-12.1931
▁bilbao	-12.1931
▁verify	-12.1931
▁leonean	-12.1931
▁gustavo	-12.1935
mate	-12.1936
▁hunted	-12.1938
▁shelled	-12.1941
▁fielder	-12.1941
▁uncle	-12.1942
▁bhutan	-12.1942
▁preferential	-12.1942
▁zacarias	-12.1942
woman	-12.1943
tainted	-12.1947
▁pinch	-12.1949
▁abb	-12.1949
▁orphans	-12.195
▁klinsmann	-12.1954
▁airwaves	-12.1954
▁kinkel	-12.1954
▁islamiyah	-12.1954
▁loeb	-12.1954
▁relocate	-12.1956
▁produces	-12.1957
▁cruel	-12.1958
je	-12.1958
▁turk	-12.1964
▁asif	-12.1965
▁ellen	-12.1965
▁vandals	-12.1966
ven	-12.1968
▁surpassed	-12.1971
▁hal	-12.1973
▁shores	-12.1975
▁unseat	-12.1976
▁champagne	-12.1976
▁outburst	-12.1976
▁unleash	-12.1979
▁slumps	-12.1982
▁difficulty	-12.1983
▁outright	-12.1984
▁registers	-12.1987
▁petr	-12.1987
▁phenomenon	-12.1988
▁seventeen	-12.1988
▁nextel	-12.1992
▁subpoena	-12.1993
gy	-12.1996
▁putt	-12.1999
▁jospin	-12.1999
▁accuser	-12.2001
▁policymakers	-12.2002
mexico	-12.2005
▁reserved	-12.2008
▁disgruntled	-12.2011
▁tanjug	-12.2011
▁cyclists	-12.2011
▁hideout	-12.2014
▁aided	-12.2015
▁swamp	-12.2016
▁crossings	-12.2019
schka	-12.2022
▁opinions	-12.2023
▁polluted	-12.2025
announced	-12.2028
▁seasonal	-12.2028
▁offerings	-12.203
▁ousting	-12.203
▁bern	-12.2031
▁donovan	-12.2034
▁faculty	-12.2034
▁jefferson	-12.2034
▁thunderstorms	-12.2036
▁hampered	-12.2037
▁dampened	-12.2037
tier	-12.2038
dutch	-12.2039
▁shakeup	-12.2039
▁okay	-12.2039
▁immune	-12.204
ologist	-12.204
▁pr	-12.2041
▁invaded	-12.2045
▁proct	-12.2047
▁lords	-12.2047
▁augusta	-12.2048
▁provoke	-12.2048
▁please	-12.205
▁johan	-12.205
▁joel	-12.2053
▁mon	-12.2056
▁nazarbayev	-12.2057
▁liner	-12.2059
▁foreclosure	-12.2059
▁departing	-12.2066
▁lesser	-12.2066
▁genes	-12.2068
▁obstruction	-12.2068
▁inform	-12.207
▁blistering	-12.2071
▁vent	-12.2071
hercegovina	-12.208
▁marriott	-12.208
▁suzuki	-12.208
▁bogus	-12.208
▁josh	-12.2081
▁tibetans	-12.2082
race	-12.2086
▁folks	-12.2089
needed	-12.2089
▁linger	-12.209
▁luc	-12.209
▁rove	-12.2091
▁heineken	-12.2091
▁overcrowded	-12.2091
▁karbala	-12.2091
▁mvp	-12.2091
ria	-12.2093
▁selectors	-12.2097
▁plots	-12.2099
▁rides	-12.21
nell	-12.21
▁edgar	-12.2103
▁llc	-12.2104
ky	-12.2105
▁breached	-12.2105
▁shipwreck	-12.2107
▁guarding	-12.2114
▁mauritius	-12.2114
▁merchandise	-12.2114
▁stabilizing	-12.2114
▁cocoa	-12.2114
▁bidder	-12.2115
▁averted	-12.2117
wei	-12.2118
zarqawi	-12.212
▁hoya	-12.2123
▁paramount	-12.2126
▁stubborn	-12.2126
▁mouse	-12.2127
▁gorge	-12.213
▁shrimp	-12.2137
▁carnage	-12.2137
▁rewards	-12.2138
▁exemption	-12.2143
▁charts	-12.2146
▁statehood	-12.2147
▁oral	-12.2147
▁crumbling	-12.2149
▁accompany	-12.2149
▁tornadoes	-12.2152
▁morale	-12.2152
can	-12.2154
▁cannon	-12.2154
▁gal	-12.2155
▁sabah	-12.2156
▁amir	-12.2158
rant	-12.2159
fer	-12.2159
▁hopkins	-12.2161
▁buckingham	-12.2161
▁ravens	-12.2161
▁homecoming	-12.2164
▁flush	-12.217
▁dilemma	-12.2172
▁thief	-12.2172
▁kemp	-12.2173
▁showers	-12.2173
▁pardons	-12.2173
▁tian	-12.2175
▁uphill	-12.2179
▁ser	-12.2183
▁funnel	-12.2184
▁voluntarily	-12.2185
▁exclude	-12.2187
▁acceptable	-12.2188
▁pockets	-12.219
▁waged	-12.219
▁useful	-12.2191
▁outage	-12.2192
lene	-12.2192
chang	-12.2194
▁reactions	-12.2195
▁ciller	-12.2196
▁albany	-12.2196
▁kumar	-12.2196
▁slice	-12.22
▁evacuations	-12.2201
ella	-12.2202
▁frequently	-12.2204
▁gem	-12.2204
▁bra	-12.2207
▁daring	-12.2207
▁smashing	-12.221
▁dismay	-12.2211
▁menu	-12.2214
▁connections	-12.2215
▁gunships	-12.2218
▁repeating	-12.2218
▁resurgence	-12.2219
▁contracting	-12.2224
▁websites	-12.2225
▁bou	-12.2225
makers	-12.2227
▁tankers	-12.2227
▁circles	-12.2236
▁aftershocks	-12.2239
▁sorrow	-12.2242
intercontinental	-12.2244
▁zimbabweans	-12.2249
▁em	-12.2253
ovic	-12.2259
▁languages	-12.226
▁manny	-12.2262
▁notch	-12.2265
▁kostelic	-12.2266
▁rutgers	-12.2266
▁owns	-12.2266
▁brazen	-12.2266
▁jeb	-12.2267
▁assam	-12.2269
rio	-12.2275
▁irs	-12.2276
▁excess	-12.2276
▁zedillo	-12.2277
▁consent	-12.2278
▁groin	-12.2279
▁ortega	-12.2289
▁upsurge	-12.2289
ano	-12.229
ida	-12.2299
▁cubic	-12.23
▁spider	-12.23
▁jericho	-12.2301
▁structural	-12.2301
▁unsafe	-12.2301
▁benign	-12.2301
▁greetings	-12.2302
▁bennett	-12.2303
▁sensational	-12.2305
▁louise	-12.2309
▁shields	-12.2309
▁tractor	-12.231
▁sharpen	-12.231
▁riviera	-12.2313
[...]
