<unk>	0
<s>	0
</s>	0
s	-3.02368
▁the	-3.56224
▁,	-3.96012
▁a	-3.97683
▁to	-4.01428
▁in	-4.03154
▁of	-4.10939
ed	-4.13232
▁	-4.1705
ing	-4.18208
▁"	-4.40472
▁.",	-4.45887
-	-4.47556
▁UNK	-4.58213
▁and	-4.67004
▁'	-4.67117
▁on	-4.68387
d	-4.84091
n	-4.89363
▁for	-4.97792
.	-5.1108
y	-5.11568
e	-5.18318
▁.,	-5.2183
▁said	-5.41261
▁with	-5.45133
▁-	-5.48522
▁:	-5.51191
▁by	-5.5202
▁at	-5.56181
m	-5.56699
▁##	-5.58459
rb	-5.64852
▁be	-5.67451
ly	-5.68068
r	-5.68841
l	-5.73732
a	-5.74905
st	-5.75302
▁that	-5.76856
day	-5.88417
▁an	-5.89653
al	-5.91829
▁as	-5.99442
▁fro	-6.00395
t	-6.08421
▁has	-6.08747
▁wed	-6.12351
▁president	-6.14677
esday	-6.14813
▁his	-6.15597
▁thurs	-6.16282
▁new	-6.1774
▁is	-6.18431
▁was	-6.1981
▁tuesday	-6.19895
▁after	-6.23259
▁u	-6.24066
▁friday	-6.26061
▁monday	-6.26572
er	-6.26948
the	-6.2921
▁over	-6.29384
▁us	-6.2971
▁its	-6.29766
▁####	-6.30099
ir	-6.30536
▁world	-6.33281
▁#	-6.36188
▁will	-6.38109
▁it	-6.40388
▁official	-6.45454
▁he	-6.45474
ies	-6.5021
▁first	-6.5094
▁minister	-6.51019
▁up	-6.51143
'	-6.51852
▁again	-6.52809
en	-6.53122
ion	-6.55057
▁government	-6.56159
c	-6.59063
▁china	-6.64246
▁have	-6.64349
o	-6.64748
▁who	-6.65158
▁n	-6.68449
`	-6.69369
▁out	-6.69573
in	-6.70421
▁year	-6.71395
es	-6.73659
on	-6.74341
▁are	-6.75301
▁s	-6.75613
▁sunday	-6.76514
UNK	-6.76525
to	-6.76598
▁f	-6.77227
here	-6.79196
▁two	-6.7924
▁not	-6.79958
▁people	-6.80622
▁saturday	-6.80622
▁south	-6.80724
▁cup	-6.81482
ese	-6.81802
▁more	-6.84289
i	-6.86442
▁`	-6.86814
▁###	-6.87508
le	-6.89857
were	-6.92261
man	-6.94923
▁but	-6.95206
an	-6.96713
▁reported	-6.97155
▁one	-6.97519
▁thi	-6.9797
▁state	-6.99577
▁group	-7.00154
▁kill	-7.00302
▁w	-7.01656
ch	-7.02434
▁bank	-7.02953
▁day	-7.03164
▁three	-7.03451
ers	-7.04794
▁news	-7.0607
u	-7.06086
▁unit	-7.06164
▁whi	-7.07092
▁billion	-7.07762
▁percent	-7.09896
▁#.#	-7.10143
bout	-7.10367
▁million	-7.1104
▁re	-7.12991
th	-7.14295
ern	-7.15053
▁bet	-7.16474
▁week	-7.16943
▁police	-7.16981
▁un	-7.17509
former	-7.18402
ry	-7.19015
▁last	-7.19399
$	-7.20537
▁would	-7.20537
▁had	-7.20696
▁her	-7.20959
▁dollars	-7.22612
▁foreign	-7.23263
▁team	-7.24473
h	-7.24539
us	-7.25354
ween	-7.25711
▁years	-7.25979
▁country	-7.26
re	-7.26213
▁man	-7.27012
ic	-7.27989
▁stock	-7.28507
▁open	-7.29258
▁t	-7.30877
▁european	-7.31551
▁visit	-7.32455
▁iraq	-7.32557
▁international	-7.3261
▁al	-7.32662
▁trade	-7.334
ial	-7.33696
▁call	-7.34139
▁prime	-7.34164
▁north	-7.34358
▁may	-7.34613
▁#-#	-7.34631
▁all	-7.35306
▁chin	-7.35415
k	-7.36538
▁report	-7.37191
f	-7.38772
▁or	-7.38776
▁talks	-7.38872
▁whe	-7.41059
or	-7.41098
▁other	-7.42148
▁city	-7.43172
▁down	-7.43329
▁back	-7.43555
▁party	-7.43589
▁says	-7.4448
▁end	-7.44502
▁second	-7.44661
▁national	-7.45038
▁french	-7.45081
▁home	-7.46407
▁say	-7.4655
▁lead	-7.46605
▁final	-7.46655
ext	-7.46725
▁no	-7.46732
▁d	-7.47434
▁economi	-7.47539
▁close	-7.4969
▁american	-7.49951
▁than	-7.50319
▁time	-7.50365
▁oil	-7.51613
▁nation	-7.52066
▁top	-7.52147
land	-7.52293
▁m	-7.53502
▁military	-7.54761
▁take	-7.55433
▁states	-7.55902
▁chief	-7.56577
,	-7.566
▁head	-7.56735
hong	-7.57093
▁dollar	-7.57509
▁war	-7.58136
ite	-7.58289
▁kong	-7.58467
▁securit	-7.58579
▁nu	-7.58819
▁#.##	-7.59359
ball	-7.59639
▁high	-7.59882
▁central	-7.6015
▁b	-7.60213
▁coul	-7.60241
▁some	-7.60379
▁set	-7.60437
▁prices	-7.62773
▁show	-7.63983
rom	-7.64032
▁force	-7.64195
▁work	-7.64289
▁leader	-7.65274
▁help	-7.6602
▁four	-7.66166
clear	-7.66171
▁deal	-7.66284
▁dur	-7.66356
▁major	-7.66481
ment	-7.67646
ty	-7.67762
▁accord	-7.67915
▁co	-7.68171
▁pakistan	-7.68459
▁korea	-7.69227
▁under	-7.69907
▁five	-7.70212
▁union	-7.70247
▁late	-7.70416
▁eds	-7.70542
▁israeli	-7.70742
ve	-7.71694
▁off	-7.72003
▁part	-7.72013
▁effort	-7.72058
year	-7.72558
▁most	-7.73019
▁near	-7.73334
p	-7.73628
▁month	-7.73734
ive	-7.74109
▁c	-7.7453
▁results	-7.75793
▁season	-7.76551
▁israel	-7.76651
▁palestinian	-7.76717
china	-7.76982
▁win	-7.7767
▁market	-7.78367
▁support	-7.78619
▁test	-7.78664
▁early	-7.78797
▁taiwan	-7.79058
ation	-7.80272
▁york	-7.80588
w	-7.80709
▁##-	-7.8094
▁third	-7.80974
▁long	-7.81369
▁if	-7.816
ther	-7.82576
ary	-7.83216
ian	-7.83468
▁run	-7.83571
▁japan	-7.83641
ta	-7.8407
▁lea	-7.84657
gency	-7.85076
▁arrest	-7.85398
▁ma	-7.85448
▁economy	-7.85542
▁company	-7.85542
▁peace	-7.85562
▁election	-7.85906
▁bo	-7.86154
son	-7.8616
tion	-7.86207
▁post	-7.86228
▁start	-7.86368
ish	-7.86388
mid	-7.87065
old	-7.87312
▁troop	-7.87982
▁release	-7.87983
▁large	-7.88006
▁air	-7.88065
▁case	-7.88073
▁main	-7.88157
▁higher	-7.88231
▁iran	-7.88355
▁court	-7.8838
▁general	-7.88464
▁gold	-7.88552
▁l	-7.88685
out	-7.89451
▁shares	-7.89708
▁p	-7.89943
ity	-7.90463
▁before	-7.90505
▁house	-7.90972
new	-7.91742
▁de	-7.9228
▁financi	-7.93086
▁power	-7.93114
▁expected	-7.93382
▁bush	-7.93428
▁months	-7.93677
▁germany	-7.93868
▁per	-7.9409
▁meet	-7.94136
▁go	-7.95003
▁k	-7.95596
▁region	-7.95693
▁record	-7.95702
▁agreement	-7.95731
▁global	-7.95797
ning	-7.96011
▁killing	-7.96502
▁australia	-7.96574
▁leaders	-7.97014
▁con	-7.97403
able	-7.97809
ful	-7.98187
▁return	-7.98383
▁school	-7.98492
▁she	-7.9969
▁aid	-7.99736
chines	-8.00476
▁you	-8.00753
▁exchange	-8.01157
▁women	-8.0119
▁lower	-8.01342
▁key	-8.01373
▁west	-8.01374
▁euro	-8.01636
▁african	-8.0185
▁him	-8.02417
▁share	-8.02841
▁move	-8.03128
▁st	-8.03439
▁countr	-8.03567
▁dead	-8.03905
▁should	-8.04014
▁crisis	-8.04014
▁even	-8.04031
▁local	-8.04043
▁fire	-8.04076
▁desp	-8.0409
▁defense	-8.04101
cer	-8.0492
▁sign	-8.0506
b	-8.05768
ke	-8.06221
▁hit	-8.06385
▁authorit	-8.06423
▁do	-8.06821
▁victory	-8.06981
▁india	-8.06984
▁life	-8.07094
as	-8.07338
▁france	-8.07717
▁bid	-8.07784
▁russian	-8.08763
▁sen	-8.09856
",	-8.09964
▁energy	-8.09996
▁capital	-8.10008
▁like	-8.10148
▁seek	-8.10299
▁make	-8.10302
▁british	-8.10416
▁provinc	-8.10466
▁press	-8.10857
▁attack	-8.11395
▁###,###	-8.11508
▁pa	-8.11908
icket	-8.11973
▁associat	-8.1205
at	-8.12065
▁continue	-8.13028
▁public	-8.13111
▁parliament	-8.1314
▁suspect	-8.13141
▁giant	-8.13146
▁health	-8.13243
▁east	-8.1332
▁russia	-8.13336
▁strike	-8.13411
▁mad	-8.13535
it	-8.13693
▁face	-8.13878
▁so	-8.14273
▁men	-8.14366
▁announc	-8.15875
▁development	-8.1635
▁six	-8.16531
▁sale	-8.16664
▁turn	-8.16685
▁announce	-8.16729
▁opposi	-8.16761
▁office	-8.17009
▁media	-8.17109
▁pay	-8.17172
▁title	-8.17547
▁i	-8.17712
▁anti	-8.18228
▁can	-8.18428
▁rul	-8.18811
till	-8.18843
▁en	-8.19007
way	-8.19199
▁plan	-8.19251
▁worker	-8.19559
▁elections	-8.19664
▁corp	-8.19717
▁league	-8.19756
ia	-8.19797
▁german	-8.19888
▁vice	-8.1994
▁round	-8.2022
▁ba	-8.20589
cy	-8.21074
▁service	-8.21676
um	-8.21745
▁play	-8.22998
▁program	-8.23118
▁picture	-8.23118
▁increase	-8.23119
▁council	-8.2315
▁children	-8.23152
▁soc	-8.23204
▁warn	-8.23246
▁mor	-8.23403
▁markets	-8.23638
ham	-8.23715
▁includ	-8.24325
▁get	-8.24595
▁plane	-8.24637
▁plans	-8.24679
ition	-8.24749
▁accus	-8.24904
▁death	-8.25167
ior	-8.25415
▁way	-8.25741
▁step	-8.25834
▁rights	-8.25915
ince	-8.25929
▁africa	-8.26041
▁premier	-8.26108
▁los	-8.26237
▁minist	-8.26306
▁area	-8.26429
other	-8.26606
▁cooperation	-8.26708
▁rival	-8.26736
▁investment	-8.26739
▁order	-8.26749
▁rise	-8.26754
▁congress	-8.26781
▁afghanistan	-8.26781
▁train	-8.2679
one	-8.26793
▁seven	-8.26818
▁political	-8.26819
▁business	-8.2684
▁food	-8.26858
▁bigge	-8.26866
▁george	-8.26915
▁spokes	-8.26972
▁series	-8.26975
▁john	-8.27079
▁ahead	-8.27085
ar	-8.27382
is	-8.27942
▁bill	-8.28052
ted	-8.28282
side	-8.28604
▁campaign	-8.28783
▁meeting	-8.28842
▁urge	-8.29144
▁o	-8.29354
▁found	-8.29405
▁po	-8.29416
▁h	-8.29725
where	-8.29847
▁asia	-8.30249
▁street	-8.30393
▁zealand	-8.30393
▁spend	-8.30554
▁through	-8.30635
▁coach	-8.30706
▁hel	-8.30918
▁reach	-8.31193
ter	-8.31231
▁reports	-8.31249
▁mark	-8.31545
▁ties	-8.31631
▁offer	-8.31667
gan	-8.31672
▁died	-8.32213
▁host	-8.32611
age	-8.32662
▁form	-8.32743
▁#,###	-8.33019
▁profit	-8.33199
▁issue	-8.33244
▁le	-8.33359
led	-8.33461
▁left	-8.3376
▁fall	-8.33834
▁car	-8.33911
ent	-8.33979
up	-8.34058
▁future	-8.34277
▁airport	-8.34301
▁growth	-8.34302
▁rate	-8.34337
▁claim	-8.34388
▁follow	-8.34402
self	-8.34409
▁credit	-8.34528
▁human	-8.34532
▁opening	-8.34717
▁won	-8.34789
▁give	-8.34868
▁militants	-8.35145
▁night	-8.35242
ld	-8.36022
▁e	-8.36207
▁beat	-8.36267
▁vote	-8.36317
▁attacks	-8.36409
▁li	-8.3662
#	-8.36795
▁free	-8.36938
▁ga	-8.37036
▁bi	-8.371
▁remain	-8.37148
▁olympic	-8.37308
ean	-8.37503
ever	-8.37589
▁hold	-8.37721
▁crash	-8.3779
▁prison	-8.37804
▁republic	-8.38167
▁industry	-8.38239
▁boost	-8.3826
▁center	-8.38311
▁buy	-8.38396
▁obama	-8.38477
▁davi	-8.38507
▁clinton	-8.38546
▁strong	-8.38677
ce	-8.3901
▁around	-8.39051
▁indian	-8.39874
▁g	-8.40127
▁met	-8.40747
▁bomb	-8.40768
▁ask	-8.40828
by	-8.40924
▁di	-8.41385
▁change	-8.41777
g	-8.41939
▁game	-8.4204
▁charges	-8.42157
▁ca	-8.42294
▁beijing	-8.42385
craft	-8.42407
▁angeles	-8.42452
▁white	-8.42534
▁yen	-8.42637
▁joint	-8.42639
▁saudi	-8.42652
▁army	-8.42947
▁cut	-8.43084
un	-8.43243
▁signed	-8.44782
▁gas	-8.44825
ist	-8.45305
est	-8.45344
russian	-8.45749
▁champions	-8.45829
▁championship	-8.46291
ga	-8.4643
later	-8.4678
▁project	-8.46782
▁question	-8.46801
▁organization	-8.46811
▁what	-8.46821
▁bosnia	-8.47055
▁eight	-8.47103
▁tv	-8.4712
▁lost	-8.47301
▁italian	-8.47408
▁agree	-8.47475
▁eu	-8.47616
▁see	-8.47674
▁foot	-8.48045
▁toll	-8.4819
for	-8.48266
▁art	-8.48705
▁points	-8.48731
▁raise	-8.49178
▁fund	-8.49368
two	-8.49734
▁##.#	-8.49988
▁closed	-8.50098
▁th	-8.50139
▁department	-8.50695
co	-8.50803
▁sever	-8.50933
▁concern	-8.51069
▁defeat	-8.51301
▁relations	-8.51302
▁weekend	-8.51307
▁europe	-8.51322
▁trading	-8.51343
▁process	-8.51349
▁watch	-8.51372
▁paul	-8.5144
▁fur	-8.51479
▁lebanon	-8.51492
▁keep	-8.51497
▁now	-8.51573
▁possibl	-8.5161
▁sri	-8.51837
▁western	-8.51861
▁any	-8.52015
▁opened	-8.52031
▁members	-8.52197
▁need	-8.52214
▁ever	-8.5242
each	-8.52719
▁protest	-8.5396
time	-8.54145
▁mo	-8.54228
cause	-8.54311
australia	-8.54442
president	-8.54462
▁king	-8.54661
▁federa	-8.54687
▁stage	-8.55177
▁embass	-8.56062
▁interest	-8.56067
▁decision	-8.56075
▁coast	-8.56079
▁baghdad	-8.56106
▁dispute	-8.56108
▁number	-8.56118
el	-8.5613
ose	-8.56171
▁earth	-8.56186
▁judge	-8.56207
▁defend	-8.56278
▁tour	-8.56498
▁list	-8.56615
▁ho	-8.56727
▁cross	-8.57126
rose	-8.57255
▁details	-8.57493
bi	-8.57504
il	-8.57797
ship	-8.57797
▁how	-8.58365
▁ju	-8.59127
▁arrive	-8.59274
▁ab	-8.59377
less	-8.59384
▁commission	-8.59662
▁investigation	-8.59938
▁pro	-8.6
▁soldiers	-8.60307
long	-8.60522
▁decide	-8.60539
▁discuss	-8.60694
##	-8.60801
▁join	-8.60841
▁cabinet	-8.61061
▁vow	-8.61065
▁##,###	-8.61067
▁violence	-8.61068
▁heavy	-8.61109
▁confirm	-8.6111
▁pressure	-8.61126
▁threaten	-8.61171
▁match	-8.61197
▁gaza	-8.61205
▁england	-8.61275
ng	-8.61297
▁grow	-8.61329
ttle	-8.61403
▁charge	-8.61404
▁want	-8.6147
▁games	-8.61829
▁injured	-8.62193
rew	-8.62212
▁improve	-8.62324
▁toward	-8.62738
ok	-8.62759
▁send	-8.63053
om	-8.63389
russia	-8.63955
into	-8.64383
french	-8.64715
israeli	-8.64815
ous	-8.65417
▁v	-8.65434
▁ago	-8.65518
ival	-8.65648
▁###.##	-8.66132
▁star	-8.66261
▁budget	-8.66325
▁diplomat	-8.66325
▁newspaper	-8.66325
▁policy	-8.66325
▁source	-8.66327
▁begin	-8.66344
cide	-8.66353
▁medal	-8.66388
▁film	-8.66412
▁young	-8.66417
▁tax	-8.6646
▁mon	-8.66514
▁democratic	-8.66517
▁mus	-8.66558
▁special	-8.66574
▁fourth	-8.66597
▁eastern	-8.66604
▁border	-8.66723
▁items	-8.66749
▁allow	-8.66752
▁fest	-8.66783
▁event	-8.66793
▁try	-8.66861
▁cr	-8.67043
▁level	-8.67096
▁poll	-8.67121
amp	-8.6715
▁iraqi	-8.6723
▁launched	-8.67674
io	-8.67771
▁korean	-8.68342
▁old	-8.68363
▁dai	-8.68382
▁bombing	-8.68823
"	-8.68996
mong	-8.69085
▁fight	-8.69357
▁line	-8.6948
ma	-8.69625
▁sui	-8.69913
vietnam	-8.70218
foot	-8.70246
back	-8.70264
major	-8.70269
rs	-8.70358
▁net	-8.70711
▁times	-8.7108
ward	-8.71701
ton	-8.7174
▁attempt	-8.7188
▁passenger	-8.71881
▁candidate	-8.71882
▁demand	-8.71882
▁missile	-8.71882
▁straight	-8.71883
▁television	-8.71898
▁executive	-8.71903
▁money	-8.71907
▁low	-8.72013
▁mexico	-8.72025
▁become	-8.7204
▁senate	-8.72041
▁great	-8.72079
▁beck	-8.72145
▁look	-8.72227
nd	-8.72263
most	-8.72414
ance	-8.72496
▁just	-8.72542
▁xinhua	-8.72593
mer	-8.7278
▁soldier	-8.72837
▁rates	-8.73307
▁mass	-8.7332
▁ap	-8.73335
se	-8.73702
▁hopes	-8.74393
▁rebels	-8.74419
▁da	-8.74481
afp	-8.74528
bas	-8.75446
▁finish	-8.75492
▁bee	-8.75729
▁break	-8.75831
cr	-8.75832
▁far	-8.759
ated	-8.7599
▁sell	-8.76029
▁ro	-8.76056
wood	-8.76074
mark	-8.76115
pakistan	-8.76149
european	-8.76164
▁america	-8.76528
▁ban	-8.76674
▁elect	-8.77499
na	-8.77727
▁family	-8.77764
▁recover	-8.77767
▁index	-8.77769
▁recent	-8.77774
▁slight	-8.77791
▁committe	-8.77845
▁operation	-8.77847
▁investor	-8.7789
▁forecast	-8.77917
▁secretary	-8.7793
▁grand	-8.77966
▁race	-8.77967
▁same	-8.77972
▁washington	-8.78016
▁britain	-8.78019
▁march	-8.78076
▁thousand	-8.78116
▁law	-8.78149
▁slow	-8.78173
▁analysts	-8.78242
▁know	-8.78328
▁bring	-8.78541
▁red	-8.78619
▁coal	-8.78682
▁your	-8.78716
▁involv	-8.78804
▁champion	-8.79069
ference	-8.79208
▁quarter	-8.79326
▁music	-8.79564
▁fighting	-8.7963
low	-8.79774
▁mar	-8.79808
qua	-8.79953
▁right	-8.80265
ting	-8.80424
▁maker	-8.80705
ul	-8.80709
vision	-8.8156
india	-8.816
ney	-8.81625
ical	-8.8172
ne	-8.81808
▁cor	-8.82064
ba	-8.82194
quarter	-8.82366
world	-8.82412
te	-8.82449
ll	-8.82752
▁tough	-8.82849
▁build	-8.82917
▁sa	-8.83298
▁lanka	-8.83316
ier	-8.83566
go	-8.83627
▁wo	-8.83921
▁guerrilla	-8.84012
▁withdraw	-8.84012
▁serious	-8.8402
▁success	-8.84022
▁constitution	-8.84028
▁shot	-8.84078
▁role	-8.84138
▁winning	-8.84146
▁manager	-8.8416
▁computer	-8.84176
▁youth	-8.84202
▁road	-8.84203
▁gain	-8.8423
▁storm	-8.84265
▁cambodia	-8.84282
▁place	-8.84306
▁republican	-8.84351
ight	-8.84355
▁arabia	-8.84462
▁alleged	-8.84491
▁.",#	-8.84654
▁croatia	-8.84691
▁san	-8.84691
▁board	-8.84956
▁put	-8.85233
▁good	-8.8529
▁clos	-8.85362
▁.","	-8.85419
▁did	-8.85643
▁har	-8.85645
▁building	-8.85664
▁leave	-8.85832
▁cuba	-8.86021
▁philippine	-8.86187
all	-8.86402
▁loss	-8.86405
▁mak	-8.86491
▁islami	-8.86549
▁son	-8.86649
▁sentence	-8.86943
▁masters	-8.87915
german	-8.8844
ence	-8.88913
sh	-8.89014
france	-8.89065
▁hospital	-8.89257
be	-8.90005
▁compani	-8.90169
▁negotiat	-8.90421
▁administrati	-8.90501
▁product	-8.90553
▁territor	-8.90679
▁club	-8.90681
▁suffer	-8.90685
▁draw	-8.90688
▁annual	-8.90689
▁illegal	-8.90696
▁summit	-8.90697
▁port	-8.90699
▁pre	-8.90726
▁traffic	-8.90743
▁throughout	-8.9075
▁justice	-8.90753
▁suspend	-8.90768
▁fail	-8.90784
▁dozen	-8.90867
▁spain	-8.9088
▁link	-8.90893
▁think	-8.90927
▁bangladesh	-8.90968
▁schedule	-8.90969
▁tokyo	-8.90969
▁jew	-8.90984
ors	-8.91037
▁concerns	-8.91053
oil	-8.91078
▁indonesia	-8.91083
▁action	-8.91169
▁dropp	-8.91197
▁london	-8.91198
▁hu	-8.9122
▁hour	-8.91229
▁debt	-8.91255
▁egypt	-8.91314
▁tennis	-8.91326
x	-8.91411
▁jack	-8.91441
construction	-8.91448
▁driver	-8.91461
▁battle	-8.91526
▁lebanese	-8.91662
▁pm	-8.91729
▁ex	-8.91896
▁mov	-8.9213
▁due	-8.92132
▁read	-8.92163
▁export	-8.92272
▁liv	-8.92293
▁me	-8.92402
▁fan	-8.92506
▁ski	-8.92548
ped	-8.92639
▁cru	-8.9272
▁arm	-8.92894
▁come	-8.9293
▁injury	-8.92982
men	-8.93259
▁use	-8.93372
▁island	-8.93516
ago	-8.93623
ions	-8.93691
ations	-8.93837
▁side	-8.93899
▁must	-8.941
ament	-8.94181
▁la	-8.94814
line	-8.94952
ny	-8.95058
▁sub	-8.95669
▁du	-8.95717
israel	-8.96064
taiwan	-8.96207
south	-8.9623
▁stand	-8.96331
results	-8.96425
jury	-8.96624
▁them	-8.96713
zone	-8.96728
▁wins	-8.96899
▁control	-8.97122
▁stop	-8.97227
night	-8.97229
▁inc	-8.97364
▁count	-8.97585
▁small	-8.97601
▁serb	-8.97648
▁guantanamo	-8.97822
▁genocide	-8.97823
▁murder	-8.97824
▁district	-8.97825
▁jail	-8.97836
▁deput	-8.97836
▁river	-8.97839
per	-8.97842
▁chance	-8.97846
▁pull	-8.9789
▁sharp	-8.97907
▁soon	-8.97911
am	-8.97913
▁paris	-8.97919
▁much	-8.97919
▁finance	-8.9796
▁currency	-8.97983
▁english	-8.98011
▁water	-8.98074
▁body	-8.98088
▁few	-8.98141
▁light	-8.98149
▁sea	-8.98232
▁hurricane	-8.98257
▁space	-8.98262
▁front	-8.98341
▁terror	-8.98365
▁wounded	-8.98383
ston	-8.98398
▁field	-8.9842
▁name	-8.98538
tourism	-8.98555
▁roy	-8.98584
▁championships	-8.98624
▁spanish	-8.98633
▁full	-8.98676
▁lankan	-8.98697
▁promise	-8.98774
▁hear	-8.9888
▁thai	-8.99016
▁practice	-8.99244
▁sars	-8.99364
▁fell	-8.99412
▁ship	-8.99657
▁se	-8.99961
▁prepar	-8.99969
▁vietnam	-9.00018
▁book	-9.00172
▁j	-9.0034
▁reforms	-9.0082
▁services	-9.00936
▁file	-9.01033
hind	-9.01586
▁scores	-9.01661
op	-9.01777
▁pen	-9.02067
▁mid	-9.02508
ge	-9.0282
resh	-9.03286
z	-9.03299
ain	-9.0345
cross	-9.03879
▁raid	-9.03882
dollar	-9.03897
japan	-9.03899
with	-9.03947
▁member	-9.04309
ril	-9.04327
▁fears	-9.04472
tic	-9.04506
▁tal	-9.0464
▁bar	-9.04843
▁reject	-9.05332
▁rock	-9.05508
▁criminal	-9.05514
▁focus	-9.05514
▁survey	-9.05514
▁civilian	-9.05536
▁terrorist	-9.05543
▁reveal	-9.05545
▁safe	-9.05565
▁sept	-9.05581
▁fuel	-9.05585
▁venture	-9.05586
▁ambassador	-9.05589
▁michael	-9.05589
▁referendum	-9.05589
▁shanghai	-9.05589
▁history	-9.05592
▁camp	-9.05593
pons	-9.05598
▁independence	-9.05605
▁enter	-9.05607
▁auto	-9.05625
▁nov	-9.05625
▁row	-9.05625
▁prince	-9.05646
ware	-9.05657
▁cities	-9.05667
iban	-9.05669
▁graf	-9.05688
▁radio	-9.05727
▁wea	-9.05783
▁production	-9.05789
▁ii	-9.0581
▁june	-9.05817
▁station	-9.05956
▁greece	-9.06001
▁chair	-9.06012
▁contract	-9.06021
▁quit	-9.06143
▁came	-9.0617
▁green	-9.06193
▁democrat	-9.06397
▁care	-9.06423
▁real	-9.06431
ten	-9.06476
▁missing	-9.06592
read	-9.07215
rack	-9.07251
over	-9.07434
▁blast	-9.07475
▁sports	-9.07508
▁well	-9.07576
eum	-9.07703
▁injur	-9.07795
id	-9.07825
after	-9.07973
▁launch	-9.08273
ough	-9.08457
▁job	-9.08718
▁master	-9.08868
apo	-9.09826
▁die	-9.09833
▁com	-9.10149
whe	-9.10195
imed	-9.10201
▁sha	-9.10226
▁less	-9.10638
▁blame	-9.10813
▁feder	-9.11243
▁che	-9.11304
▁captur	-9.11484
▁sw	-9.1159
ung	-9.11719
▁ch	-9.12088
wide	-9.12196
maker	-9.12224
general	-9.12232
three	-9.12246
▁land	-9.12296
right	-9.12585
airo	-9.12805
down	-9.12983
no	-9.13048
nes	-9.13117
▁kenya	-9.1317
▁treat	-9.13798
▁tourn	-9.13807
▁community	-9.13848
▁explode	-9.13848
▁immediate	-9.13848
▁dream	-9.13848
▁internet	-9.13848
▁problem	-9.13848
▁potential	-9.13848
▁sector	-9.13848
▁birth	-9.13849
▁session	-9.13849
▁thomas	-9.13849
▁private	-9.1385
▁suprem	-9.13853
▁attend	-9.13856
▁rocket	-9.13877
▁rising	-9.13887
▁winner	-9.13902
▁park	-9.13911
▁document	-9.13929
▁qualifying	-9.1393
▁celebrate	-9.13934
▁politician	-9.13956
▁summary	-9.13961
▁director	-9.13962
▁wave	-9.13966
▁governor	-9.13972
▁delay	-9.13974
rupt	-9.13995
▁consumer	-9.14042
▁single	-9.14081
▁communist	-9.14084
▁riot	-9.14089
▁continu	-9.14091
▁flight	-9.14103
▁hundred	-9.14216
▁arafat	-9.14216
▁cow	-9.14251
▁heart	-9.14275
▁slip	-9.14332
▁black	-9.14376
▁swiss	-9.1442
▁weather	-9.1442
ri	-9.14423
▁tourists	-9.14545
▁gu	-9.14596
▁dutch	-9.14656
▁ital	-9.14733
▁goal	-9.14765
▁farm	-9.14824
▁sing	-9.1495
▁den	-9.15047
▁nigeria	-9.15073
we	-9.15271
off	-9.15634
ota	-9.15782
▁imp	-9.16067
▁issues	-9.16133
▁profits	-9.16195
▁ha	-9.16272
▁mu	-9.16395
▁best	-9.16405
▁players	-9.16611
▁card	-9.16659
▁r	-9.16945
▁shi	-9.16986
▁bus	-9.17111
▁town	-9.17361
▁drug	-9.17697
▁plant	-9.17702
ital	-9.17901
▁doe	-9.1797
▁su	-9.18018
▁result	-9.18099
der	-9.18192
v	-9.18196
▁rais	-9.18207
▁clash	-9.18363
▁trans	-9.1848
ife	-9.18504
fi	-9.18511
▁formal	-9.18663
ho	-9.18778
▁kille	-9.18804
▁decline	-9.18958
▁kos	-9.1908
▁gra	-9.19114
▁ko	-9.19258
lin	-9.19833
▁tex	-9.19837
▁dan	-9.20237
▁going	-9.20284
▁dies	-9.20576
▁expand	-9.20842
oman	-9.20894
lso	-9.21123
▁pass	-9.21175
malaysia	-9.21259
premier	-9.2131
euro	-9.21317
palestinian	-9.21325
gold	-9.21419
ip	-9.21608
hold	-9.21619
iami	-9.22341
▁leav	-9.2241
ula	-9.22443
▁democra	-9.22605
ant	-9.22631
tention	-9.22691
truck	-9.22746
▁semi	-9.22852
eu	-9.2289
▁short	-9.22915
▁multi	-9.22938
▁previous	-9.22938
▁california	-9.22939
▁envoy	-9.22939
▁current	-9.22939
▁funeral	-9.22939
▁jacque	-9.22939
▁strategi	-9.22939
▁pilot	-9.22939
▁account	-9.22939
▁historic	-9.2294
▁pct	-9.2294
▁staff	-9.22941
▁ceasefire	-9.22942
▁performance	-9.22942
▁midfield	-9.22944
▁overseas	-9.22948
▁network	-9.22951
▁common	-9.22951
▁brother	-9.22959
▁rally	-9.22965
ribb	-9.22967
▁big	-9.23001
▁surgery	-9.23009
▁rare	-9.23013
▁frank	-9.23013
zambi	-9.23026
▁natur	-9.23027
▁disease	-9.23029
▁jerusalem	-9.23029
▁virus	-9.23029
▁transport	-9.2303
▁crime	-9.23037
▁crown	-9.23042
▁strip	-9.2306
▁technology	-9.2307
▁centur	-9.23078
▁emergenc	-9.23099
▁firm	-9.23131
▁hezbollah	-9.23184
▁labor	-9.23186
▁risk	-9.2319
▁explosion	-9.23191
▁hill	-9.23234
▁worth	-9.23252
▁sweden	-9.23273
▁syria	-9.23287
▁chic	-9.23287
▁sudan	-9.23345
▁admit	-9.23346
▁canadian	-9.23349
▁speak	-9.2335
▁measure	-9.23357
▁agent	-9.23401
delegation	-9.23409
▁statement	-9.2343
▁eye	-9.23457
▁slam	-9.23462
▁canada	-9.23506
▁iranian	-9.23509
▁act	-9.23513
▁ground	-9.23524
▁boeing	-9.23539
▁terrorism	-9.23678
har	-9.23786
▁kenyan	-9.23873
▁#-	-9.24007
▁push	-9.24029
▁que	-9.24134
▁refugees	-9.24293
▁van	-9.24386
▁seize	-9.24533
ong	-9.24535
▁hard	-9.24662
▁wall	-9.24698
▁hop	-9.24864
▁fighter	-9.25013
▁berl	-9.25121
▁tak	-9.25125
▁fe	-9.25291
burg	-9.25376
▁wi	-9.25442
▁ag	-9.2548
▁coming	-9.25553
mon	-9.25679
▁challenge	-9.25748
ure	-9.26095
▁find	-9.26227
▁arriv	-9.26397
ol	-9.26409
▁tradition	-9.26676
ei	-9.26884
▁advance	-9.26979
eland	-9.26982
▁aim	-9.2717
sri	-9.27909
▁rules	-9.2793
run	-9.27979
▁accuse	-9.281
ling	-9.28193
▁plot	-9.28362
▁ir	-9.28372
.###	-9.28374
lf	-9.28384
▁hol	-9.28419
round	-9.28424
os	-9.28494
▁partner	-9.2865
ism	-9.28975
▁gett	-9.29242
▁bad	-9.29316
▁tri	-9.2967
war	-9.29739
▁legislati	-9.29967
▁prepare	-9.29967
he	-9.30195
ha	-9.30261
▁approv	-9.30332
▁secure	-9.3088
▁va	-9.30895
search	-9.31181
▁ta	-9.31211
four	-9.31257
court	-9.31325
ox	-9.31333
thai	-9.31333
:	-9.31341
government	-9.31353
▁we	-9.31368
ate	-9.31441
▁scor	-9.31457
aking	-9.31533
▁relie	-9.31781
▁cost	-9.31962
▁bombings	-9.32055
▁pledge	-9.32132
▁drop	-9.32171
▁ru	-9.32217
▁controvers	-9.32227
▁pick	-9.32309
▁trouble	-9.32319
ster	-9.32447
▁wide	-9.32522
▁predict	-9.3258
▁arab	-9.32724
▁drive	-9.32742
▁cha	-9.32757
▁broke	-9.32774
▁direct	-9.329
▁intelligence	-9.32938
▁october	-9.32938
▁church	-9.32939
▁louis	-9.32939
▁unveil	-9.32939
▁affair	-9.32939
▁scandal	-9.32939
▁draft	-9.32939
▁representative	-9.32939
▁immigrant	-9.3294
▁moslem	-9.3294
▁accident	-9.3294
▁resort	-9.3294
▁legend	-9.32943
▁collision	-9.32945
▁settlement	-9.32947
▁steel	-9.32947
▁immigrat	-9.32964
▁data	-9.33014
▁judicia	-9.33026
▁purchase	-9.33038
▁establish	-9.33039
▁prosecutor	-9.33039
▁gather	-9.33048
▁loan	-9.33055
▁avoid	-9.33056
▁kenne	-9.33062
▁tighten	-9.33072
ovo	-9.33077
▁base	-9.33153
▁sun	-9.33161
▁review	-9.33167
▁planned	-9.33176
▁statu	-9.33178
▁carry	-9.332
▁attorney	-9.33211
▁flood	-9.33216
▁personal	-9.33241
▁dig	-9.33243
▁losses	-9.33243
▁rain	-9.33243
▁yuan	-9.33246
▁sanctions	-9.3325
▁nato	-9.33274
▁northeast	-9.33278
▁renew	-9.33288
▁students	-9.33349
▁robert	-9.33371
▁protests	-9.33382
▁fair	-9.33409
▁blue	-9.33419
▁slovenia	-9.33567
▁pound	-9.33625
▁own	-9.33694
▁ukrain	-9.33746
▁total	-9.3382
▁airlines	-9.33832
ner	-9.33903
ard	-9.34108
ley	-9.34242
▁pacif	-9.34287
▁sent	-9.34381
▁abu	-9.3442
▁believe	-9.34441
▁caused	-9.34514
▁cuts	-9.34591
sian	-9.34701
▁malaysia	-9.34838
our	-9.35002
▁my	-9.35036
ak	-9.35136
pent	-9.35394
fire	-9.35635
▁changed	-9.35749
▁boy	-9.35783
sson	-9.35891
▁let	-9.35973
thing	-9.36041
▁vi	-9.3612
▁cast	-9.36306
▁surge	-9.36398
▁publish	-9.36652
▁sites	-9.36722
▁ki	-9.36952
▁silv	-9.37105
▁targets	-9.37182
▁pop	-9.37836
▁minor	-9.37871
▁vot	-9.37905
▁quot	-9.38015
ab	-9.38104
▁trial	-9.38199
▁resume	-9.38239
▁clashe	-9.38401
iana	-9.3891
lr	-9.39256
▁lo	-9.39303
▁motor	-9.39399
iran	-9.39473
▁point	-9.39595
▁reporter	-9.39621
gen	-9.40134
▁denie	-9.4016
zed	-9.4017
▁rebel	-9.40281
mas	-9.41146
▁books	-9.41205
rac	-9.41599
went	-9.4166
▁br	-9.41723
▁polan	-9.41879
▁pr	-9.41965
east	-9.42043
▁fac	-9.42159
▁jo	-9.42231
lebanese	-9.42397
weight	-9.4241
british	-9.4243
house	-9.42444
foreign	-9.42444
bush	-9.42445
board	-9.42446
bank	-9.42457
italian	-9.42476
ze	-9.42536
american	-9.42582
tter	-9.42637
▁##.##	-9.42734
▁ben	-9.42774
▁levels	-9.4308
###	-9.43122
▁double	-9.43139
top	-9.4324
▁albania	-9.43353
▁rule	-9.4346
germany	-9.43515
iri	-9.4361
mo	-9.43626
▁hous	-9.43657
nation	-9.43733
▁execut	-9.43769
ium	-9.43853
gon	-9.43876
▁guil	-9.43902
▁develop	-9.44001
nivers	-9.44042
▁bureau	-9.44049
▁marriage	-9.4405
▁narrow	-9.4405
▁resolution	-9.4405
▁satellite	-9.4405
▁suggest	-9.4405
▁venezuela	-9.4405
rugby	-9.4405
▁convict	-9.4405
▁refuse	-9.4405
▁fifth	-9.44051
qatar	-9.44051
▁knock	-9.44051
▁nazi	-9.44051
▁conservative	-9.44052
▁request	-9.44053
▁december	-9.44056
▁slump	-9.44067
▁guard	-9.44068
▁appear	-9.44075
▁commercial	-9.44078
dy	-9.44079
▁child	-9.4408
▁senator	-9.44081
▁kidnapp	-9.44088
▁favorite	-9.44091
▁playoff	-9.441
▁recall	-9.44106
▁brazil	-9.44115
▁save	-9.4413
▁appeal	-9.44136
▁takeover	-9.44136
▁nine	-9.44142
▁debate	-9.44143
sembl	-9.44153
▁ethnic	-9.44162
▁standard	-9.44183
▁pira	-9.4425
▁social	-9.44273
▁voters	-9.44276
ja	-9.44302
hu	-9.44311
ert	-9.44349
▁afghan	-9.44353
▁czech	-9.44356
▁fatal	-9.44359
▁summ	-9.44363
▁argentina	-9.44376
▁activist	-9.44383
▁stay	-9.44392
▁plunge	-9.44417
▁matches	-9.44445
▁parent	-9.44485
▁legislator	-9.44502
ov	-9.44525
▁environmental	-9.44539
▁rescue	-9.44556
▁turkey	-9.44559
▁story	-9.44619
▁prisoners	-9.44653
▁chi	-9.44658
▁scientist	-9.4466
▁teacher	-9.44697
▁culture	-9.4472
▁term	-9.44727
▁owner	-9.44751
▁confidence	-9.44756
▁somali	-9.44763
surance	-9.44836
▁wor	-9.45003
▁hamas	-9.45091
▁politic	-9.45105
▁shooting	-9.45107
▁access	-9.45166
▁seem	-9.45176
▁soft	-9.45218
▁seal	-9.45263
king	-9.45302
▁mi	-9.45353
▁forward	-9.45558
▁fear	-9.45613
ang	-9.45689
▁spread	-9.45693
▁complete	-9.45899
ria	-9.46266
▁weight	-9.46324
ator	-9.46624
asser	-9.46632
▁bann	-9.46758
▁officer	-9.46866
-#	-9.46893
▁olympics	-9.46897
▁experts	-9.46898
▁gree	-9.47064
▁age	-9.47163
flation	-9.47222
▁once	-9.47234
▁###-	-9.48063
▁figures	-9.48182
▁propos	-9.48544
▁az	-9.48694
▁holding	-9.48843
▁gul	-9.48911
ts	-9.49062
ya	-9.49103
▁reform	-9.49104
▁fr	-9.49228
▁freed	-9.49359
sket	-9.49457
▁fix	-9.49486
▁hope	-9.49732
▁ve	-9.49867
▁leg	-9.49944
▁sit	-9.50012
▁receive	-9.50128
▁range	-9.50234
de	-9.50298
▁village	-9.50343
lines	-9.50682
some	-9.50874
iz	-9.50992
ally	-9.51309
▁jet	-9.51332
▁target	-9.51423
▁ra	-9.51519
▁ope	-9.51664
▁hug	-9.51715
rick	-9.51785
▁price	-9.51796
nan	-9.51812
gree	-9.51999
▁comment	-9.52056
▁roman	-9.52349
anti	-9.52387
own	-9.52565
▁pain	-9.52703
▁score	-9.52782
ud	-9.53004
▁comes	-9.53116
▁pat	-9.534
ished	-9.53481
▁philippines	-9.5352
utu	-9.54532
her	-9.5455
ness	-9.54643
election	-9.54799
▁clear	-9.54853
pacif	-9.54871
xinhua	-9.54907
work	-9.54925
rious	-9.5493
police	-9.54948
prime	-9.54951
▁expect	-9.54963
billion	-9.54977
aid	-9.55004
cow	-9.55086
national	-9.55265
cession	-9.55298
ut	-9.55401
▁create	-9.55602
▁dec	-9.55619
▁mc	-9.55663
▁edge	-9.55715
▁struggle	-9.55881
commenta	-9.55917
▁kashmir	-9.55975
ica	-9.56061
▁gov	-9.56203
▁provide	-9.56219
ake	-9.56229
▁protect	-9.56358
▁threat	-9.56389
▁christ	-9.56399
▁ceremon	-9.5655
▁catholic	-9.5655
▁condemn	-9.5655
▁february	-9.5655
▁helicopter	-9.5655
▁progress	-9.5655
▁statistic	-9.5655
▁lawsuit	-9.5655
▁tamil	-9.5655
▁reduce	-9.5655
▁disappoint	-9.5655
▁prix	-9.5655
▁automobile	-9.56551
▁tight	-9.56554
algeria	-9.56554
▁mortar	-9.56558
▁doctor	-9.56558
▁mountain	-9.56558
▁lawyer	-9.56559
▁scoreboard	-9.56561
▁criticize	-9.56561
▁celebration	-9.56562
▁november	-9.56562
▁limit	-9.56572
▁popular	-9.56577
▁squa	-9.56577
▁hav	-9.56592
▁climb	-9.56604
▁kick	-9.56613
▁feb	-9.5662
▁torch	-9.5663
▁leftist	-9.5664
▁property	-9.56658
▁govern	-9.56658
▁independen	-9.56668
▁extend	-9.56675
▁fraud	-9.56678
▁increasing	-9.56678
▁smith	-9.56678
etary	-9.56686
▁stadi	-9.56689
▁leadership	-9.5669
▁strengthen	-9.5669
▁hotel	-9.56705
▁highest	-9.56725
▁winter	-9.56732
▁moment	-9.56741
▁web	-9.56745
▁jim	-9.5685
▁retire	-9.56861
▁electronic	-9.56899
▁video	-9.56899
▁famili	-9.56904
▁soar	-9.56912
▁girl	-9.56922
▁proposal	-9.56948
▁halt	-9.56951
▁comb	-9.57037
▁micro	-9.5713
▁career	-9.57282
▁got	-9.57287
▁zi	-9.57351
▁dean	-9.57356
▁counter	-9.57398
▁stake	-9.57407
▁divide	-9.57411
▁lines	-9.57461
ide	-9.57547
▁pole	-9.57555
▁container	-9.57618
▁hk	-9.57627
▁classic	-9.57647
▁marine	-9.57661
▁word	-9.57683
ember	-9.57726
▁heat	-9.57764
▁gm	-9.57784
▁colo	-9.57803
▁munic	-9.57877
decided	-9.57912
▁hero	-9.58013
going	-9.58078
▁midd	-9.58151
▁dia	-9.58295
▁pi	-9.58391
▁rich	-9.58707
▁cal	-9.58743
▁produce	-9.58953
▁fee	-9.59119
▁machine	-9.59146
▁import	-9.59182
▁par	-9.59189
▁store	-9.59192
ina	-9.59195
ntil	-9.59298
ansa	-9.5942
▁prospect	-9.59487
▁min	-9.59522
cho	-9.59805
▁del	-9.59978
▁em	-9.60197
ko	-9.6021
ble	-9.60277
▁pan	-9.60364
▁ka	-9.6047
▁promote	-9.60531
▁victims	-9.60543
set	-9.60626
coni	-9.60799
▁wood	-9.60975
▁sh	-9.61063
▁decades	-9.61285
me	-9.61304
▁serbia	-9.62226
position	-9.62475
runn	-9.62484
ex	-9.62517
tain	-9.62545
▁banks	-9.62605
▁gun	-9.62785
▁surprise	-9.62847
▁warning	-9.63218
▁costs	-9.63227
▁sp	-9.63229
▁flo	-9.63292
▁cur	-9.63321
igh	-9.634
▁live	-9.63435
▁pane	-9.63495
stan	-9.63507
gu	-9.63736
▁trip	-9.63833
▁sunn	-9.63904
▁challenges	-9.64095
ji	-9.64194
pe	-9.64204
▁ne	-9.64355
ural	-9.64753
▁friend	-9.64819
▁alliance	-9.64956
▁propose	-9.64969
ur	-9.65031
▁jobs	-9.65034
▁muslim	-9.651
▁system	-9.65251
range	-9.65472
federation	-9.65576
▁decade	-9.65644
▁figure	-9.65823
▁nt	-9.66425
rought	-9.66565
noo	-9.66567
▁islands	-9.66682
▁hand	-9.66722
▁bit	-9.66855
▁bay	-9.66895
▁fu	-9.67133
tive	-9.67212
mond	-9.67421
ack	-9.67424
▁position	-9.676
form	-9.67729
pover	-9.67902
xi	-9.68006
▁site	-9.68115
iller	-9.68146
cial	-9.68189
▁oppos	-9.68345
▁northwest	-9.68364
ily	-9.68377
rich	-9.68507
ap	-9.68552
▁believ	-9.68682
▁jin	-9.68753
cox	-9.68877
elect	-9.68906
how	-9.69108
nigeria	-9.69168
spanish	-9.6918
iraq	-9.69201
john	-9.6921
strong	-9.6921
▁bol	-9.69218
▁ten	-9.69632
▁homes	-9.69783
▁.#	-9.69911
profi	-9.69952
cycl	-9.7001
ame	-9.70036
▁el	-9.70078
▁hot	-9.70295
chi	-9.70404
car	-9.70501
jam	-9.70543
##-##	-9.70588
und	-9.7061
▁invest	-9.70664
▁favor	-9.70781
▁command	-9.70784
▁civil	-9.70793
qaida	-9.70835
▁available	-9.70835
▁conflict	-9.70835
▁evidence	-9.70835
▁industrial	-9.70835
▁opponent	-9.70835
▁reiterate	-9.70835
▁minute	-9.70836
▁determine	-9.70836
▁holiday	-9.70836
▁jump	-9.70836
ivoire	-9.70836
▁speech	-9.70836
▁sustain	-9.70836
▁spot	-9.70837
▁mob	-9.70837
▁mahm	-9.70837
▁illness	-9.70838
▁scheme	-9.70839
▁commitment	-9.7084
▁discover	-9.70841
▁shift	-9.70841
▁...	-9.70842
▁electric	-9.70844
▁spur	-9.70846
▁compar	-9.70848
▁gear	-9.70852
▁rail	-9.70852
▁glance	-9.70853
▁deport	-9.70854
▁pact	-9.70855
▁damage	-9.70858
▁lawmaker	-9.70865
▁string	-9.70871
▁detain	-9.70872
▁wait	-9.70874
▁michel	-9.70876
▁neighbor	-9.70887
▁oct	-9.70888
▁agencies	-9.70897
▁yet	-9.70925
▁investigator	-9.7094
▁speed	-9.70966
▁cash	-9.70968
▁phil	-9.70973
▁display	-9.70982
▁effect	-9.70985
▁smuggling	-9.70985
▁drunk	-9.70985
▁college	-9.70985
▁accept	-9.70985
▁advisory	-9.70986
▁consider	-9.70986
▁haiti	-9.70993
▁hurt	-9.71004
▁protection	-9.71008
▁worrie	-9.71012
▁corporat	-9.71013
▁foundation	-9.71015
▁check	-9.71036
▁tell	-9.71036
▁probabl	-9.71053
▁remark	-9.71056
▁navy	-9.71085
▁brun	-9.71106
▁warming	-9.71155
▁artist	-9.71165
qa	-9.71191
▁netanyahu	-9.71243
▁nepal	-9.71243
▁interview	-9.71243
▁tiger	-9.71252
▁strait	-9.71262
▁unrest	-9.71268
▁mix	-9.71271
▁shopp	-9.71277
▁bri	-9.71299
▁christian	-9.71303
hran	-9.71315
▁jean	-9.71323
▁reserve	-9.71329
▁francis	-9.71339
▁kim	-9.71346
▁fast	-9.71495
▁taipei	-9.71508
▁chemical	-9.71508
start	-9.71511
ick	-9.71638
▁fish	-9.71646
ockey	-9.71666
▁respons	-9.71687
▁ending	-9.71698
▁moder	-9.71703
finals	-9.71763
ski	-9.71856
▁squad	-9.71859
▁throw	-9.71862
▁vl	-9.71895
▁angel	-9.71911
▁tur	-9.72094
q	-9.72094
▁conditions	-9.72112
terior	-9.72114
▁handl	-9.7212
▁oust	-9.72136
los	-9.72209
▁arch	-9.7224
▁celtics	-9.72259
▁popul	-9.723
▁editor	-9.72329
▁penta	-9.72341
▁bla	-9.72388
▁crashe	-9.72573
▁mission	-9.72631
▁participat	-9.727
kel	-9.72706
ax	-9.72775
jame	-9.72776
▁mean	-9.72826
oit	-9.72862
▁bonds	-9.72937
▁lin	-9.72957
ona	-9.73172
ask	-9.73174
pop	-9.73176
▁yel	-9.73201
▁ice	-9.73234
tan	-9.73597
▁every	-9.73666
▁bounce	-9.73713
▁probe	-9.73755
▁wu	-9.73774
can	-9.738
nian	-9.73816
med	-9.7392
ice	-9.73963
▁authority	-9.74185
▁winds	-9.74437
▁miss	-9.74465
▁lowe	-9.7448
his	-9.74574
▁williams	-9.74578
sprint	-9.74641
▁non	-9.74658
gun	-9.74745
▁rest	-9.74914
▁kat	-9.75007
niel	-9.75035
▁bolt	-9.75088
▁sin	-9.75229
▁standings	-9.75312
bol	-9.7571
▁peter	-9.75813
philippine	-9.75935
▁mer	-9.7613
▁ham	-9.76267
▁positions	-9.76317
▁jer	-9.76449
lew	-9.76579
▁hi	-9.766
ler	-9.76629
imon	-9.76801
tes	-9.76857
ill	-9.76884
▁lives	-9.77002
▁pl	-9.77088
▁comments	-9.77317
-##	-9.77363
▁rid	-9.77456
▁cause	-9.7746
state	-9.77462
▁liber	-9.77494
▁launche	-9.77526
room	-9.77594
rand	-9.77607
ario	-9.77896
▁bayer	-9.78067
▁rad	-9.78245
if	-9.78327
▁rica	-9.78398
▁replace	-9.78499
et	-9.78664
▁clim	-9.78674
ou	-9.78778
▁receiv	-9.78791
ew	-9.78827
▁fel	-9.78854
▁hitt	-9.78902
▁resign	-9.78933
za	-9.79038
▁spi	-9.79211
▁gen	-9.79271
formation	-9.79307
▁fa	-9.79382
les	-9.79501
▁fm	-9.79502
hone	-9.79561
▁cl	-9.79587
alf	-9.79702
han	-9.79712
▁value	-9.79759
▁critic	-9.79768
bia	-9.79841
▁drugs	-9.79917
verage	-9.80438
▁cong	-9.80535
▁transfer	-9.80906
▁pere	-9.8149
▁ran	-9.81559
▁infect	-9.81582
six	-9.81796
▁screen	-9.81943
dict	-9.82032
ches	-9.82098
▁view	-9.8211
▁photo	-9.82142
▁jan	-9.82199
ran	-9.82243
▁victim	-9.82308
▁hits	-9.82435
▁pu	-9.82496
▁detail	-9.82512
▁serbs	-9.82548
fred	-9.82766
til	-9.82829
tire	-9.82854
▁talk	-9.8316
▁add	-9.83352
▁transit	-9.83403
▁player	-9.83426
▁theme	-9.83439
rapp	-9.83445
▁stor	-9.837
head	-9.8396
una	-9.84021
▁newly	-9.84204
▁caus	-9.84219
nt	-9.84309
ssel	-9.84499
raf	-9.84567
▁reache	-9.84595
editor	-9.84785
reak	-9.84814
erland	-9.85203
▁impos	-9.85322
mission	-9.85706
more	-9.85758
soft	-9.85813
dutch	-9.85837
egypt	-9.85851
though	-9.85858
▁driv	-9.85869
▁shoot	-9.85891
north	-9.85899
face	-9.85918
season	-9.85922
week	-9.85922
tennis	-9.85941
stock	-9.85979
iraqi	-9.85988
party	-9.86028
kong	-9.86053
▁pe	-9.86104
▁pitch	-9.86213
▁polls	-9.86214
▁travel	-9.86245
star	-9.86256
▁cance	-9.86294
▁class	-9.86397
col	-9.86462
▁hal	-9.86535
▁flu	-9.86625
▁swed	-9.86688
llor	-9.86761
▁custo	-9.8688
▁rwanda	-9.86885
▁citi	-9.86913
▁environment	-9.86923
ash	-9.86953
▁earl	-9.87223
▁violat	-9.87249
.##	-9.87306
furt	-9.87308
▁georg	-9.87319
gua	-9.87378
▁champ	-9.87395
ounce	-9.8743
▁secret	-9.8746
▁punish	-9.87467
▁represent	-9.87501
▁particular	-9.87502
▁agricultur	-9.87502
▁chechnya	-9.87502
▁education	-9.87502
▁january	-9.87502
▁kilogram	-9.87502
▁optimis	-9.87502
▁precaution	-9.87502
▁sentiment	-9.87502
▁crowd	-9.87502
▁monitor	-9.87502
precede	-9.87502
▁choice	-9.87503
▁column	-9.87503
▁priest	-9.87503
▁imminent	-9.87504
▁valley	-9.87504
▁rallie	-9.87505
▁columb	-9.87505
▁contribute	-9.87506
▁channel	-9.87506
▁relay	-9.87506
▁nfl	-9.87508
▁weakness	-9.87508
▁twic	-9.87514
viet	-9.87515
▁expansion	-9.87517
▁flag	-9.87518
▁lunch	-9.87521
▁manage	-9.87522
▁truce	-9.87523
▁####-####	-9.87523
western	-9.87525
▁magic	-9.87525
thodo	-9.87527
▁assassination	-9.87529
▁jordanian	-9.8753
▁abra	-9.87531
ikh	-9.87531
▁honor	-9.87531
▁super	-9.87531
▁journalist	-9.87532
▁cit	-9.87537
▁couple	-9.8754
▁hebron	-9.87551
▁simple	-9.87572
▁erupt	-9.87573
▁elder	-9.87579
▁talent	-9.87581
▁remember	-9.87612
▁appoint	-9.87613
▁spark	-9.87613
▁hostage	-9.87629
▁crack	-9.87634
▁repatriat	-9.87681
▁doubt	-9.87681
▁chronic	-9.87681
▁ethiopia	-9.87681
▁kuwait	-9.87681
▁uruguay	-9.87681
▁swift	-9.87682
▁erik	-9.87686
▁tropic	-9.87686
▁semifinal	-9.87688
▁angola	-9.87703
▁block	-9.87705
▁reconstruction	-9.87728
▁father	-9.87744
▁factory	-9.8775
▁violation	-9.87757
▁pollut	-9.87769
▁carrier	-9.87787
▁si	-9.87839
▁freeze	-9.87851
eric	-9.87916
▁administrat	-9.87973
▁page	-9.87978
▁sixth	-9.87984
ize	-9.88023
▁uni	-9.88025
bar	-9.88031
▁swor	-9.88076
▁sight	-9.88082
▁plead	-9.88131
▁fi	-9.8814
▁shenzh	-9.88141
▁custom	-9.88145
▁mala	-9.88154
▁welcome	-9.88156
evin	-9.88178
▁shake	-9.88201
▁era	-9.88203
indian	-9.88217
▁brand	-9.88252
▁serve	-9.88267
izu	-9.88297
▁rwandan	-9.88302
di	-9.88328
▁bulgarian	-9.88383
▁uncertaint	-9.88406
▁treatment	-9.88422
▁surviv	-9.88428
mental	-9.88468
ept	-9.88478
▁southeast	-9.88517
bai	-9.88944
▁employ	-9.88952
▁lift	-9.88968
stic	-9.8897
▁insurgen	-9.88971
▁fact	-9.89025
▁longer	-9.89119
▁saving	-9.8914
▁seeding	-9.89149
▁extradit	-9.89159
bab	-9.89233
▁austria	-9.89245
ifa	-9.89261
erce	-9.89267
lar	-9.8937
kept	-9.89387
▁ug	-9.89437
ester	-9.89501
dge	-9.89502
▁kind	-9.89515
▁funds	-9.89549
drid	-9.89559
zy	-9.89572
▁income	-9.89811
ray	-9.89861
▁holy	-9.90046
▁seat	-9.90059
▁suburb	-9.90069
▁hire	-9.90085
▁lu	-9.90204
▁opener	-9.9023
▁ray	-9.90264
olen	-9.9036
chen	-9.90518
air	-9.90531
pr	-9.90562
▁bc	-9.90618
▁supplie	-9.90714
anda	-9.90744
ibra	-9.90754
▁q	-9.90857
oral	-9.90863
▁subs	-9.90995
▁colon	-9.91028
▁circu	-9.91188
▁lee	-9.91234
▁equit	-9.9127
elecommunication	-9.91401
▁movie	-9.9168
sion	-9.91807
gg	-9.91812
▁stepp	-9.91915
ven	-9.92114
grim	-9.92206
▁alexand	-9.92284
ev	-9.92506
uch	-9.92542
▁legislat	-9.92611
▁les	-9.92638
zen	-9.92691
▁conc	-9.92741
▁burn	-9.92809
come	-9.92852
la	-9.92871
▁falls	-9.92967
▁critics	-9.93086
▁te	-9.93265
ought	-9.93286
report	-9.93319
▁sur	-9.93325
card	-9.93345
▁indicat	-9.93462
▁#,###-	-9.93525
▁cars	-9.93945
den	-9.94094
▁mos	-9.94168
▁funding	-9.94242
mba	-9.94409
▁medic	-9.94552
osa	-9.94682
▁sense	-9.94909
▁protester	-9.95096
do	-9.95117
▁appl	-9.95142
▁motors	-9.95164
▁mel	-9.95171
▁bur	-9.95227
fe	-9.95285
bc	-9.95327
coming	-9.95373
▁connecti	-9.95401
tuck	-9.95423
witz	-9.95466
▁seed	-9.95529
▁trader	-9.95641
▁cover	-9.95815
ption	-9.95909
▁rod	-9.96322
mi	-9.96343
▁ti	-9.96547
atp	-9.96581
ourse	-9.96631
▁wa	-9.96732
lax	-9.96745
▁rau	-9.96868
▁cu	-9.97031
▁za	-9.97118
ivor	-9.97284
▁ros	-9.97287
▁witnesse	-9.97459
▁advances	-9.97518
▁finds	-9.97531
▁expe	-9.97627
fic	-9.97645
▁jun	-9.97813
ron	-9.9791
▁cons	-9.97922
ra	-9.98174
▁quote	-9.98271
born	-9.98387
▁inside	-9.98475
▁wh	-9.98527
▁dis	-9.98639
tor	-9.98714
very	-9.98823
▁fo	-9.9886
▁qi	-9.98863
▁sue	-9.98873
lom	-9.99019
base	-9.99275
▁tens	-9.99395
▁kara	-10.0011
▁bu	-10.0014
qu	-10.0026
put	-10.0038
nba	-10.0047
▁ease	-10.0057
▁fer	-10.0068
my	-10.0079
▁medica	-10.0081
even	-10.009
▁brief	-10.009
▁mount	-10.0091
final	-10.0099
▁operator	-10.01
▁wer	-10.0112
▁distan	-10.0128
▁debu	-10.0138
▁timor	-10.0156
▁box	-10.0161
▁medi	-10.0185
▁hus	-10.0189
▁pack	-10.0195
▁disaster	-10.02
▁thing	-10.0212
rn	-10.0223
uel	-10.0226
▁rein	-10.0229
▁expert	-10.0235
wa	-10.0252
▁militant	-10.0254
▁promot	-10.026
boat	-10.0269
ach	-10.0278
▁too	-10.031
▁sav	-10.0322
▁importan	-10.0329
news	-10.0359
▁capt	-10.0364
▁bl	-10.0367
▁suppl	-10.0372
▁collaps	-10.0381
▁bal	-10.0405
away	-10.0409
▁express	-10.0432
tech	-10.0439
bot	-10.0455
augu	-10.0462
lama	-10.0466
da	-10.0479
plus	-10.0494
▁mari	-10.0502
mber	-10.0503
hatter	-10.0525
spoke	-10.0543
turk	-10.0568
brazilian	-10.0568
conduct	-10.0573
zaire	-10.0573
▁lot	-10.0575
employ	-10.0576
austria	-10.0576
lift	-10.0577
spread	-10.0579
democrat	-10.0581
ukrain	-10.0582
terrorism	-10.0584
terror	-10.0584
london	-10.0585
field	-10.0589
clinton	-10.059
through	-10.059
▁wound	-10.059
million	-10.059
percent	-10.059
angel	-10.0597
▁eli	-10.0598
wi	-10.0601
hour	-10.0602
▁possib	-10.0604
adim	-10.0608
came	-10.0608
▁islam	-10.062
ff	-10.0636
▁contain	-10.064
▁fil	-10.0646
▁alleg	-10.0648
tv	-10.0657
agon	-10.0657
dela	-10.0663
▁weigh	-10.0666
graph	-10.0666
▁stars	-10.067
plane	-10.0681
file	-10.0691
▁ac	-10.0695
ees	-10.0698
▁write	-10.0701
tom	-10.0705
▁ja	-10.0706
▁cultur	-10.0707
▁deni	-10.0714
hol	-10.0723
let	-10.0727
▁eliminate	-10.073
tsin	-10.0731
▁prevent	-10.0732
▁lend	-10.0735
▁organiz	-10.0742
▁matt	-10.0745
▁polici	-10.0748
slovak	-10.075
▁caucasus	-10.075
▁cigarette	-10.075
▁consulate	-10.075
▁enterprise	-10.075
▁hewitt	-10.075
▁humanitarian	-10.075
▁reflect	-10.075
▁residents	-10.075
▁significant	-10.075
▁smuggle	-10.075
▁vehicle	-10.075
▁volatil	-10.075
▁amount	-10.075
▁assault	-10.075
▁perfect	-10.075
▁material	-10.075
▁phase	-10.075
▁voice	-10.075
▁ballot	-10.075
▁attract	-10.075
▁drink	-10.075
▁metropoli	-10.075
▁mutual	-10.075
▁broadcast	-10.075
▁adopt	-10.0751
▁tribun	-10.0751
▁trend	-10.0751
macedo	-10.0751
▁widow	-10.0751
▁empire	-10.0751
▁blood	-10.0751
▁agenda	-10.0751
▁deplo	-10.0751
▁benefi	-10.0751
▁warlord	-10.0751
▁influence	-10.0751
ck	-10.0751
▁organis	-10.0751
▁clark	-10.0751
▁reopen	-10.0751
▁client	-10.0752
▁disrupt	-10.0752
▁peak	-10.0752
▁ivan	-10.0752
orrow	-10.0752
▁difference	-10.0752
▁universit	-10.0752
▁peacekeep	-10.0753
rida	-10.0753
▁###.#	-10.0753
▁massacre	-10.0754
▁generation	-10.0754
▁addition	-10.0754
▁clean	-10.0754
▁thrill	-10.0754
▁spill	-10.0754
certain	-10.0755
▁option	-10.0755
▁intend	-10.0755
▁thanks	-10.0756
▁management	-10.0756
▁competition	-10.0759
▁commande	-10.0759
▁regulator	-10.076
▁paper	-10.076
▁deliver	-10.076
phy	-10.076
▁helms	-10.0761
▁outlook	-10.0761
▁memor	-10.0762
▁active	-10.0762
stead	-10.0762
▁freighter	-10.0763
▁contest	-10.0763
▁disarm	-10.0764
▁rafa	-10.0764
▁fringe	-10.0765
▁rush	-10.0765
▁aero	-10.0766
olence	-10.0766
▁musician	-10.0767
▁jose	-10.0767
▁expens	-10.0767
eight	-10.0767
arcelor	-10.0768
▁stamp	-10.0769
▁strain	-10.0769
▁skat	-10.0771
▁airliner	-10.0772
▁badminton	-10.0772
▁ljub	-10.0772
▁offshore	-10.0772
▁yugoslavia	-10.0772
▁confident	-10.0772
▁message	-10.0772
▁patrol	-10.0772
▁refiner	-10.0772
▁carbon	-10.0773
▁track	-10.0773
▁arro	-10.0773
▁heroin	-10.0773
▁guide	-10.0773
▁style	-10.0773
▁sometimes	-10.0774
▁tank	-10.0775
▁dome	-10.0775
ral	-10.0775
▁gates	-10.0776
▁bird	-10.0776
▁bodies	-10.0776
▁carlos	-10.0776
▁endorse	-10.078
▁analys	-10.0781
▁palm	-10.0781
▁mine	-10.0781
▁mcc	-10.0782
▁peaceful	-10.0785
▁standing	-10.0788
▁aviat	-10.0789
▁bob	-10.0789
hard	-10.079
▁ends	-10.079
ctic	-10.079
▁roar	-10.0791
ort	-10.0792
▁eas	-10.0794
spective	-10.0797
▁copy	-10.0798
▁silenc	-10.0801
▁lack	-10.0802
▁legal	-10.0804
▁roll	-10.0807
ile	-10.0808
hez	-10.081
▁portugal	-10.0811
▁hsbc	-10.0811
▁walk	-10.0813
▁posts	-10.0813
▁woes	-10.0814
▁carolin	-10.0816
▁cancel	-10.0819
▁atlantic	-10.0819
▁emissions	-10.0819
▁popp	-10.082
▁boom	-10.0826
▁hall	-10.083
▁insist	-10.083
▁type	-10.0831
▁fine	-10.0832
▁actor	-10.0837
ole	-10.0841
▁bron	-10.0842
▁midday	-10.0847
▁mexican	-10.085
▁abuse	-10.0854
ore	-10.0857
▁charit	-10.0864
▁justin	-10.0864
gne	-10.0868
▁reverse	-10.0875
▁zoo	-10.088
▁merge	-10.0881
▁operat	-10.0885
▁pres	-10.0886
▁study	-10.0888
oud	-10.089
▁ya	-10.0896
oul	-10.0902
▁lake	-10.0904
▁fill	-10.0917
▁broker	-10.0919
▁doubled	-10.0924
▁bull	-10.0925
▁sc	-10.0925
▁arrests	-10.0925
▁conduct	-10.0931
▁provid	-10.0946
▁vat	-10.0948
mination	-10.095
▁mind	-10.0965
▁albanian	-10.0966
hen	-10.0973
▁eric	-10.0973
▁award	-10.0977
▁signal	-10.0978
▁alone	-10.0979
terra	-10.0988
▁tele	-10.0991
▁friendl	-10.1001
dom	-10.1019
▁miner	-10.1023
▁shar	-10.1027
▁prove	-10.103
▁ke	-10.1031
▁colli	-10.104
sive	-10.1049
▁severe	-10.1059
▁earnings	-10.1065
▁gro	-10.1081
ine	-10.1083
lone	-10.1086
▁detainees	-10.1089
ffe	-10.1091
▁fin	-10.11
▁ri	-10.1103
rena	-10.1105
▁challeng	-10.1117
▁zha	-10.1122
▁collapse	-10.1134
hese	-10.1135
▁search	-10.1138
grad	-10.1149
▁x	-10.1159
▁plum	-10.1161
rado	-10.1165
alai	-10.1192
▁wind	-10.1203
▁jame	-10.1205
hi	-10.122
▁proto	-10.1227
▁sna	-10.1234
tro	-10.1245
▁terr	-10.1267
lash	-10.1267
audit	-10.1268
gger	-10.1276
▁separate	-10.1278
▁hunt	-10.1286
▁bat	-10.1289
▁nam	-10.1308
▁jak	-10.1312
gol	-10.1313
▁cla	-10.1335
▁aware	-10.1346
art	-10.1355
▁remains	-10.1365
abilit	-10.1384
▁mila	-10.1395
fer	-10.1398
abul	-10.1408
▁myst	-10.142
teur	-10.1433
▁vers	-10.1444
▁photos	-10.1453
▁hostil	-10.1454
▁oppose	-10.1469
ki	-10.1474
▁gri	-10.1505
▁scot	-10.1511
ie	-10.153
▁cond	-10.1532
ving	-10.1545
dish	-10.1546
▁rat	-10.1554
sports	-10.1561
▁mill	-10.1597
▁rac	-10.1621
hit	-10.1624
▁ric	-10.1633
omic	-10.1637
▁sti	-10.1638
▁bell	-10.1645
▁ol	-10.1652
▁controll	-10.1656
▁ignor	-10.1689
iling	-10.1701
▁jets	-10.1721
shi	-10.1722
▁villages	-10.1733
▁swee	-10.1741
hook	-10.1761
▁para	-10.1791
▁swe	-10.1819
▁assist	-10.1822
▁meter	-10.1838
▁inter	-10.1878
ay	-10.1939
lly	-10.1942
▁resum	-10.1949
▁plott	-10.195
▁usual	-10.2004
▁offices	-10.2087
lance	-10.209
▁consult	-10.2103
▁rob	-10.2128
mann	-10.2133
▁emerg	-10.2136
▁vie	-10.2136
▁connect	-10.2149
arian	-10.2181
▁bang	-10.2183
ual	-10.2214
▁fly	-10.2218
▁ver	-10.2233
sual	-10.2248
▁stabili	-10.2253
early	-10.2257
con	-10.226
▁hung	-10.2262
▁mich	-10.2288
▁publishe	-10.2312
sni	-10.2342
ania	-10.2344
▁gor	-10.2346
ez	-10.2366
timorese	-10.2375
▁mik	-10.2421
▁juni	-10.2424
ail	-10.2431
wis	-10.2474
zawa	-10.2497
chant	-10.2504
▁mis	-10.2526
red	-10.2539
▁names	-10.2541
tly	-10.2542
tage	-10.2553
ver	-10.2554
ana	-10.258
▁escape	-10.2584
▁qualifier	-10.2612
▁demonstrat	-10.2616
▁chas	-10.2636
inan	-10.2645
mes	-10.2646
▁plea	-10.2651
▁ama	-10.2651
ons	-10.2659
volv	-10.2671
▁separatist	-10.2694
▁goods	-10.2711
▁tension	-10.2719
cks	-10.2724
ique	-10.2724
law	-10.2726
rank	-10.2731
▁bomber	-10.2735
communication	-10.2743
▁prov	-10.2748
▁andre	-10.2754
▁sport	-10.2779
▁sla	-10.2807
▁techn	-10.2814
▁sat	-10.2856
win	-10.2861
▁rout	-10.2893
▁lash	-10.291
▁chang	-10.294
beat	-10.294
iers	-10.2951
▁ste	-10.2958
imm	-10.2962
aw	-10.2971
▁treasur	-10.2983
patient	-10.299
▁nava	-10.2996
uff	-10.3004
hio	-10.3007
but	-10.3008
▁opera	-10.3032
mitt	-10.3041
wart	-10.3051
pin	-10.3053
hitter	-10.3063
diary	-10.307
him	-10.3072
▁prais	-10.3073
▁stra	-10.3075
throw	-10.3078
confidence	-10.3082
somali	-10.3082
slovenia	-10.3083
canada	-10.3083
boeing	-10.3084
▁sar	-10.3085
hurricane	-10.3085
black	-10.3085
indonesia	-10.3086
weather	-10.3086
thousand	-10.3086
space	-10.3087
death	-10.3087
pound	-10.3087
saudi	-10.3088
wing	-10.3088
book	-10.3088
jack	-10.3088
securit	-10.309
chief	-10.309
obama	-10.309
official	-10.3091
greece	-10.3091
bosnia	-10.3091
market	-10.3094
level	-10.3097
▁cub	-10.3098
minister	-10.3099
game	-10.3099
match	-10.3099
look	-10.3102
davi	-10.3104
▁atlant	-10.3108
swiss	-10.311
grow	-10.311
croatia	-10.3112
human	-10.3115
broad	-10.3119
cast	-10.3124
wall	-10.3127
▁feel	-10.3128
▁engine	-10.3136
▁smok	-10.314
wo	-10.3142
breaking	-10.3144
arch	-10.3146
kle	-10.3147
town	-10.3153
▁borders	-10.3161
▁alex	-10.3167
ground	-10.317
▁compet	-10.3173
third	-10.3181
▁detr	-10.3184
▁teach	-10.3185
▁currenc	-10.3189
five	-10.3194
▁collect	-10.3196
▁diff	-10.3198
▁complain	-10.3204
uk	-10.3206
elimina	-10.3212
hk	-10.3218
▁rio	-10.3219
uer	-10.3221
uda	-10.3224
▁carrie	-10.3224
▁presiden	-10.3229
▁escalat	-10.3229
▁cooperat	-10.3231
▁tim	-10.3233
▁happ	-10.3235
▁##-#	-10.3235
bri	-10.3239
force	-10.3239
▁simp	-10.3242
▁tea	-10.3243
aught	-10.3245
▁commerc	-10.3245
lays	-10.3246
▁journal	-10.3246
stake	-10.3247
▁rag	-10.3248
▁cease	-10.3249
▁suppo	-10.325
▁im	-10.325
▁acquire	-10.325
▁acquitt	-10.325
▁categor	-10.325
▁contribution	-10.325
▁describ	-10.325
▁dismiss	-10.325
▁dissident	-10.325
▁dramatic	-10.325
▁institution	-10.325
▁intellectual	-10.325
▁negative	-10.325
▁pharmaceutical	-10.325
▁quirky	-10.325
▁tudjman	-10.325
▁unchanged	-10.325
▁vulnerable	-10.325
▁welfare	-10.325
▁wreck	-10.325
sequence	-10.325
▁convinc	-10.325
▁defect	-10.325
▁veteran	-10.325
▁opinion	-10.325
▁conquer	-10.325
▁prompt	-10.325
▁elephant	-10.325
remittance	-10.325
▁animal	-10.325
▁disabled	-10.325
▁extinct	-10.325
▁contact	-10.325
integrat	-10.325
▁tajik	-10.325
▁confus	-10.325
▁approach	-10.325
bishop	-10.325
▁manila	-10.325
▁triumph	-10.325
▁twist	-10.325
▁shoes	-10.325
▁abduction	-10.325
▁inquiry	-10.325
▁address	-10.325
▁retaliat	-10.325
▁submarine	-10.325
▁counterpart	-10.325
▁latin	-10.325
▁dissolve	-10.3251
▁normal	-10.3251
▁chavez	-10.3251
ravag	-10.3251
▁neighborhood	-10.3251
▁plastic	-10.3251
▁excess	-10.3251
▁lavish	-10.3251
▁telecom	-10.3251
▁charter	-10.3251
▁admira	-10.3251
▁belg	-10.3251
demic	-10.3251
▁restrict	-10.3251
▁tactic	-10.3252
icult	-10.3252
▁uncover	-10.3252
▁advice	-10.3252
▁concert	-10.3252
▁malta	-10.3252
▁worsen	-10.3252
▁aggre	-10.3253
minent	-10.3253
▁kazakh	-10.3254
▁plate	-10.3254
▁relative	-10.3254
▁guinea	-10.3254
▁barrel	-10.3254
▁unlike	-10.3254
▁camera	-10.3254
▁select	-10.3254
▁split	-10.3254
▁brave	-10.3255
▁houston	-10.3255
▁incur	-10.3255
▁sta	-10.3255
efa	-10.3255
▁present	-10.3255
▁continent	-10.3255
▁insurgency	-10.3256
▁cafe	-10.3256
▁responsib	-10.3257
▁odd	-10.3257
▁comeback	-10.3258
▁amend	-10.3258
▁hint	-10.3258
▁socialist	-10.3258
▁shortage	-10.3259
▁weaken	-10.3259
▁ar	-10.3259
▁innocent	-10.3259
urit	-10.3259
▁weaker	-10.3259
▁hopeful	-10.326
nels	-10.326
▁polish	-10.326
▁protective	-10.326
▁socie	-10.3261
▁learn	-10.3261
▁tackl	-10.3261
▁sett	-10.3264
▁buddhist	-10.3264
▁certifi	-10.3265
▁cell	-10.3265
strop	-10.3266
▁assum	-10.3266
venge	-10.3268
▁viewers	-10.3268
caf	-10.3269
valent	-10.3269
▁upgrad	-10.3269
onnel	-10.3269
▁hang	-10.327
▁regulation	-10.327
▁steven	-10.327
▁chip	-10.3272
▁gang	-10.3273
▁bail	-10.3273
▁shaw	-10.3273
▁liqu	-10.3275
▁violen	-10.3275
▁gla	-10.3275
▁fidel	-10.3276
▁veto	-10.3276
▁villa	-10.3277
▁globe	-10.3278
vice	-10.3278
▁striv	-10.3278
▁mandate	-10.3279
▁###-#	-10.3279
▁destroy	-10.3279
▁heavily	-10.3279
▁landslide	-10.3279
▁magistrate	-10.3279
▁professional	-10.3279
▁filipin	-10.328
inals	-10.328
▁activity	-10.328
▁quick	-10.328
▁eco	-10.3281
▁combine	-10.3281
▁everything	-10.3281
▁sam	-10.3282
▁krist	-10.3282
▁adviser	-10.3282
▁install	-10.3283
▁snow	-10.3284
ification	-10.3284
▁martin	-10.3284
team	-10.3286
lent	-10.3286
latvian	-10.3287
▁thought	-10.3287
animo	-10.3287
▁person	-10.3288
▁catch	-10.3288
▁sky	-10.3289
▁stun	-10.329
▁gap	-10.3291
▁evacuated	-10.3291
▁hail	-10.3292
▁mediator	-10.3292
▁reference	-10.3292
▁roger	-10.3293
▁reality	-10.3295
▁guang	-10.3295
▁ruin	-10.3295
▁reward	-10.3295
bori	-10.3296
▁chain	-10.3296
▁ni	-10.3296
▁charle	-10.3297
yps	-10.3305
▁alb	-10.3307
▁destin	-10.3307
▁execution	-10.3308
hine	-10.331
▁cook	-10.3311
▁volu	-10.3311
▁tear	-10.3311
▁santa	-10.3312
▁pave	-10.3312
▁announcement	-10.3313
▁curb	-10.3317
▁struck	-10.3317
▁infection	-10.3317
fan	-10.3318
onso	-10.3318
▁hide	-10.3321
▁stray	-10.3326
▁jordan	-10.3326
▁albert	-10.3328
▁mall	-10.3328
▁indies	-10.3329
▁urban	-10.333
▁belarus	-10.333
▁temporar	-10.333
▁fran	-10.3331
▁solve	-10.3332
▁johan	-10.3333
▁sink	-10.3335
▁deadline	-10.334
▁guarantees	-10.3342
▁wetlands	-10.3342
▁rite	-10.3343
▁gambl	-10.3343
▁sex	-10.3344
▁wild	-10.3344
▁quarterfinals	-10.3345
▁nz	-10.3346
aire	-10.3351
▁explore	-10.3355
▁crush	-10.3358
▁dog	-10.3358
▁faction	-10.336
▁triple	-10.3362
▁vic	-10.3362
eating	-10.3363
▁teet	-10.3363
▁alg	-10.3364
▁flow	-10.3364
▁easter	-10.337
▁###.##-##	-10.3373
▁sanc	-10.3379
▁hy	-10.3381
▁wealth	-10.3383
term	-10.3383
▁migrant	-10.3383
ood	-10.3385
▁seattle	-10.3391
▁struggl	-10.3394
▁offens	-10.3397
prom	-10.3399
emen	-10.34
assi	-10.3406
▁div	-10.3406
nk	-10.3406
▁retailer	-10.3409
▁forex	-10.341
ties	-10.3416
▁cia	-10.342
enba	-10.3422
▁yankees	-10.3423
▁joy	-10.3423
▁harv	-10.3424
▁stress	-10.3428
▁cheat	-10.3429
▁.##	-10.3429
gora	-10.343
▁broad	-10.3437
lead	-10.3446
▁boxer	-10.3448
anza	-10.3449
▁mitt	-10.346
▁pois	-10.3467
▁color	-10.3467
▁pair	-10.3468
▁belong	-10.3468
omo	-10.3471
▁harm	-10.348
▁fre	-10.3483
▁tro	-10.3487
▁breme	-10.3488
▁upset	-10.349
▁basis	-10.3491
▁zaire	-10.3493
▁brazilian	-10.3501
▁turk	-10.3502
lady	-10.3503
▁rubb	-10.3505
ano	-10.3513
▁route	-10.3517
tal	-10.3519
▁though	-10.352
▁visitors	-10.353
▁na	-10.3535
isation	-10.3537
koz	-10.3537
▁mil	-10.3537
▁investigat	-10.3543
▁chen	-10.3543
trust	-10.3543
▁ger	-10.3545
▁virgin	-10.3548
ola	-10.3552
▁resigned	-10.3556
▁added	-10.3561
jan	-10.3564
ber	-10.357
yan	-10.3572
▁room	-10.3593
mont	-10.3607
▁realis	-10.3608
▁berni	-10.3618
▁shan	-10.3621
▁sadd	-10.3623
▁departments	-10.3629
▁map	-10.3631
tt	-10.3636
ield	-10.3649
▁.,#	-10.3655
▁defens	-10.3662
clare	-10.3663
▁critical	-10.3667
ast	-10.3667
best	-10.367
ican	-10.3671
▁online	-10.3677
▁evan	-10.3717
thir	-10.372
▁merc	-10.3724
▁creat	-10.3726
petit	-10.3729
▁anton	-10.3729
▁cop	-10.3729
ager	-10.3731
allah	-10.3735
▁suit	-10.3745
▁wish	-10.3745
arm	-10.3757
▁finding	-10.376
▁bruc	-10.3771
raged	-10.3789
▁please	-10.3789
bras	-10.379
sea	-10.3798
iod	-10.3803
lways	-10.3805
wage	-10.3821
▁cent	-10.3838
▁separatists	-10.3839
▁tensions	-10.3842
▁joe	-10.3844
▁landing	-10.3873
▁don	-10.3875
▁'##	-10.3877
fo	-10.3893
kei	-10.3903
ragg	-10.3905
yo	-10.3906
▁ken	-10.3922
▁economist	-10.3923
▁lim	-10.3924
▁barb	-10.3928
▁anna	-10.3938
▁mir	-10.3939
jection	-10.3953
▁tower	-10.3968
▁spar	-10.3972
vel	-10.3972
▁hearing	-10.3974
▁hands	-10.3987
wang	-10.3993
▁invit	-10.3996
hander	-10.4009
▁meat	-10.4012
▁awards	-10.4016
▁disasters	-10.4018
▁barr	-10.4021
▁brac	-10.4026
▁deliberat	-10.4033
erto	-10.4048
▁capture	-10.4079
▁nh	-10.4081
▁liberia	-10.4092
yment	-10.4105
ture	-10.4114
don	-10.4127
dden	-10.4134
▁seller	-10.4135
▁delh	-10.4135
▁nor	-10.4143
▁friends	-10.4147
▁gil	-10.4157
▁bright	-10.4179
▁screens	-10.419
▁views	-10.419
▁yu	-10.4193
nie	-10.4195
tri	-10.4196
centen	-10.4212
▁kur	-10.4219
▁ge	-10.4228
rizon	-10.4229
▁restore	-10.4269
nis	-10.428
ripp	-10.4296
ska	-10.4299
▁breaking	-10.4308
city	-10.432
▁gradua	-10.4326
▁sy	-10.4329
gar	-10.4332
▁paint	-10.4341
ved	-10.4349
nick	-10.4356
gro	-10.4357
pri	-10.4365
▁qua	-10.4382
▁love	-10.4388
▁systems	-10.4405
▁note	-10.4407
ces	-10.4418
cola	-10.4432
▁blam	-10.4445
▁nomin	-10.4452
tish	-10.446
▁stan	-10.4483
dp	-10.4497
▁sali	-10.4499
ngko	-10.4504
▁carte	-10.4511
pat	-10.4514
use	-10.4517
▁ram	-10.4517
olivi	-10.4557
ib	-10.4577
▁consen	-10.4603
arab	-10.4621
▁injure	-10.463
ade	-10.4636
ory	-10.4639
lio	-10.467
phan	-10.4678
▁outrage	-10.4687
ni	-10.4712
ope	-10.4714
▁patri	-10.4722
jo	-10.4738
crew	-10.4748
vine	-10.4769
▁ze	-10.4801
ark	-10.4829
▁ado	-10.4884
▁kwa	-10.4885
ivo	-10.4905
▁doc	-10.4911
▁surpris	-10.4933
▁cap	-10.4935
▁victori	-10.4937
xx	-10.4938
▁cro	-10.4967
▁richard	-10.4982
▁shu	-10.5037
enko	-10.5037
▁temp	-10.504
▁ali	-10.5059
ery	-10.5088
▁edg	-10.5098
▁transform	-10.5112
mao	-10.5147
cket	-10.516
▁bear	-10.5168
ette	-10.5188
stitute	-10.5203
▁fla	-10.5244
aq	-10.5257
hile	-10.526
▁ji	-10.5274
▁whip	-10.5327
pay	-10.5346
eep	-10.5354
ious	-10.5356
ovic	-10.5363
vert	-10.5368
▁ariz	-10.5386
gle	-10.539
uring	-10.5396
▁airb	-10.5399
iro	-10.5403
▁diver	-10.5424
▁peters	-10.5431
mara	-10.5436
abb	-10.5459
oz	-10.547
point	-10.5471
ched	-10.5485
▁rap	-10.5486
share	-10.5505
ants	-10.5509
vian	-10.5574
▁marin	-10.56
▁controls	-10.5642
▁confer	-10.5644
▁inject	-10.5645
van	-10.5662
dzi	-10.5681
▁respect	-10.5686
cute	-10.5692
mur	-10.5697
▁mile	-10.5698
▁oma	-10.5699
▁dominat	-10.5705
thani	-10.5714
▁exports	-10.5718
▁tumble	-10.5728
▁grenad	-10.5736
ow	-10.575
ag	-10.5765
▁equi	-10.58
dala	-10.5801
▁waste	-10.5806
llow	-10.5817
wash	-10.5845
que	-10.5857
▁willing	-10.586
▁fam	-10.5865
pt	-10.5881
and	-10.5891
vi	-10.5896
glad	-10.5912
▁hea	-10.592
▁tibetan	-10.594
▁deficit	-10.5941
fin	-10.5944
rish	-10.5946
cuban	-10.5947
▁seiz	-10.5956
▁complet	-10.5986
▁misse	-10.5989
gul	-10.5991
je	-10.5995
▁gift	-10.6001
▁bribe	-10.6014
▁proper	-10.6014
ering	-10.6029
▁declare	-10.6035
▁chase	-10.6038
▁detainee	-10.6045
▁bott	-10.6062
nish	-10.607
▁refugee	-10.6075
▁earning	-10.6084
place	-10.6084
ury	-10.6095
▁geni	-10.6104
▁bond	-10.6113
teen	-10.6128
oor	-10.6128
dian	-10.6142
bomb	-10.6146
lan	-10.6153
pp	-10.6156
li	-10.6172
tra	-10.6177
rina	-10.6189
▁sponsor	-10.6196
seed	-10.6201
action	-10.6203
ubar	-10.623
bus	-10.6235
▁grace	-10.6247
zi	-10.6265
▁ev	-10.6269
▁coache	-10.6274
act	-10.6278
▁tie	-10.6293
tle	-10.6298
west	-10.6306
▁mans	-10.6308
▁hun	-10.6313
ro	-10.633
▁emb	-10.633
ologn	-10.6333
divid	-10.6339
▁origin	-10.6344
sett	-10.6353
eva	-10.6356
mart	-10.6372
panic	-10.6372
stroke	-10.6374
▁backs	-10.6379
aving	-10.638
bert	-10.6388
colombia	-10.6392
talks	-10.6392
sexual	-10.6393
scor	-10.6396
▁regula	-10.6398
▁roug	-10.6398
romania	-10.6401
migrant	-10.6402
wealth	-10.6402
seattle	-10.6405
▁stag	-10.6406
mexican	-10.6407
well	-10.641
treatment	-10.641
chemical	-10.6413
taipei	-10.6413
tumble	-10.6414
southeast	-10.6414
micro	-10.6415
gett	-10.6415
scientist	-10.6416
study	-10.6416
rescue	-10.6417
turkey	-10.6417
canadian	-10.6418
hundred	-10.6418
arafat	-10.6418
bangladesh	-10.6419
tokyo	-10.6419
border	-10.642
schedule	-10.642
cambodia	-10.642
washington	-10.642
britain	-10.6421
lebanon	-10.6421
england	-10.6421
business	-10.6422
follow	-10.6422
health	-10.6422
global	-10.6423
▁survive	-10.6423
military	-10.6423
school	-10.6424
second	-10.6424
international	-10.6424
keep	-10.6424
▁serv	-10.6426
sudan	-10.6426
jew	-10.6426
first	-10.6427
economi	-10.6427
speak	-10.6429
just	-10.6431
flo	-10.6432
food	-10.6432
rous	-10.6435
iranian	-10.6435
cut	-10.6437
play	-10.6437
▁swa	-10.644
rule	-10.644
▁explor	-10.644
bren	-10.6442
▁croat	-10.6448
▁retail	-10.6448
who	-10.6451
trial	-10.6455
▁design	-10.6455
chair	-10.646
ren	-10.646
bulgarian	-10.6464
fall	-10.6468
▁mobil	-10.6469
poll	-10.6475
african	-10.6476
asse	-10.6484
▁require	-10.6486
▁zo	-10.6494
▁mode	-10.6495
▁fata	-10.6499
▁meteorolog	-10.6506
army	-10.651
▁mini	-10.6519
mate	-10.6532
▁gaz	-10.6535
▁blu	-10.6541
▁consum	-10.6543
▁advan	-10.6544
▁scienti	-10.6549
not	-10.6549
▁assur	-10.6555
ad	-10.6557
▁confront	-10.6557
▁slo	-10.656
▁interf	-10.656
▁capit	-10.6562
controlle	-10.6562
▁petro	-10.6562
▁hijack	-10.6563
▁stud	-10.6564
▁commodit	-10.6564
life	-10.6566
▁qui	-10.6571
▁speci	-10.6572
▁deep	-10.6573
▁lobb	-10.6577
▁implement	-10.6578
▁guitar	-10.6579
mbled	-10.658
▁via	-10.6583
▁ambu	-10.6583
▁featur	-10.6583
▁hydro	-10.6584
▁advoca	-10.6584
▁accomplish	-10.6584
▁bundesliga	-10.6584
▁character	-10.6584
▁compatriot	-10.6584
▁concentrat	-10.6584
▁conclusion	-10.6584
▁confiscate	-10.6584
▁davydenko	-10.6584
▁distributi	-10.6584
▁exercises	-10.6584
▁interrogat	-10.6584
▁introduce	-10.6584
▁kyrgyz	-10.6584
▁liverpool	-10.6584
▁marijuana	-10.6584
▁militia	-10.6584
▁olimpi	-10.6584
▁portsmouth	-10.6584
▁preakness	-10.6584
▁procedure	-10.6584
▁resource	-10.6584
▁restaurant	-10.6584
▁strategy	-10.6584
▁symptoms	-10.6584
▁vigilance	-10.6584
▁encourag	-10.6584
▁immense	-10.6584
▁obtain	-10.6584
▁reaffirm	-10.6584
▁subject	-10.6584
crip	-10.6584
nosaur	-10.6584
▁butterfl	-10.6584
▁disappear	-10.6584
▁dismantl	-10.6584
▁eulogi	-10.6584
▁portuguese	-10.6584
▁ratifie	-10.6584
▁trump	-10.6584
▁margin	-10.6584
▁phillip	-10.6584
▁enjoy	-10.6584
▁composer	-10.6584
▁trauma	-10.6584
▁pump	-10.6584
▁ahmad	-10.6584
▁method	-10.6584
▁rabin	-10.6584
▁excuse	-10.6584
▁drift	-10.6584
▁frustrat	-10.6584
▁coordinat	-10.6584
▁casino	-10.6584
▁discount	-10.6584
▁affect	-10.6584
▁facilit	-10.6584
▁volley	-10.6584
▁kirk	-10.6584
▁nikola	-10.6584
▁influenza	-10.6584
▁conclude	-10.6584
dolph	-10.6584
▁experience	-10.6584
▁engag	-10.6584
▁galile	-10.6584
▁monument	-10.6584
stream	-10.6584
▁fitness	-10.6584
▁opium	-10.6584
▁agric	-10.6584
▁autonom	-10.6584
▁excel	-10.6584
recogniz	-10.6584
kilometer	-10.6584
▁regard	-10.6584
▁zero	-10.6584
▁shadow	-10.6584
▁ambitio	-10.6584
▁supermarket	-10.6584
▁saint	-10.6584
▁regain	-10.6585
▁pvs	-10.6585
▁devil	-10.6585
▁blank	-10.6585
▁patriot	-10.6585
timate	-10.6585
▁wildfire	-10.6585
▁pitts	-10.6585
▁location	-10.6585
▁trigger	-10.6585
▁prize	-10.6586
▁unexpected	-10.6586
▁religious	-10.6586
ecutive	-10.6586
▁jiang	-10.6586
▁expos	-10.6586
▁dubai	-10.6586
▁desperate	-10.6586
▁moderate	-10.6586
▁zhu	-10.6586
▁harris	-10.6587
▁bucha	-10.6587
▁obs	-10.6587
▁element	-10.6587
▁contra	-10.6587
rote	-10.6587
▁window	-10.6587
▁chicken	-10.6588
delphi	-10.6588
▁serg	-10.6588
▁jav	-10.6588
▁hiv	-10.6588
▁academic	-10.6589
▁clinch	-10.6589
▁devis	-10.6589
▁miracle	-10.6589
▁torrent	-10.6589
▁allocate	-10.6589
▁revenue	-10.6589
▁realize	-10.6589
shou	-10.6589
▁inva	-10.659
▁enem	-10.659
▁speculat	-10.659
▁failure	-10.659
udou	-10.659
atures	-10.659
▁automatic	-10.659
▁cooperative	-10.659
▁fastest	-10.6591
▁slave	-10.6592
▁ipo	-10.6592
▁extrem	-10.6592
▁sound	-10.6592
▁outbreak	-10.6593
▁penalt	-10.6594
ronaut	-10.6595
hood	-10.6595
authoriz	-10.6595
▁answer	-10.6596
jara	-10.6596
▁concession	-10.6596
▁garne	-10.6596
▁prayer	-10.6596
▁fearful	-10.6596
host	-10.6596
brook	-10.6597
▁railway	-10.6597
▁punishment	-10.6598
▁lux	-10.6598
▁overturn	-10.6598
▁kyo	-10.6598
▁brain	-10.6598
▁batter	-10.6599
▁roster	-10.6599
▁slugg	-10.6599
ization	-10.6599
▁else	-10.66
▁true	-10.66
▁refer	-10.6601
cient	-10.6602
▁kuch	-10.6602
▁occup	-10.6602
▁chris	-10.6603
▁grab	-10.6604
shirt	-10.6604
▁exit	-10.6604
▁stutt	-10.6604
▁hijacker	-10.6606
▁petrole	-10.6606
▁hog	-10.6607
▁cannes	-10.6607
▁rhe	-10.6608
idea	-10.6609
▁happen	-10.6609
▁features	-10.661
istan	-10.6611
▁confrontation	-10.6611
▁finalize	-10.6612
▁relat	-10.6613
▁novel	-10.6613
▁lap	-10.6613
▁slop	-10.6614
ec	-10.6617
▁resist	-10.6618
colla	-10.6619
▁letter	-10.6619
▁pins	-10.662
▁vaccine	-10.6622
▁dar	-10.6622
▁collection	-10.6622
▁,####	-10.6623
▁isolat	-10.6623
▁wrangle	-10.6624
▁repeated	-10.6624
▁abdulla	-10.6624
▁slide	-10.6624
lus	-10.6626
▁athlete	-10.6626
▁cautious	-10.6626
▁holocaust	-10.6626
▁norwegian	-10.6626
▁revolution	-10.6626
▁daughter	-10.6626
▁panama	-10.6627
▁folk	-10.6627
liberation	-10.6627
▁nerv	-10.6628
▁laud	-10.6628
diversity	-10.663
▁mango	-10.6632
▁fidelity	-10.6632
neous	-10.6633
▁woo	-10.6634
last	-10.6635
▁comic	-10.6636
▁estonian	-10.6636
▁correction	-10.6637
▁payout	-10.6637
▁demonstration	-10.6639
want	-10.664
▁teenage	-10.6641
▁luca	-10.6642
▁chile	-10.6642
▁emir	-10.6644
▁ranche	-10.6644
physician	-10.6645
▁deepen	-10.6646
▁sabot	-10.6647
▁marry	-10.6647
cious	-10.6648
▁complaint	-10.6648
▁robb	-10.6649
▁fisc	-10.665
▁terminat	-10.6655
▁temper	-10.6655
▁guille	-10.6657
▁motive	-10.6658
sai	-10.6659
▁insurer	-10.666
▁understand	-10.6661
▁date	-10.6663
joko	-10.6664
▁swell	-10.6664
▁settler	-10.6665
▁hurle	-10.6665
▁sick	-10.6666
▁topple	-10.6666
▁burst	-10.6668
horse	-10.6674
▁lop	-10.6674
▁lane	-10.6676
▁stall	-10.6678
▁required	-10.6682
▁closure	-10.6683
▁matth	-10.6685
tyco	-10.6686
▁shell	-10.6686
ssina	-10.6687
aries	-10.6689
▁mun	-10.6689
▁sail	-10.669
▁khal	-10.6692
▁iraqis	-10.6692
▁col	-10.6693
▁cove	-10.6695
ities	-10.6699
▁thor	-10.67
▁language	-10.6701
▁trinidad	-10.6701
▁sach	-10.6701
▁seg	-10.6702
▁smaller	-10.6703
▁boot	-10.6703
▁bog	-10.6704
▁ville	-10.6704
▁castro	-10.6705
▁comp	-10.6707
itz	-10.6707
▁brad	-10.6709
▁solo	-10.6714
▁fret	-10.6715
▁wales	-10.6716
▁nord	-10.6717
▁nkorea	-10.6719
▁scale	-10.6722
▁nic	-10.6725
▁taxes	-10.6726
vant	-10.6727
▁wat	-10.6735
arlie	-10.6735
wh	-10.6736
truth	-10.6739
sibl	-10.6741
ciate	-10.6744
lau	-10.6747
▁interna	-10.6753
▁disgrace	-10.6754
coca	-10.6757
gus	-10.6758
▁yil	-10.6762
zar	-10.6768
▁stalk	-10.6772
know	-10.6773
▁grid	-10.6775
ement	-10.6776
spector	-10.6776
▁leu	-10.678
▁wil	-10.6782
standings	-10.6787
ips	-10.6797
▁sexual	-10.6798
▁done	-10.6812
sales	-10.6814
▁thro	-10.6814
▁institute	-10.6818
highlight	-10.6818
▁troubl	-10.6819
briton	-10.6822
▁tortur	-10.6825
▁original	-10.6829
hud	-10.6839
▁cath	-10.6841
▁sure	-10.6851
▁pill	-10.6852
▁controversy	-10.6855
▁rum	-10.6861
▁plu	-10.6863
nestle	-10.6863
ged	-10.6868
▁endur	-10.6869
▁repai	-10.6886
companie	-10.6891
▁dip	-10.6892
▁greet	-10.6909
cuff	-10.6913
▁colombia	-10.6916
than	-10.6926
nmen	-10.6928
▁portra	-10.6936
▁fun	-10.6937
▁disma	-10.6939
chro	-10.6939
▁jam	-10.6939
▁ark	-10.694
▁forests	-10.6941
▁hub	-10.6942
▁looms	-10.6948
▁relationships	-10.6953
▁estimates	-10.6953
▁lessons	-10.6954
iden	-10.6963
▁fled	-10.6965
sbur	-10.6972
▁ec	-10.6975
tis	-10.6976
▁kid	-10.698
▁aide	-10.698
▁reas	-10.699
zhe	-10.7001
acht	-10.7001
▁axe	-10.7007
▁nav	-10.7019
▁grin	-10.7023
▁widen	-10.7028
these	-10.7029
lock	-10.7031
▁revis	-10.7032
seek	-10.7036
▁stopp	-10.7046
▁gunm	-10.7049
sanj	-10.7052
akh	-10.7052
▁southwest	-10.7055
▁deny	-10.7059
▁activat	-10.7068
▁sold	-10.707
ential	-10.7071
swed	-10.7071
▁ensur	-10.7082
special	-10.7086
▁dr	-10.709
dais	-10.7093
▁cycl	-10.7094
▁rig	-10.7104
▁eliminat	-10.7106
▁singer	-10.7117
kov	-10.7117
▁quar	-10.7122
hart	-10.7124
▁hitter	-10.7126
▁widens	-10.7153
▁mont	-10.7154
onald	-10.7156
gent	-10.716
▁baa	-10.716
▁km	-10.7163
▁gol	-10.7175
▁entr	-10.7179
hak	-10.718
every	-10.719
▁bribes	-10.7201
▁gifts	-10.7202
▁cole	-10.7206
▁dam	-10.7207
wan	-10.7214
gers	-10.7217
▁declar	-10.722
▁expresse	-10.7223
▁unfa	-10.7226
▁moham	-10.7229
▁fren	-10.7242
▁thin	-10.7246
▁lock	-10.7246
▁bour	-10.7249
▁vs	-10.7275
hand	-10.7277
flame	-10.7277
pee	-10.7303
▁disc	-10.7306
motion	-10.7317
▁reinsur	-10.7337
ari	-10.7342
xu	-10.7346
key	-10.7348
▁easi	-10.7351
▁mary	-10.7357
older	-10.7368
iya	-10.7389
ford	-10.7436
battle	-10.7455
▁kin	-10.7458
iff	-10.746
▁raider	-10.7462
▁spa	-10.7471
▁lia	-10.7476
▁demonstrate	-10.7477
▁hospitali	-10.7479
▁.",##	-10.7487
▁intention	-10.7496
▁ala	-10.7519
rod	-10.7541
conc	-10.7548
andon	-10.7565
grenade	-10.7566
del	-10.7566
▁spen	-10.7567
mates	-10.7572
unch	-10.7594
cou	-10.7607
▁yar	-10.7623
feder	-10.7625
▁approve	-10.7628
bago	-10.7635
▁tend	-10.7639
▁sic	-10.7641
▁ber	-10.7644
▁cant	-10.766
▁vaca	-10.7667
▁ext	-10.7674
▁skip	-10.77
reach	-10.7703
val	-10.7705
▁ess	-10.7713
▁tumbl	-10.772
ional	-10.7726
▁founder	-10.7727
▁gonzale	-10.7744
asia	-10.775
dah	-10.7786
▁schu	-10.7803
▁initiat	-10.7837
efi	-10.7844
capa	-10.785
▁corne	-10.7855
mun	-10.7887
▁tyr	-10.7888
mile	-10.789
▁impress	-10.7918
▁def	-10.792
▁ying	-10.7963
kos	-10.7971
▁wine	-10.7973
▁provi	-10.7992
oc	-10.7994
▁detect	-10.8007
ussel	-10.8026
▁yal	-10.805
▁ill	-10.8053
▁cold	-10.8054
raz	-10.8082
mal	-10.8109
▁aut	-10.8113
dima	-10.8118
lica	-10.8123
bln	-10.815
arcelo	-10.8177
▁burg	-10.8201
pu	-10.8203
▁lar	-10.8205
nches	-10.8209
impose	-10.8211
▁buri	-10.8214
▁racis	-10.8215
light	-10.8221
▁ann	-10.8241
▁cour	-10.8241
stabiliz	-10.8262
▁romania	-10.827
▁muslims	-10.8274
▁alliances	-10.8275
▁absen	-10.8275
robin	-10.8305
rist	-10.8308
ending	-10.8329
▁shutt	-10.8353
bo	-10.8358
▁perform	-10.8366
▁partners	-10.8403
▁chech	-10.8426
gust	-10.8431
▁consultati	-10.8438
▁campaigns	-10.8444
▁identifi	-10.8447
▁observ	-10.845
umn	-10.8457
▁diss	-10.8463
mul	-10.8471
▁des	-10.8476
▁fizz	-10.8497
▁declin	-10.851
▁richards	-10.8544
▁lig	-10.8546
ger	-10.857
nda	-10.8596
▁fir	-10.8623
▁gut	-10.8633
▁vei	-10.8635
▁kne	-10.8635
ulu	-10.8636
▁kha	-10.8638
▁fli	-10.8639
ves	-10.8645
ris	-10.8648
▁consolidate	-10.8659
▁py	-10.8668
▁witness	-10.8669
ying	-10.8675
▁deaths	-10.8683
▁bowe	-10.87
sander	-10.8717
dding	-10.8724
etz	-10.8726
▁pil	-10.874
▁bas	-10.8756
▁exp	-10.8771
▁mour	-10.8774
movi	-10.882
▁gru	-10.8851
▁dist	-10.8854
cle	-10.8866
kar	-10.8881
▁rep	-10.8887
▁cas	-10.8902
mov	-10.8962
there	-10.8973
yor	-10.8992
maru	-10.9
▁patt	-10.9034
▁sentenc	-10.9045
▁deb	-10.9061
sburg	-10.9081
▁raf	-10.9106
▁remove	-10.9106
skorea	-10.9113
▁denounce	-10.9129
▁identif	-10.9135
ene	-10.918
▁clic	-10.9183
hat	-10.9183
izzy	-10.9195
▁ku	-10.9197
band	-10.9208
sional	-10.9213
▁rec	-10.922
high	-10.9226
wal	-10.9231
adian	-10.9234
▁fade	-10.9248
pi	-10.925
▁cape	-10.9262
ond	-10.9268
fp	-10.9274
mous	-10.9291
▁app	-10.9303
▁floo	-10.935
▁sim	-10.938
▁rey	-10.9385
agan	-10.9388
▁pla	-10.9405
rok	-10.9418
▁scien	-10.9419
ira	-10.9451
▁wette	-10.9464
▁ramp	-10.9488
▁plants	-10.9497
libr	-10.9498
▁fad	-10.9509
pol	-10.9531
nors	-10.9547
ways	-10.9551
▁pg	-10.9565
▁include	-10.9588
▁mach	-10.9594
tta	-10.9642
nar	-10.9645
▁initia	-10.965
port	-10.9677
pec	-10.971
uja	-10.9716
▁pho	-10.9717
uran	-10.9718
cia	-10.9729
hale	-10.973
eleph	-10.9739
▁pursu	-10.975
barc	-10.9756
memora	-10.9815
nfire	-10.9821
habi	-10.9823
bec	-10.9828
pc	-10.9828
▁nas	-10.9837
scott	-10.9849
ennis	-10.9854
nder	-10.9868
▁basi	-10.9889
trapp	-10.9894
▁am	-10.9909
pac	-10.9914
ols	-10.9927
▁gonzal	-10.9933
▁han	-10.9967
▁hum	-10.9973
toy	-10.9976
een	-10.9995
▁domin	-10.9999
lling	-11.0001
▁je	-11.0018
grea	-11.0022
ando	-11.0043
ient	-11.0051
rican	-11.0053
tier	-11.0058
bay	-11.006
app	-11.0072
ara	-11.0074
irac	-11.0087
beating	-11.0088
▁hid	-11.0091
bid	-11.0103
▁sch	-11.0109
▁tu	-11.0111
lake	-11.0117
els	-11.0143
▁bor	-11.0144
▁william	-11.0147
▁rip	-11.0151
chel	-11.0189
lation	-11.0199
torn	-11.0225
▁audi	-11.0229
▁revi	-11.0233
▁arms	-11.0244
▁gre	-11.0253
vist	-11.0271
▁abo	-11.0298
ranger	-11.0315
now	-11.0333
▁impressi	-11.0343
▁circ	-11.0411
uck	-11.0412
box	-11.0419
ilka	-11.0426
▁indicate	-11.0444
▁kh	-11.0445
cu	-11.0449
aru	-11.0468
▁fuse	-11.0495
llah	-11.0513
ades	-11.0522
ado	-11.0546
hot	-11.0572
eek	-11.0576
flat	-11.0589
▁prop	-11.0623
rry	-11.0639
load	-11.064
hel	-11.0655
▁parti	-11.0664
hammed	-11.0671
lina	-11.0683
member	-11.0694
standing	-11.0716
shu	-11.0718
kins	-11.0736
lie	-11.0756
▁lui	-11.0768
beni	-11.0773
▁smoke	-11.0777
ffer	-11.078
▁au	-11.0788
▁sof	-11.0795
▁giv	-11.0805
▁construct	-11.0818
▁yi	-11.0821
▁ace	-11.0839
erate	-11.084
politics	-11.0844
bla	-11.0852
tradition	-11.0853
allen	-11.0854
▁investigate	-11.0873
rest	-11.0877
azz	-11.0889
▁pushe	-11.0897
▁feat	-11.0905
▁kent	-11.0906
po	-11.0907
▁bask	-11.0922
ocker	-11.0923
▁virgini	-11.0938
vy	-11.0939
credib	-11.0939
▁airstrike	-11.0944
▁tunnel	-11.0944
▁stomach	-11.0944
rome	-11.0963
▁resignation	-11.0964
evr	-11.0984
▁error	-11.0988
itch	-11.0993
ddl	-11.1004
aka	-11.1008
▁estimate	-11.1008
▁oc	-11.101
▁relationship	-11.101
facts	-11.1017
enz	-11.102
▁mush	-11.1024
▁entrepreneur	-11.1036
bble	-11.1047
▁loom	-11.1048
jur	-11.1055
ication	-11.1055
▁airline	-11.1064
▁celtic	-11.1066
▁gua	-11.1072
▁condition	-11.1075
▁dealing	-11.1082
▁serie	-11.1096
ign	-11.1102
az	-11.1108
▁tourist	-11.1116
▁gab	-11.1126
▁#.###	-11.1127
ense	-11.1132
hanie	-11.1132
lace	-11.1138
▁item	-11.1139
▁ticket	-11.1142
ich	-11.1148
▁await	-11.115
▁passe	-11.115
▁susp	-11.1154
cef	-11.1161
viv	-11.1169
▁analyst	-11.1172
skie	-11.1175
▁lesson	-11.1176
bei	-11.1183
cci	-11.1185
▁stat	-11.1185
lman	-11.1185
mic	-11.119
bulgaria	-11.1204
plan	-11.1212
hill	-11.1212
▁swi	-11.1214
bell	-11.1226
epression	-11.1238
▁bre	-11.1242
argentin	-11.1248
tial	-11.125
▁coun	-11.1251
break	-11.1251
▁manufactur	-11.1251
batt	-11.1252
▁esp	-11.1258
rson	-11.1268
▁glo	-11.127
▁stroke	-11.1285
▁bert	-11.1294
crui	-11.1301
road	-11.1302
fia	-11.1303
ologist	-11.1303
▁measur	-11.1307
press	-11.131
▁eac	-11.1312
▁franc	-11.1315
leste	-11.1323
africa	-11.1338
georg	-11.134
nce	-11.1344
mali	-11.1346
▁cult	-11.1347
▁welcom	-11.1355
america	-11.1363
▁robbe	-11.1366
▁barc	-11.1372
overcrowd	-11.1375
morocc	-11.1375
hungarian	-11.1375
bullet	-11.1375
glas	-11.1376
dump	-11.1376
await	-11.1377
burma	-11.1377
ultimate	-11.1379
shock	-11.1379
sponsor	-11.1388
▁niger	-11.1389
risk	-11.1389
ville	-11.1391
▁assassin	-11.1392
southwest	-11.1392
whole	-11.1393
▁plung	-11.1394
language	-11.1395
trinidad	-11.1395
cuba	-11.1396
▁author	-11.1396
ague	-11.1397
castro	-11.1398
▁visitor	-11.1401
belarus	-11.1404
yankees	-11.1404
temporar	-11.1404
jordan	-11.1404
chase	-11.1404
crush	-11.1405
▁philip	-11.1406
solve	-11.1408
broker	-11.1408
portugal	-11.1409
johan	-11.1409
quot	-11.141
hsbc	-11.141
abel	-11.1412
bron	-11.1412
christian	-11.1414
netanyahu	-11.1414
interview	-11.1414
shopp	-11.1414
nepal	-11.1415
strait	-11.1415
tiger	-11.1415
container	-11.1416
electronic	-11.1416
video	-11.1416
analys	-11.1416
hai	-11.1416
lleg	-11.1417
afghan	-11.1417
legislator	-11.1417
activist	-11.1417
girl	-11.1417
czech	-11.1417
dog	-11.1418
unrest	-11.1418
attorney	-11.1418
atlantic	-11.1419
heat	-11.1419
explosion	-11.1419
hezbollah	-11.1419
europe	-11.1419
worth	-11.1419
walk	-11.1419
communist	-11.142
fighter	-11.142
radio	-11.142
english	-11.1421
northeast	-11.1421
computer	-11.1421
think	-11.1422
secretary	-11.1422
forecast	-11.1422
mexico	-11.1422
missing	-11.1422
defend	-11.1422
hunt	-11.1423
fighting	-11.1423
beijing	-11.1423
promise	-11.1423
congress	-11.1424
afghanistan	-11.1424
earth	-11.1424
spain	-11.1424
support	-11.1425
paul	-11.1425
body	-11.1426
peace	-11.1426
zhou	-11.1426
republican	-11.1426
yuan	-11.1426
turn	-11.1427
senate	-11.1428
power	-11.1428
claim	-11.1428
trade	-11.1429
parent	-11.143
desp	-11.143
wales	-11.1431
group	-11.1431
flight	-11.1432
league	-11.1432
mix	-11.1435
grand	-11.1435
water	-11.1438
syria	-11.1439
train	-11.1439
jean	-11.144
▁sal	-11.144
insurgen	-11.1441
beck	-11.1442
vic	-11.1444
like	-11.1444
famili	-11.1447
lumin	-11.1447
hush	-11.1448
albanian	-11.1448
sweden	-11.1449
usual	-11.145
democratic	-11.145
▁warr	-11.145
leg	-11.145
pet	-11.1452
dozen	-11.1455
argentina	-11.1459
▁judg	-11.1459
vention	-11.1463
sui	-11.1464
jor	-11.1466
▁shak	-11.1469
labor	-11.147
▁archi	-11.1471
▁practi	-11.1471
bill	-11.1472
▁depre	-11.1476
▁postpone	-11.1477
ounded	-11.1478
few	-11.1479
kara	-11.148
dmit	-11.1481
nik	-11.1483
▁physic	-11.1485
tractor	-11.1485
serbs	-11.1486
▁evacuate	-11.1491
link	-11.1493
george	-11.1496
▁estonia	-11.1498
latvia	-11.1502
▁buil	-11.1502
serbia	-11.1505
emp	-11.1506
evita	-11.1506
unit	-11.1509
reserve	-11.151
▁advis	-11.1511
▁activit	-11.1517
month	-11.152
▁ventur	-11.1528
afa	-11.1528
enzi	-11.1534
▁guid	-11.1539
py	-11.154
▁erro	-11.1541
▁clot	-11.1542
▁qualifie	-11.1546
▁jenn	-11.1547
▁luc	-11.1549
curlin	-11.155
▁buddhis	-11.1551
▁reno	-11.1556
▁disast	-11.1556
▁raw	-11.1557
lost	-11.1558
▁mandat	-11.1559
▁grum	-11.1559
credito	-11.1559
▁fit	-11.156
encies	-11.156
▁disar	-11.1562
▁brut	-11.1562
▁burning	-11.1565
ully	-11.1567
▁televis	-11.1568
nato	-11.1569
richt	-11.1571
▁tibet	-11.1572
epar	-11.1573
strict	-11.1573
mind	-11.1574
feature	-11.1575
locate	-11.1576
▁kazak	-11.1576
sultan	-11.1578
▁shop	-11.1578
clusive	-11.1579
▁extra	-11.1579
iberia	-11.1579
▁identi	-11.1581
otti	-11.1581
▁priva	-11.1582
▁scrutin	-11.1582
cogni	-11.1582
cheri	-11.1583
cussion	-11.1583
▁psychologi	-11.1583
ology	-11.1583
igation	-11.1583
igious	-11.1583
ventu	-11.1583
▁accommodat	-11.1584
▁appropriat	-11.1584
▁correspond	-11.1584
▁enthusias	-11.1584
▁hiroshi	-11.1584
▁occasion	-11.1584
▁persecut	-11.1584
ecuador	-11.1584
etienne	-11.1584
▁acquisition	-11.1584
▁athletic	-11.1584
▁autocrat	-11.1584
▁bargain	-11.1584
▁belgrade	-11.1584
▁chattanooga	-11.1584
▁comprehen	-11.1584
▁confession	-11.1584
▁copenhagen	-11.1584
▁cranberr	-11.1584
▁diarrhea	-11.1584
▁diplomacy	-11.1584
▁dormitory	-11.1584
▁emporiki	-11.1584
▁exhaust	-11.1584
▁exhibit	-11.1584
▁griffith	-11.1584
▁guizhou	-11.1584
▁illinois	-11.1584
▁instrument	-11.1584
▁izetbegovic	-11.1584
▁jayasinghe	-11.1584
▁karzai	-11.1584
▁landscape	-11.1584
▁libertadores	-11.1584
▁madagascar	-11.1584
▁magnitude	-11.1584
▁malnourished	-11.1584
▁memorabilia	-11.1584
▁mikhail	-11.1584
▁mississippi	-11.1584
▁obligation	-11.1584
▁peninsula	-11.1584
▁picchu	-11.1584
▁prohibiti	-11.1584
▁proliferation	-11.1584
▁prologue	-11.1584
▁refrain	-11.1584
▁registration	-11.1584
▁salvador	-11.1584
▁sarajevo	-11.1584
▁simplicity	-11.1584
▁slavonia	-11.1584
▁smooth	-11.1584
▁spectac	-11.1584
▁stowaway	-11.1584
▁syndicate	-11.1584
▁themselves	-11.1584
▁tugboat	-11.1584
▁tumult	-11.1584
▁universiade	-11.1584
▁unravel	-11.1584
▁untouched	-11.1584
▁untruthful	-11.1584
▁vajpayee	-11.1584
▁vendetta	-11.1584
▁voucher	-11.1584
▁windsurfer	-11.1584
▁convalesc	-11.1584
▁fulfill	-11.1584
▁journey	-11.1584
▁overshadow	-11.1584
▁rescind	-11.1584
▁clipper	-11.1584
▁convoy	-11.1584
▁deterioration	-11.1584
▁diminishe	-11.1584
▁discriminat	-11.1584
▁encounter	-11.1584
▁enormous	-11.1584
▁explain	-11.1584
▁hamstring	-11.1584
▁litigation	-11.1584
▁massieu	-11.1584
▁portillo	-11.1584
▁reduction	-11.1584
▁reputation	-11.1584
▁residence	-11.1584
safeguard	-11.1584
▁anarchist	-11.1584
▁cirque	-11.1584
▁nuisance	-11.1584
▁thurman	-11.1584
▁turbine	-11.1584
▁daimler	-11.1584
▁ecfa	-11.1584
▁register	-11.1584
▁advertis	-11.1584
▁alternative	-11.1584
▁anatoli	-11.1584
▁faith	-11.1584
▁fossil	-11.1584
▁belfast	-11.1584
▁oracle	-11.1584
▁bahrain	-11.1584
▁mechani	-11.1584
▁affirm	-11.1584
tect	-11.1584
▁jitters	-11.1584
▁shrug	-11.1584
succu	-11.1584
▁brushe	-11.1584
privatiz	-11.1584
▁downgrade	-11.1584
▁franchise	-11.1584
▁vegetarian	-11.1584
▁artifacts	-11.1584
▁derail	-11.1584
▁complicat	-11.1584
goalkeeper	-11.1584
▁baffl	-11.1584
▁unfold	-11.1584
imagin	-11.1584
▁putnam	-11.1584
▁solution	-11.1584
▁spouse	-11.1584
▁okay	-11.1584
▁afford	-11.1584
▁pcb	-11.1584
▁wrong	-11.1584
disso	-11.1584
▁auction	-11.1584
▁spirit	-11.1584
▁shipyard	-11.1584
▁colleague	-11.1584
clutch	-11.1584
▁laurent	-11.1584
▁cafeteria	-11.1584
▁pistons	-11.1584
▁memoir	-11.1584
▁trounce	-11.1584
▁psychological	-11.1584
▁bullpen	-11.1584
▁necess	-11.1584
▁osborn	-11.1584
▁personnel	-11.1584
▁objecti	-11.1584
▁armenian	-11.1584
▁fishermen	-11.1584
▁newsstand	-11.1584
▁anguish	-11.1584
▁martyr	-11.1584
▁recommendations	-11.1584
▁devastat	-11.1584
terrifi	-11.1584
▁gaudio	-11.1584
▁exceed	-11.1584
▁hostilities	-11.1584
▁restrain	-11.1584
▁decree	-11.1585
▁divorc	-11.1585
▁dialogue	-11.1585
▁guests	-11.1585
▁owen	-11.1585
▁technique	-11.1585
▁bernard	-11.1585
hattan	-11.1585
▁haunt	-11.1585
▁urging	-11.1585
▁thumb	-11.1585
▁orbit	-11.1585
▁bertol	-11.1585
▁scrutinize	-11.1585
▁leonard	-11.1585
intel	-11.1585
▁accent	-11.1585
▁summaries	-11.1585
recen	-11.1585
▁dvds	-11.1585
▁destructi	-11.1585
▁stefan	-11.1585
▁bruins	-11.1586
▁toddler	-11.1586
▁rationing	-11.1586
▁pluck	-11.1586
▁depart	-11.1586
▁impasse	-11.1586
▁magnet	-11.1586
▁snarl	-11.1586
▁wholesale	-11.1586
ivity	-11.1586
▁buffy	-11.1586
▁stanley	-11.1586
marie	-11.1586
▁brecht	-11.1586
▁emirate	-11.1586
▁jeep	-11.1586
▁mtu	-11.1586
guine	-11.1586
▁cypr	-11.1586
▁theodor	-11.1586
▁dispos	-11.1586
smell	-11.1587
comfort	-11.1587
vendor	-11.1587
hondura	-11.1587
▁contend	-11.1587
▁scare	-11.1587
brows	-11.1587
▁sanitary	-11.1587
▁jubil	-11.1587
▁converge	-11.1587
▁amro	-11.1587
▁oats	-11.1587
▁spell	-11.1587
havi	-11.1588
▁thief	-11.1588
▁euroleague	-11.1588
▁forgive	-11.1588
▁shore	-11.1588
elicit	-11.1588
▁brown	-11.1589
▁wolve	-11.1589
▁menac	-11.1589
▁suffic	-11.1589
▁provoke	-11.1589
▁anchor	-11.1589
▁outclass	-11.159
▁restrictions	-11.159
▁hardie	-11.159
▁enact	-11.159
▁cobble	-11.159
▁purpo	-11.159
▁karl	-11.1591
▁jinx	-11.1591
▁inspection	-11.1591
▁calder	-11.1591
▁norway	-11.1591
▁exile	-11.1591
▁image	-11.1591
▁harbor	-11.1591
▁extremist	-11.1592
▁guitarist	-11.1592
▁repel	-11.1592
▁policing	-11.1592
ourne	-11.1592
▁greenhouse	-11.1592
▁innovation	-11.1592
▁taste	-11.1592
▁acid	-11.1592
▁implementation	-11.1592
▁rosales	-11.1592
tax	-11.1593
▁conte	-11.1593
valid	-11.1593
▁evolve	-11.1593
rini	-11.1593
▁package	-11.1593
▁humor	-11.1593
▁aussie	-11.1594
▁onassis	-11.1594
▁glove	-11.1594
gal	-11.1594
▁ambush	-11.1595
▁appearance	-11.1595
▁automaker	-11.1595
ignation	-11.1595
▁decisi	-11.1596
mote	-11.1596
▁cou	-11.1596
cident	-11.1596
ibur	-11.1596
▁addict	-11.1597
▁impro	-11.1597
▁metro	-11.1597
▁compel	-11.1597
▁getaway	-11.1598
▁forbidd	-11.1598
▁abdul	-11.1598
▁skirt	-11.1599
▁trek	-11.1599
▁ye	-11.1599
dow	-11.1599
▁llama	-11.1599
▁inventor	-11.1599
▁homily	-11.16
rance	-11.16
ometer	-11.1601
▁bombard	-11.1601
▁patent	-11.1601
entina	-11.1602
dida	-11.1602
▁lenn	-11.1602
▁scotland	-11.1603
▁delight	-11.1603
▁pickup	-11.1603
▁biograph	-11.1603
die	-11.1603
▁depo	-11.1604
▁oak	-11.1605
▁tree	-11.1605
gage	-11.1606
▁conversation	-11.1606
▁stirr	-11.1606
▁resi	-11.1606
▁snatch	-11.1607
▁joke	-11.1608
▁lapse	-11.1608
▁unbeat	-11.1608
▁jab	-11.1608
▁groom	-11.1609
▁slack	-11.1609
▁beaut	-11.1609
▁equipp	-11.1609
▁franco	-11.1609
▁coins	-11.161
hap	-11.161
▁trent	-11.161
▁unique	-11.161
▁appointment	-11.161
▁arsen	-11.1611
roh	-11.1611
▁strand	-11.1611
▁soak	-11.1612
▁loose	-11.1612
▁shout	-11.1613
▁verde	-11.1614
▁flee	-11.1614
chalke	-11.1614
tini	-11.1614
▁lukas	-11.1615
▁commodities	-11.1615
▁compil	-11.1615
ception	-11.1616
zuri	-11.1616
▁hunan	-11.1618
▁brutal	-11.1618
▁olympian	-11.1618
▁bump	-11.1621
▁fortify	-11.1621
▁allegi	-11.1622
▁grade	-11.1622
▁geo	-11.1623
venue	-11.1623
▁issu	-11.1624
▁drought	-11.1627
▁hover	-11.1627
▁reax	-11.1627
pak	-11.1627
▁fah	-11.1628
▁persist	-11.1629
▁salah	-11.163
tortur	-11.163
▁puni	-11.1631
lude	-11.1631
▁escalates	-11.1632
▁jenni	-11.1632
▁clemen	-11.1636
scala	-11.1637
slaught	-11.1637
▁firebomb	-11.1638
▁prevention	-11.1638
▁nara	-11.164
ace	-11.164
▁hama	-11.164
▁tail	-11.1642
▁heft	-11.1643
▁massac	-11.1644
▁collector	-11.1644
▁correct	-11.1644
▁undecided	-11.1644
▁interfer	-11.1646
▁grant	-11.1647
typical	-11.1648
▁jalal	-11.1649
rawling	-11.1649
tough	-11.1651
seat	-11.1652
fying	-11.1654
zzi	-11.1654
▁jens	-11.1654
▁centre	-11.1656
hanc	-11.1656
▁surrounding	-11.1657
▁opportunity	-11.1658
keter	-11.1658
▁oba	-11.1658
▁model	-11.1658
▁biog	-11.1658
▁yacht	-11.166
▁magazine	-11.1661
▁marathon	-11.1661
▁myanmar	-11.1661
▁rhythm	-11.1661
▁balkan	-11.1661
▁anthony	-11.1661
▁roots	-11.1661
▁christoph	-11.1661
▁settle	-11.1661
▁bureaucra	-11.1661
▁tread	-11.1662
▁peng	-11.1662
▁marshall	-11.1663
▁hoyer	-11.1663
▁ronald	-11.1663
▁xia	-11.1663
▁defam	-11.1664
▁tra	-11.1664
▁reb	-11.1665
▁conclusive	-11.1665
▁grumbl	-11.1666
▁slash	-11.1666
▁maybe	-11.1667
▁upend	-11.1667
▁sank	-11.1668
▁tape	-11.1668
▁cata	-11.1668
,##	-11.1669
tenth	-11.167
▁colonel	-11.1671
▁levi	-11.1671
rrido	-11.1671
▁rong	-11.1672
▁assess	-11.1672
sadd	-11.1673
▁nami	-11.1674
▁deter	-11.1674
▁ferrer	-11.1676
▁intensif	-11.1677
▁coup	-11.1681
▁humbl	-11.1681
neve	-11.1682
▁persi	-11.1683
▁kra	-11.1684
rmo	-11.1685
desire	-11.1685
▁leona	-11.1686
▁swel	-11.1688
▁newcom	-11.1689
tour	-11.169
▁opportunit	-11.1691
▁postponed	-11.1691
aylor	-11.1692
▁spoke	-11.1693
unda	-11.1694
make	-11.1695
▁rao	-11.1696
▁dub	-11.1697
▁stein	-11.1698
▁mosqu	-11.1698
▁mick	-11.1698
▁weak	-11.1698
▁feast	-11.1702
itis	-11.1704
▁frozen	-11.1706
▁coulter	-11.1707
agne	-11.1707
▁mesh	-11.1709
tense	-11.171
▁passion	-11.171
oons	-11.1711
▁poul	-11.1711
ndez	-11.1712
▁meteorology	-11.1712
▁dash	-11.1713
▁adb	-11.1713
▁maz	-11.1718
enger	-11.1718
eatht	-11.1719
▁yam	-11.1721
you	-11.1721
▁sweet	-11.1725
▁manufacturer	-11.1727
▁donation	-11.1728
▁sym	-11.1728
greg	-11.1731
adua	-11.1733
cek	-11.1739
inco	-11.1741
urban	-11.1742
▁muti	-11.1742
▁bah	-11.1742
▁competiti	-11.1743
▁amaz	-11.1743
▁marsh	-11.1745
▁jie	-11.1747
▁logs	-11.175
abuse	-11.1752
acher	-11.1752
▁rejection	-11.1754
imer	-11.1759
▁positi	-11.1759
▁nurs	-11.1764
ocal	-11.1764
▁quali	-11.1769
▁undermin	-11.1771
▁tel	-11.1772
▁medicin	-11.1773
jer	-11.1774
▁scene	-11.1774
pine	-11.1776
munition	-11.1777
pian	-11.1777
▁beijingers	-11.1778
▁faro	-11.1779
▁manufacturing	-11.1781
nown	-11.1781
cision	-11.1782
▁hardline	-11.1782
sensitiv	-11.1783
▁disgu	-11.1783
▁tick	-11.1784
▁mat	-11.1787
riff	-11.179
▁dug	-11.1793
▁lik	-11.1793
prising	-11.1794
▁selection	-11.1794
▁colomb	-11.1795
oso	-11.1796
▁shock	-11.1796
▁fate	-11.1796
▁overcrowd	-11.1796
▁ultimate	-11.1796
▁miser	-11.1796
▁designate	-11.1797
▁morocc	-11.1797
▁dump	-11.1799
▁wheel	-11.1799
▁quan	-11.1799
▁bullet	-11.18
▁ranking	-11.18
▁hungarian	-11.1801
rian	-11.1802
baa	-11.1803
▁burma	-11.1805
had	-11.1805
cent	-11.1807
▁glob	-11.1809
▁prediction	-11.1812
▁govt	-11.1813
▁exac	-11.1815
▁disp	-11.1819
▁wire	-11.182
▁nik	-11.1821
▁fitt	-11.1824
▁bp	-11.1824
▁barri	-11.1831
▁spon	-11.1831
lanne	-11.1833
▁slay	-11.1833
label	-11.1836
pf	-11.1836
▁musc	-11.1839
ntinu	-11.1839
ils	-11.1844
equest	-11.1844
▁captiv	-11.1847
▁dw	-11.1847
▁defi	-11.1851
▁qu	-11.1851
ranking	-11.1852
lev	-11.1854
▁dow	-11.1856
liabilit	-11.1859
ults	-11.186
convention	-11.1863
ppc	-11.1863
▁kashmiri	-11.1867
▁apologi	-11.1872
▁podi	-11.1873
▁rapi	-11.1881
▁mart	-11.1884
▁badly	-11.1885
▁garr	-11.1886
▁dou	-11.1887
▁negotiate	-11.189
▁stern	-11.19
▁convers	-11.1905
iko	-11.1905
green	-11.1913
▁regulat	-11.1914
teria	-11.1917
gotten	-11.1919
▁overtime	-11.1919
fur	-11.1926
▁cloth	-11.1927
▁licens	-11.193
▁writer	-11.1936
epi	-11.1937
▁bern	-11.1946
ucat	-11.1948
illa	-11.1954
abl	-11.1964
liner	-11.1968
▁fares	-11.1969
your	-11.1969
▁villager	-11.1974
rash	-11.1981
▁withhold	-11.1985
▁panic	-11.1987
dicate	-11.1989
ise	-11.199
▁suspen	-11.199
▁beard	-11.1992
du	-11.1994
▁engineer	-11.1997
▁julia	-11.1997
▁praise	-11.1998
▁fines	-11.1999
▁sco	-11.2
alter	-11.2001
anke	-11.2002
▁lender	-11.2004
reign	-11.2005
try	-11.2005
▁jamal	-11.2009
anen	-11.2009
▁irr	-11.2025
▁rit	-11.2026
▁brom	-11.2029
▁stif	-11.203
mia	-11.2033
anger	-11.2035
▁ib	-11.2045
berna	-11.2052
▁dina	-11.2053
sars	-11.2055
▁discussion	-11.2059
▁shun	-11.2062
▁feeling	-11.2062
▁zar	-11.2065
▁pitche	-11.2069
▁repressi	-11.2083
▁beam	-11.2091
▁pledg	-11.2096
▁chand	-11.2111
▁ficti	-11.2111
▁traveler	-11.2111
gt	-11.2112
roach	-11.2115
▁bub	-11.2115
ater	-11.2116
▁stewar	-11.2121
▁advanc	-11.2122
▁pot	-11.2125
chic	-11.213
fth	-11.213
▁ira	-11.2139
haram	-11.214
▁reg	-11.2141
vez	-11.215
▁lub	-11.215
▁mort	-11.2151
▁rel	-11.2152
umc	-11.2153
▁shipp	-11.2155
▁pent	-11.2157
laude	-11.2164
▁gr	-11.2169
▁marl	-11.217
▁tech	-11.2212
lla	-11.2213
toma	-11.2213
▁treasure	-11.2219
▁samp	-11.2222
▁diary	-11.2223
alban	-11.2225
▁nast	-11.2236
yad	-11.2236
▁thiry	-11.2239
▁displa	-11.2253
▁strokes	-11.2254
▁tickets	-11.2258
▁awaits	-11.2258
▁wonder	-11.226
▁grass	-11.2262
▁burnings	-11.2264
▁stomachs	-11.2265
▁tunnels	-11.2265
▁airstrikes	-11.2265
▁errors	-11.2266
▁secur	-11.2266
▁rele	-11.2269
▁gale	-11.2271
▁differen	-11.2271
lotter	-11.2272
▁resignations	-11.2272
merge	-11.2274
▁reli	-11.2277
▁patien	-11.2277
ecos	-11.2291
▁yorker	-11.2303
pool	-11.2309
napp	-11.2313
▁mur	-11.2323
▁hott	-11.2331
▁carol	-11.2343
ino	-11.2351
▁henr	-11.2381
▁sepa	-11.2384
▁billi	-11.2386
▁dra	-11.2405
▁beside	-11.2409
eather	-11.2418
ek	-11.2424
▁rena	-11.2426
leftover	-11.2426
acy	-11.246
ura	-11.2462
easing	-11.2464
▁croc	-11.2465
ft	-11.2466
quet	-11.247
sink	-11.2483
▁toleran	-11.2484
▁overse	-11.2484
▁saver	-11.2489
▁typ	-11.249
ists	-11.249
oni	-11.2496
twin	-11.2499
▁xi	-11.2503
trash	-11.2506
lands	-11.2507
mega	-11.2517
▁toni	-11.2518
▁inform	-11.2519
echo	-11.2521
▁hush	-11.2533
ets	-11.2537
neu	-11.2545
▁bra	-11.257
▁bonn	-11.2583
vast	-11.2584
rik	-11.259
▁indict	-11.2592
▁forest	-11.2603
▁propert	-11.2605
▁salt	-11.2607
▁contin	-11.2614
▁shel	-11.2634
▁emp	-11.2634
▁swit	-11.2652
zz	-11.2662
▁rud	-11.2668
kip	-11.2672
▁stretch	-11.2675
uge	-11.2675
▁cox	-11.2677
▁initiati	-11.2694
print	-11.2708
dam	-11.271
▁prope	-11.2725
▁smokes	-11.2737
▁sole	-11.274
▁deficits	-11.2741
distan	-11.2749
▁cer	-11.2795
bur	-11.2799
▁salar	-11.2805
unt	-11.2809
▁relieve	-11.2819
ymn	-11.2826
native	-11.2829
▁tibetans	-11.2832
▁allen	-11.2836
▁sol	-11.2873
che	-11.2882
pics	-11.289
zul	-11.2892
atherin	-11.2902
tation	-11.291
▁lett	-11.2911
yen	-11.2963
▁milk	-11.2998
▁ble	-11.3
home	-11.3014
min	-11.3041
▁dale	-11.3042
▁ven	-11.3045
▁reviv	-11.3064
hina	-11.3096
hostel	-11.3104
▁whole	-11.3108
erba	-11.3114
▁conven	-11.3125
▁gall	-11.3128
▁expanded	-11.313
summ	-11.3149
▁rever	-11.3162
erson	-11.3177
cation	-11.3226
mbo	-11.3233
▁balti	-11.3243
greate	-11.3246
▁qualifiers	-11.3249
omin	-11.3257
▁cleve	-11.3263
▁sara	-11.3267
▁escap	-11.328
ogo	-11.3284
▁#.#-	-11.3303
▁glas	-11.3335
pg	-11.334
ea	-11.3355
inguis	-11.3366
▁boxe	-11.3377
▁leap	-11.3423
memo	-11.3431
▁lose	-11.3438
▁dile	-11.344
lem	-11.3447
she	-11.3449
brie	-11.3463
rative	-11.3463
▁bombers	-11.3466
nton	-11.347
meri	-11.3472
▁hash	-11.3478
danger	-11.3482
bet	-11.3484
res	-11.3487
sixt	-11.349
ander	-11.352
embo	-11.3527
rah	-11.3532
▁commissioner	-11.3533
▁plann	-11.3544
traged	-11.3571
jak	-11.3576
rove	-11.3594
beki	-11.3596
▁band	-11.3607
▁reve	-11.3616
▁nag	-11.3626
seven	-11.3646
▁ky	-11.3655
moi	-11.3658
bad	-11.367
▁nb	-11.3675
▁resur	-11.3676
alian	-11.3709
▁bowle	-11.3741
wahi	-11.3744
▁strang	-11.3767
▁agenc	-11.3783
▁mounts	-11.3787
▁operators	-11.3788
rant	-11.3795
▁pursui	-11.3816
▁infectio	-11.3829
▁briefs	-11.3889
▁struc	-11.3903
erin	-11.3909
▁chan	-11.3922
part	-11.3926
▁gi	-11.3936
ija	-11.3939
rcia	-11.3957
abit	-11.3981
ple	-11.3985
sec	-11.3998
clave	-11.4006
▁associate	-11.4015
aryl	-11.4018
▁shap	-11.4033
acking	-11.4037
ili	-11.4074
tie	-11.4076
klin	-11.4084
mpr	-11.4085
review	-11.4119
▁defin	-11.4132
▁forc	-11.4174
arette	-11.4246
stian	-11.4278
sun	-11.4294
clin	-11.4311
luster	-11.4321
▁lect	-11.4326
ledge	-11.4342
▁transfers	-11.4351
dona	-11.4358
▁ce	-11.4383
uba	-11.4389
▁neutrali	-11.4399
▁cheape	-11.4401
▁hungar	-11.4408
▁resigns	-11.441
▁rebu	-11.4411
dz	-11.4433
▁kni	-11.4444
pa	-11.4468
▁sci	-11.448
cal	-11.4485
tant	-11.4552
mad	-11.4571
▁topp	-11.4581
pen	-11.4588
hes	-11.4607
▁tale	-11.4611
shed	-11.4644
▁ax	-11.4655
insp	-11.4684
▁becom	-11.47
isting	-11.4742
▁mag	-11.475
▁conserv	-11.4758
enni	-11.4781
▁denounc	-11.4818
fluent	-11.4844
rie	-11.4866
▁remov	-11.4871
▁exo	-11.4898
▁valu	-11.4937
▁victor	-11.4947
▁trips	-11.4969
nu	-11.4992
pro	-11.4997
▁hans	-11.4999
rum	-11.5023
sex	-11.5023
cure	-11.5042
▁bou	-11.508
wear	-11.5101
▁dal	-11.511
hroom	-11.5115
▁gal	-11.5117
zab	-11.5149
fina	-11.5158
ines	-11.5176
real	-11.5185
nts	-11.5188
quar	-11.5201
closure	-11.5208
hann	-11.5226
▁centr	-11.5251
▁rampa	-11.5256
xon	-11.529
parti	-11.5321
ech	-11.5332
udd	-11.5375
mel	-11.5381
▁raci	-11.5411
mma	-11.5411
hip	-11.5469
ually	-11.5472
▁disclos	-11.5474
uber	-11.5522
tac	-11.5529
▁ph	-11.5538
▁###,###-	-11.5564
▁leand	-11.5567
▁trap	-11.5627
▁replac	-11.5653
▁legs	-11.5662
▁consolidat	-11.5681
bora	-11.5734
▁bow	-11.5751
iv	-11.5767
ust	-11.5768
ress	-11.5775
inner	-11.5784
olde	-11.5796
▁fl	-11.5847
alarm	-11.5907
▁minors	-11.5913
▁ball	-11.5917
gi	-11.5919
▁gras	-11.595
oted	-11.5961
osses	-11.5962
▁fie	-11.5966
▁technolog	-11.5972
mman	-11.5979
▁assistan	-11.5999
itu	-11.603
ku	-11.6041
rop	-11.6046
▁mit	-11.6047
era	-11.6058
▁influen	-11.6082
▁observe	-11.6106
ruce	-11.6107
▁pet	-11.6142
cath	-11.6162
ental	-11.6172
▁saf	-11.6199
▁warm	-11.6239
▁sto	-11.6256
▁trials	-11.6261
gic	-11.6277
its	-11.6289
▁ele	-11.6301
nta	-11.6326
▁ignore	-11.6376
▁chatte	-11.6396
▁bett	-11.6399
▁beta	-11.6459
las	-11.6462
▁ty	-11.6497
stone	-11.6501
▁tai	-11.6532
acre	-11.6541
view	-11.6582
▁neutral	-11.6609
▁etimor	-11.6621
▁cheap	-11.6627
oner	-11.6648
▁titles	-11.6771
▁mal	-11.6801
▁mom	-11.6812
enty	-11.6815
tick	-11.6823
▁fal	-11.6829
▁stal	-11.683
rough	-11.6854
hair	-11.6861
▁traditions	-11.687
tors	-11.6885
ndo	-11.6923
roll	-11.6945
ome	-11.6977
▁silva	-11.6994
ony	-11.7016
▁raft	-11.705
nspir	-11.7069
orne	-11.7081
detected	-11.7108
▁burne	-11.711
▁restor	-11.7121
ua	-11.7142
▁pul	-11.7145
▁define	-11.7206
wedding	-11.7239
hua	-11.7241
aring	-11.7247
ey	-11.7281
rator	-11.7294
urning	-11.7296
tens	-11.7301
▁graduat	-11.7322
etter	-11.7355
sta	-11.7397
lion	-11.7434
▁surg	-11.7436
▁towns	-11.7452
▁prin	-11.7463
ify	-11.7482
federa	-11.7496
▁brighte	-11.7498
near	-11.7572
dev	-11.7591
▁letha	-11.7591
etty	-11.7618
hudd	-11.7627
▁plus	-11.7715
blaz	-11.7755
ngu	-11.7765
lley	-11.7773
▁tab	-11.7777
surge	-11.7787
▁bowl	-11.7792
argo	-11.7825
ading	-11.7849
▁stru	-11.7852
▁exci	-11.792
ada	-11.7934
tha	-11.794
▁shape	-11.7944
offs	-11.7978
▁patte	-11.8005
▁brace	-11.8038
▁wal	-11.8047
▁deflat	-11.8056
mir	-11.8057
▁invite	-11.8069
roc	-11.8095
▁improv	-11.8181
▁convene	-11.8201
anana	-11.8201
▁repl	-11.8258
aya	-11.8267
▁kn	-11.8268
insurer	-11.8275
▁hwa	-11.8278
▁vis	-11.8279
rtz	-11.8293
▁separat	-11.8337
pho	-11.8341
ewis	-11.8348
umme	-11.835
bilit	-11.839
▁pata	-11.8431
ka	-11.8433
ema	-11.8512
▁alexandr	-11.8555
▁blasts	-11.8568
▁wells	-11.8569
▁gau	-11.8602
bari	-11.8605
utin	-11.862
▁dro	-11.8631
scal	-11.8672
ulation	-11.8723
▁edi	-11.8776
skies	-11.8805
mbas	-11.8814
sel	-11.8846
▁clo	-11.885
ruz	-11.8871
▁prob	-11.888
▁exten	-11.8884
ac	-11.8885
uit	-11.8908
▁bounc	-11.894
▁ske	-11.8954
▁produc	-11.8979
ative	-11.8979
ik	-11.9002
ological	-11.901
urin	-11.9017
liv	-11.9023
▁practic	-11.9047
▁z	-11.9084
lack	-11.9146
uster	-11.9152
▁mav	-11.9174
▁stretche	-11.9213
▁nom	-11.9252
ener	-11.9254
▁bot	-11.9256
ington	-11.9265
bu	-11.9266
▁zh	-11.9269
▁wag	-11.9291
mu	-11.9333
yush	-11.935
hari	-11.9362
▁posting	-11.9362
▁bod	-11.9378
ction	-11.9386
oop	-11.9393
may	-11.9439
asu	-11.9445
fair	-11.9488
gh	-11.9514
ired	-11.9538
eeze	-11.954
mine	-11.9568
pate	-11.9576
▁sec	-11.9595
ular	-11.961
nz	-11.9617
atch	-11.9634
▁tan	-11.9661
due	-11.9701
▁participa	-11.9762
▁ensure	-11.9769
▁activate	-11.977
reas	-11.9816
▁aug	-11.9838
ider	-11.9839
▁rev	-11.9845
▁op	-11.986
▁academ	-11.9871
pha	-11.9872
aragua	-11.9879
▁impres	-11.9895
bul	-11.9902
tary	-11.9941
ails	-11.9958
▁involve	-12.0013
kh	-12.0016
▁promis	-12.0017
▁espe	-12.0019
▁cri	-12.0132
dential	-12.0139
ouri	-12.0149
ju	-12.0168
▁plo	-12.0194
filing	-12.0194
heav	-12.0268
▁arti	-12.0299
sam	-12.0304
▁differ	-12.031
vet	-12.0313
▁battl	-12.0319
▁bil	-12.033
j	-12.0334
▁crea	-12.0348
▁strik	-12.0348
▁tru	-12.0349
▁coll	-12.0361
astic	-12.0362
▁debts	-12.0375
ments	-12.038
nami	-12.0413
antoni	-12.0461
▁perv	-12.0474
▁cab	-12.0481
conced	-12.0481
▁cli	-12.0501
▁deliberate	-12.0505
▁pos	-12.0521
rov	-12.0534
ras	-12.0537
torin	-12.0545
▁cho	-12.0562
ehra	-12.0587
rebel	-12.0592
arrest	-12.0594
soldier	-12.0604
inter	-12.0606
▁aw	-12.0611
▁stresse	-12.0616
▁boo	-12.0622
anned	-12.0623
builder	-12.0639
▁spreads	-12.0656
▁respon	-12.0682
mos	-12.0689
korea	-12.0689
▁kath	-12.0691
abi	-12.0704
ph	-12.0742
post	-12.0747
struct	-12.0777
▁jock	-12.0788
poli	-12.0795
tim	-12.0806
scar	-12.0807
▁vol	-12.0826
urg	-12.0829
▁ports	-12.0839
vo	-12.0846
▁uncertain	-12.0887
organ	-12.091
control	-12.0927
gate	-12.0932
egan	-12.0934
vaccin	-12.0944
talk	-12.0947
result	-12.0961
silvi	-12.0965
▁licen	-12.0974
quee	-12.0975
scrap	-12.0979
iza	-12.0994
harg	-12.1001
ilet	-12.1027
word	-12.103
lient	-12.1039
mala	-12.104
▁perm	-12.1051
▁intens	-12.1059
retail	-12.1059
▁accu	-12.1061
▁delegat	-12.1063
▁inspect	-12.1065
▁constitu	-12.1066
engine	-12.1067
▁yankee	-12.1067
▁guarantee	-12.1068
▁wetland	-12.1074
▁quarterfinal	-12.1089
▁scre	-12.1095
balanc	-12.1099
mci	-12.1101
clav	-12.1124
abu	-12.1125
actor	-12.1126
▁student	-12.1128
▁brok	-12.1128
▁opportuni	-12.1132
▁emission	-12.1132
▁communicat	-12.114
▁sanction	-12.1153
divers	-12.1185
nations	-12.1192
ca	-12.1194
▁financ	-12.1195
tempe	-12.1209
zl	-12.1214
eme	-12.1218
gra	-12.1245
▁rebe	-12.125
scot	-12.1256
croat	-12.1257
▁verdi	-12.1273
kra	-12.1277
atlant	-12.1286
▁las	-12.1286
isco	-12.1286
academi	-12.1295
zzle	-12.1297
▁writ	-12.13
stination	-12.1303
▁motiv	-12.1308
woo	-12.1313
▁scen	-12.1313
experi	-12.1314
▁ang	-12.1314
kyrg	-12.1315
seve	-12.1315
delegat	-12.1318
spect	-12.1319
kenya	-12.132
ppe	-12.1323
etimor	-12.1327
▁justifi	-12.1334
graduat	-12.1338
airports	-12.1342
price	-12.1343
rro	-12.1345
page	-12.1347
▁tract	-12.1349
albania	-12.1351
▁ori	-12.1356
clint	-12.136
gaud	-12.136
correct	-12.1366
atlanti	-12.137
gre	-12.1373
maz	-12.1377
grenad	-12.1378
#,###	-12.1379
democra	-12.1379
mav	-12.1383
nci	-12.1385
plo	-12.1385
briefs	-12.1385
tibetans	-12.1386
writer	-12.1386
clou	-12.1388
llion	-12.1388
balkan	-12.1389
bureaucra	-12.1389
myanmar	-12.1389
rhythm	-12.1389
magazine	-12.1389
christoph	-12.1389
anthony	-12.1389
marathon	-12.1389
roots	-12.1389
colonel	-12.1389
marsh	-12.1391
conclusive	-12.1391
marshall	-12.1392
defam	-12.1392
illeg	-12.1393
hoyer	-12.1393
declar	-12.1393
philip	-12.1393
founder	-12.1401
disc	-12.1404
declin	-12.1406
bonn	-12.1407
cautious	-12.1407
holocaust	-12.1407
norwegian	-12.1407
panama	-12.1407
revolution	-12.1407
athlete	-12.1407
folk	-12.1407
dependen	-12.1408
▁appea	-12.1408
grid	-12.1408
deepen	-12.1408
daughter	-12.1409
class	-12.141
void	-12.141
govern	-12.1411
richards	-12.1412
▁surround	-12.1412
fidelity	-12.1413
express	-12.1413
quali	-12.1415
stopp	-12.1415
systems	-12.1415
deadline	-12.1415
destroy	-12.1415
magistrate	-12.1415
landslide	-12.1415
professional	-12.1416
friend	-12.1416
▁wrangl	-12.1416
heavily	-12.1417
fidel	-12.1417
filipin	-12.1417
charle	-12.1418
install	-12.1418
roger	-12.1418
regula	-12.1419
credit	-12.1419
detainees	-12.142
confident	-12.142
shell	-12.142
badminton	-12.142
offshore	-12.142
yugoslavia	-12.142
ljub	-12.142
protester	-12.142
refiner	-12.142
patrol	-12.142
carbon	-12.142
republic	-12.142
mediator	-12.142
▁chat	-12.142
message	-12.1421
hearing	-12.1422
sometimes	-12.1422
▁slid	-12.1422
promot	-12.1422
everything	-12.1422
kuwait	-12.1423
repatriat	-12.1423
uruguay	-12.1423
doubt	-12.1423
ethiopia	-12.1423
factory	-12.1423
swift	-12.1423
rwanda	-12.1423
islami	-12.1423
chronic	-12.1423
brazil	-12.1423
shenzh	-12.1424
suburb	-12.1424
muslim	-12.1424
surviv	-12.1424
figure	-12.1425
smuggling	-12.1425
accept	-12.1425
advisory	-12.1425
corporat	-12.1425
celtics	-12.1425
reality	-12.1425
college	-12.1425
effect	-12.1425
worrie	-12.1425
consider	-12.1425
travel	-12.1425
father	-12.1425
expected	-12.1425
quick	-12.1426
drunk	-12.1426
increasing	-12.1426
strengthen	-12.1426
proposal	-12.1426
solo	-12.1427
comments	-12.1427
alexand	-12.1427
front	-12.1427
northwest	-12.1427
environmental	-12.1427
weak	-12.1427
appoint	-12.1427
ethnic	-12.1427
standard	-12.1428
▁dev	-12.1428
blue	-12.1428
advance	-12.1428
prosecutor	-12.1428
establish	-12.1428
fraud	-12.1428
students	-12.1428
purchase	-12.1429
check	-12.1429
pollut	-12.1429
jerusalem	-12.1429
transport	-12.1429
refugees	-12.1429
technology	-12.1429
document	-12.143
consumer	-12.143
politician	-12.143
virus	-12.143
qualifying	-12.143
disease	-12.143
clashe	-12.143
flood	-12.143
angola	-12.143
correction	-12.143
ambassador	-12.143
independence	-12.143
michael	-12.143
referendum	-12.143
shanghai	-12.143
ehr	-12.1431
hospital	-12.1431
freeze	-12.1431
traffic	-12.1431
invest	-12.1431
count	-12.1431
tropic	-12.1431
carlos	-12.1431
history	-12.1431
committe	-12.1432
robert	-12.1432
negotiat	-12.1432
threaten	-12.1432
lanka	-12.1432
building	-12.1432
baghdad	-12.1432
dispute	-12.1432
details	-12.1433
smith	-12.1433
process	-12.1433
confirm	-12.1433
#.#	-12.1433
organization	-12.1433
political	-12.1433
judge	-12.1433
children	-12.1433
council	-12.1433
paris	-12.1434
parliament	-12.1434
future	-12.1434
authorit	-12.1434
defense	-12.1434
record	-12.1434
crime	-12.1434
agreement	-12.1434
suspect	-12.1434
effort	-12.1435
before	-12.1435
june	-12.1435
question	-12.1436
justice	-12.1436
pressure	-12.1437
friday	-12.1437
sharp	-12.1437
production	-12.1437
connecti	-12.1437
route	-12.1437
hotel	-12.1438
number	-12.1438
bigge	-12.1438
launch	-12.1438
trap	-12.1439
firm	-12.144
governor	-12.144
corp	-12.1441
killing	-12.1441
trading	-12.1442
financi	-12.1442
▁retir	-12.1444
muti	-12.1444
summary	-12.1445
para	-12.1446
country	-12.1448
block	-12.1448
rection	-12.1449
auto	-12.145
women	-12.145
help	-12.145
olympics	-12.1451
jing	-12.1452
large	-12.1452
▁ferre	-12.1452
giant	-12.1452
poul	-12.1453
seem	-12.1454
▁preside	-12.1454
positi	-12.1454
young	-12.1455
hurt	-12.1456
bird	-12.1459
signed	-12.1459
adb	-12.146
teacher	-12.1463
temper	-12.1464
crown	-12.1464
loa	-12.1465
ric	-12.1465
guang	-12.1467
left	-12.1472
produc	-12.1472
personal	-12.1472
marine	-12.1475
storm	-12.1475
krist	-12.1476
▁unab	-12.1476
meter	-12.1476
white	-12.1479
prince	-12.1479
graf	-12.1481
tape	-12.1482
▁judi	-12.1482
▁forgot	-12.1483
laugh	-12.1483
chris	-12.1484
celebrat	-12.1484
what	-12.1484
▁clem	-12.1487
giv	-12.1488
media	-12.1488
▁reserv	-12.1488
wire	-12.149
▁displ	-12.1491
wild	-12.1491
gaz	-12.1493
stein	-12.1494
wave	-12.1494
▁olympia	-12.1495
haiti	-12.1496
cheat	-12.1496
▁abdu	-12.1496
vestment	-12.1499
vat	-12.15
▁borou	-12.1502
ult	-12.1502
▁fortif	-12.1503
▁prim	-12.1504
▁jala	-12.1504
▁celebr	-12.1505
▁occu	-12.1508
▁commit	-12.151
strik	-12.1512
scale	-12.1512
culation	-12.1514
martin	-12.1519
color	-12.1522
heart	-12.1523
fast	-12.1525
▁neighbo	-12.1526
scien	-12.1528
▁energ	-12.1528
henri	-12.153
▁rememb	-12.1531
▁kidnap	-12.1531
llar	-12.1535
forest	-12.1536
heavy	-12.1536
▁earn	-12.1537
nkorea	-12.1537
▁freight	-12.1538
▁princ	-12.1539
▁shut	-12.1539
brun	-12.1539
bila	-12.1539
▁slug	-12.154
ologic	-12.1541
immigra	-12.1543
▁activis	-12.1546
style	-12.1548
kenyan	-12.1552
scores	-12.1552
gov	-12.1552
fund	-12.1553
uiz	-12.1554
▁steve	-12.1554
marc	-12.1554
warning	-12.1556
▁defici	-12.1557
lower	-12.1558
web	-12.1558
ected	-12.1558
cub	-12.1558
▁succe	-12.1559
▁equip	-12.1562
▁innovati	-12.1563
▁gener	-12.1563
bodi	-12.1563
##,###-	-12.1563
prov	-12.1564
▁freez	-12.1564
person	-12.1565
▁communis	-12.1566
loo	-12.1566
big	-12.1567
bodies	-12.1567
spend	-12.1567
▁strength	-12.1568
local	-12.1571
ffici	-12.1571
▁explosi	-12.1572
lroo	-12.1573
▁expans	-12.1575
pass	-12.1576
lympics	-12.1577
▁religio	-12.1578
▁automat	-12.1578
retire	-12.1578
easure	-12.1579
cello	-12.1579
▁palestin	-12.158
voter	-12.1581
▁brui	-12.1581
▁recommend	-12.1582
recht	-12.1582
armenia	-12.1582
▁kilo	-12.1582
▁migra	-12.1583
glanc	-12.1583
profess	-12.1583
tank	-12.1583
▁admin	-12.1584
gnific	-12.1584
▁astron	-12.1584
solut	-12.1584
tribute	-12.1585
▁disgr	-12.1585
▁cauc	-12.1585
tigate	-12.1585
rust	-12.1586
▁trav	-12.1586
lipin	-12.1586
advert	-12.1588
nditions	-12.1588
itude	-12.1588
boro	-12.1588
alogue	-12.1589
▁vegeta	-12.1589
ignat	-12.159
destine	-12.159
slav	-12.1591
fra	-12.1591
▁candida	-12.1591
▁slum	-12.1591
###-####	-12.1591
▁insur	-12.1591
cook	-12.1592
mpire	-12.1592
leona	-12.1593
telev	-12.1593
▁homi	-12.1595
endar	-12.1595
deb	-12.1596
▁exec	-12.1598
ix	-12.16
stration	-12.1602
▁invent	-12.1604
entative	-12.1604
blast	-12.1605
▁exhi	-12.1606
inister	-12.1607
hemi	-12.1607
leader	-12.1609
▁prospe	-12.161
jet	-12.161
▁mirac	-12.161
----	-12.161
▁lobbi	-12.1611
ntry	-12.1612
unci	-12.1613
▁###-###	-12.1613
▁synd	-12.1614
urri	-12.1614
income	-12.1614
kpo	-12.1616
umps	-12.1616
reau	-12.1616
chai	-12.1617
▁liq	-12.1619
qi	-12.1622
▁opp	-12.1622
▁lav	-12.1623
ronald	-12.1623
lvin	-12.1625
lord	-12.163
▁acce	-12.1631
inquir	-12.1632
▁cai	-12.1632
▁laure	-12.1633
ribe	-12.1636
ndler	-12.1637
▁sprin	-12.1638
ension	-12.1641
▁jama	-12.1642
oldie	-12.1644
▁consec	-12.1646
▁repeat	-12.1647
▁wildf	-12.165
▁indic	-12.1651
tex	-12.1651
gali	-12.1653
eligi	-12.1654
fourth	-12.1659
trip	-12.1659
phil	-12.1659
▁factor	-12.1661
bani	-12.1663
▁ear	-12.1663
scand	-12.1667
bama	-12.1669
▁brig	-12.1672
mob	-12.1675
ocation	-12.1676
▁frid	-12.1677
initia	-12.1679
mig	-12.168
rapher	-12.1681
▁innocen	-12.1683
▁washing	-12.1683
▁praye	-12.1684
rror	-12.1685
erik	-12.1687
valle	-12.1688
ichard	-12.1688
ppon	-12.169
omme	-12.1691
ulian	-12.1692
uine	-12.1693
ordan	-12.1693
rumbl	-12.1694
▁demo	-12.1695
▁elde	-12.1695
wai	-12.1697
buy	-12.1698
▁silen	-12.1698
hung	-12.1698
▁timo	-12.1701
itant	-12.1701
▁franch	-12.1702
gling	-12.1704
▁riv	-12.1705
ifying	-12.1705
▁pric	-12.171
zil	-12.172
tsma	-12.1724
▁lab	-12.1725
quipp	-12.173
▁sanita	-12.1733
must	-12.1737
▁supr	-12.1739
▁trib	-12.174
zak	-12.174
▁dissi	-12.1746
cardo	-12.1747
engineer	-12.1748
▁pete	-12.175
ackle	-12.1753
kola	-12.1755
▁telec	-12.1758
▁proce	-12.1759
ggle	-12.1759
▁buc	-12.1761
monia	-12.1763
khar	-12.1767
cca	-12.1767
mmed	-12.1769
sanc	-12.1773
retailer	-12.1775
▁recal	-12.1775
marat	-12.1782
▁seve	-12.1783
▁spre	-12.1785
mise	-12.179
tious	-12.179
▁chick	-12.1792
▁dri	-12.1799
▁orde	-12.1804
▁frei	-12.1805
elevan	-12.1809
ernet	-12.1812
▁christi	-12.1812
",#	-12.1812
mbing	-12.1812
▁dv	-12.1814
▁illeg	-12.1829
▁geno	-12.1832
lipp	-12.1832
hall	-12.1833
yacht	-12.1834
tarian	-12.1834
uins	-12.1835
umb	-12.1839
▁legi	-12.184
presse	-12.184
bach	-12.1844
reme	-12.1846
cono	-12.1854
▁kyrg	-12.1859
pole	-12.1876
▁experi	-12.1877
hamas	-12.1877
▁jia	-12.1878
singhe	-12.1879
scus	-12.1884
▁clint	-12.1887
under	-12.1892
▁distr	-12.1896
▁deadli	-12.1899
▁bul	-12.1899
pic	-12.1902
▁dama	-12.1904
assem	-12.1905
▁pow	-12.1909
berni	-12.1912
settle	-12.1912
anya	-12.1921
▁rh	-12.1922
assess	-12.1922
▁gian	-12.1924
▁genera	-12.1925
rence	-12.1927
tur	-12.193
▁squ	-12.1935
▁clu	-12.1939
teenage	-12.194
anish	-12.1943
▁fisher	-12.1948
sky	-12.1948
arine	-12.1949
pla	-12.1955
▁appr	-12.1956
▁kno	-12.1957
cover	-12.1965
▁jian	-12.1968
,#	-12.197
▁paraly	-12.1971
▁deba	-12.1972
ength	-12.1975
toll	-12.1981
▁deli	-12.1981
story	-12.1984
▁chee	-12.1989
▁criti	-12.1992
ime	-12.2001
▁conta	-12.2003
sim	-12.201
boy	-12.203
▁froze	-12.2039
▁gamb	-12.2052
▁vio	-12.2054
▁assassinat	-12.2063
eye	-12.2065
late	-12.207
oord	-12.2072
sru	-12.2073
▁char	-12.2075
niste	-12.2079
bara	-12.2087
anci	-12.2091
▁jur	-12.2093
vaccine	-12.2095
abo	-12.2101
lks	-12.2103
enne	-12.2117
tla	-12.2118
▁mac	-12.2123
▁gaud	-12.2125
▁verd	-12.2128
▁robbi	-12.2138
▁memora	-12.2139
▁belo	-12.2146
zho	-12.2152
elight	-12.2155
adel	-12.2158
▁tala	-12.2172
rain	-12.2174
▁sche	-12.218
jen	-12.2189
xist	-12.2191
goo	-12.2192
▁dep	-12.2199
▁grap	-12.2204
hamp	-12.221
ndum	-12.2216
▁eve	-12.2234
prices	-12.2236
▁leb	-12.2243
mmunis	-12.2251
tten	-12.2251
delay	-12.2256
bombed	-12.2256
phi	-12.2257
▁sour	-12.226
▁philipp	-12.2267
lugg	-12.2271
uangd	-12.2272
▁rene	-12.2275
atis	-12.2294
▁span	-12.2295
▁bulgaria	-12.2298
fish	-12.2316
▁juli	-12.232
gates	-12.2321
otes	-12.2328
rebels	-12.2335
soldiers	-12.234
▁argentin	-12.2345
posts	-12.2352
arrests	-12.2354
▁mea	-12.2358
lib	-12.2377
ache	-12.238
ighten	-12.2385
graceful	-12.2387
arbi	-12.2387
ascar	-12.2387
rise	-12.2388
osp	-12.2397
▁strat	-12.2404
uffy	-12.2407
▁settl	-12.241
lished	-12.2412
▁congr	-12.2418
around	-12.2423
af	-12.2435
fil	-12.2461
▁nec	-12.2469
swit	-12.2473
lican	-12.2474
that	-12.2475
▁eth	-12.2485
techn	-12.2499
inside	-12.2501
▁nei	-12.2514
polis	-12.2518
▁pit	-12.2531
▁routin	-12.2533
▁jay	-12.2535
▁prisoner	-12.2542
conn	-12.255
once	-12.2616
▁clin	-12.2618
mobile	-12.2628
medal	-12.263
ike	-12.2634
▁quest	-12.2636
ecu	-12.2662
▁breaks	-12.2668
▁bio	-12.2678
▁cel	-12.269
noc	-12.2711
▁wet	-12.2717
▁bac	-12.2718
kk	-12.2743
▁####-##	-12.2769
cts	-12.277
uti	-12.2791
ograph	-12.2803
manda	-12.2818
▁austr	-12.2819
▁tort	-12.2819
ency	-12.2841
▁alter	-12.2864
tzer	-12.2865
unga	-12.2884
▁donat	-12.2907
nju	-12.2907
▁eva	-12.2931
▁teen	-12.2939
▁atlanti	-12.2975
via	-12.2983
open	-12.2997
▁bettin	-12.2998
▁unp	-12.3004
leb	-12.301
spy	-12.3014
▁boos	-12.3017
tar	-12.304
becom	-12.3048
▁defen	-12.3053
wns	-12.3068
jin	-12.307
fest	-12.3074
rio	-12.3076
guan	-12.3101
▁entrepreneurs	-12.3117
xa	-12.3134
thor	-12.3135
tow	-12.3141
aster	-12.3152
▁lau	-12.3155
▁liberat	-12.3198
ndation	-12.3208
tack	-12.3211
fu	-12.3215
▁hur	-12.322
▁tenn	-12.3238
vid	-12.3243
nue	-12.3253
lop	-12.3257
▁jal	-12.331
lls	-12.332
▁gir	-12.3329
coal	-12.3332
▁credi	-12.3373
rival	-12.3375
ordin	-12.3386
doze	-12.34
rap	-12.3433
ends	-12.3467
▁beg	-12.3497
▁kad	-12.3527
▁americas	-12.3546
rul	-12.3553
▁unh	-12.3561
skat	-12.3571
▁transa	-12.3577
unts	-12.3584
skip	-12.3599
▁rai	-12.3606
ampa	-12.3622
▁brit	-12.3627
▁exa	-12.3631
owa	-12.3667
richa	-12.3716
main	-12.3726
nec	-12.374
date	-12.3744
▁tre	-12.3744
ashing	-12.3772
▁leon	-12.3777
att	-12.3847
▁electr	-12.3874
rovi	-12.3907
rics	-12.3908
ctions	-12.3909
▁academi	-12.3931
list	-12.3949
▁sponsors	-12.3976
ody	-12.3987
sport	-12.3997
of	-12.4019
▁gran	-12.403
reported	-12.4047
aide	-12.4067
▁harb	-12.4076
members	-12.4103
▁cat	-12.4131
taly	-12.4132
tali	-12.4142
helm	-12.416
sunam	-12.4163
▁poi	-12.4174
fts	-12.4211
rge	-12.4292
doe	-12.4323
▁bass	-12.4341
snow	-12.4366
▁cam	-12.4374
alone	-12.4397
eak	-12.4454
rtm	-12.4474
▁spli	-12.45
boxe	-12.4516
trie	-12.4519
▁tr	-12.4533
gros	-12.4544
shot	-12.463
▁carr	-12.4646
pos	-12.4729
reeze	-12.4746
reaking	-12.4758
pre	-12.4765
tz	-12.4787
▁lib	-12.4821
gm	-12.4869
bee	-12.487
▁revol	-12.4961
ban	-12.5001
rit	-12.5004
alia	-12.5018
▁stir	-12.5039
itzer	-12.5131
guay	-12.5212
iness	-12.5246
lum	-12.5257
vern	-12.5268
limb	-12.5279
saving	-12.5338
sters	-12.5345
uitt	-12.5357
wer	-12.5481
▁fare	-12.5529
▁secu	-12.5542
▁cen	-12.5588
riy	-12.5593
rished	-12.5602
mps	-12.5656
hern	-12.5664
com	-12.5674
reem	-12.5847
▁toughe	-12.5848
edict	-12.5863
inqui	-12.5893
▁lashe	-12.5928
▁sk	-12.5947
uitabl	-12.6071
▁investigations	-12.6074
anna	-12.6137
▁.",###	-12.6155
▁fas	-12.6179
ani	-12.6254
uma	-12.6257
gji	-12.6344
nea	-12.6346
dad	-12.6456
shares	-12.6478
tee	-12.6506
points	-12.6531
erence	-12.667
####	-12.6684
newly	-12.6718
▁.,##	-12.674
nko	-12.6759
ita	-12.6791
etic	-12.6827
U	-13.5373
N	-13.5374
K	-13.5375
